{
  "version": "1.0",
  "truncation": null,
  "padding": null,
  "added_tokens": [
    {
      "id": 0,
      "content": "<s>",
      "single_word": false,
      "lstrip": false,
      "rstrip": false,
      "normalized": false,
      "special": true
    },
    {
      "id": 1,
      "content": "</s>",
      "single_word": false,
      "lstrip": false,
      "rstrip": false,
      "normalized": false,
      "special": true
    },
    {
      "id": 2,
      "content": "<blank>",
      "single_word": false,
      "lstrip": false,
      "rstrip": false,
      "normalized": false,
      "special": true
    },
    {
      "id": 3,
      "content": "<unk>",
      "single_word": false,
      "lstrip": false,
      "rstrip": false,
      "normalized": false,
      "special": true
    },
    {
      "id": 4,
      "content": "</w>",
      "single_word": false,
      "lstrip": false,
      "rstrip": false,
      "normalized": false,
      "special": true
    }
  ],
  "normalizer": null,
  "pre_tokenizer": {
    "type": "ByteLevel",
    "add_prefix_space": true,
    "trim_offsets": true,
    "use_regex": true
  },
  "post_processor": {
    "type": "ByteLevel",
    "add_prefix_space": true,
    "trim_offsets": true,
    "use_regex": true
  },
  "decoder": {
    "type": "ByteLevel",
    "add_prefix_space": true,
    "trim_offsets": true,
    "use_regex": true
  },
  "model": {
    "type": "BPE",
    "dropout": null,
    "unk_token": "<unk>",
    "continuing_subword_prefix": null,
    "end_of_word_suffix": null,
    "fuse_unk": false,
    "byte_fallback": false,
    "ignore_merges": false,
    "vocab": {
      "<s>": 0,
      "</s>": 1,
      "<blank>": 2,
      "<unk>": 3,
      "</w>": 4,
      "!": 5,
      "\"": 6,
      "#": 7,
      "$": 8,
      "%": 9,
      "&": 10,
      "'": 11,
      "(": 12,
      ")": 13,
      "*": 14,
      "+": 15,
      ",": 16,
      "-": 17,
      ".": 18,
      "/": 19,
      "0": 20,
      "1": 21,
      "2": 22,
      "3": 23,
      "4": 24,
      "5": 25,
      "6": 26,
      "7": 27,
      "8": 28,
      "9": 29,
      ":": 30,
      ";": 31,
      "<": 32,
      "=": 33,
      ">": 34,
      "?": 35,
      "@": 36,
      "A": 37,
      "B": 38,
      "C": 39,
      "D": 40,
      "E": 41,
      "F": 42,
      "G": 43,
      "H": 44,
      "I": 45,
      "J": 46,
      "K": 47,
      "L": 48,
      "M": 49,
      "N": 50,
      "O": 51,
      "P": 52,
      "Q": 53,
      "R": 54,
      "S": 55,
      "T": 56,
      "U": 57,
      "V": 58,
      "W": 59,
      "X": 60,
      "Y": 61,
      "Z": 62,
      "[": 63,
      "\\": 64,
      "]": 65,
      "^": 66,
      "_": 67,
      "`": 68,
      "a": 69,
      "b": 70,
      "c": 71,
      "d": 72,
      "e": 73,
      "f": 74,
      "g": 75,
      "h": 76,
      "i": 77,
      "j": 78,
      "k": 79,
      "l": 80,
      "m": 81,
      "n": 82,
      "o": 83,
      "p": 84,
      "q": 85,
      "r": 86,
      "s": 87,
      "t": 88,
      "u": 89,
      "v": 90,
      "w": 91,
      "x": 92,
      "y": 93,
      "z": 94,
      "{": 95,
      "|": 96,
      "}": 97,
      "~": 98,
      "¡": 99,
      "¢": 100,
      "£": 101,
      "¤": 102,
      "¥": 103,
      "¦": 104,
      "§": 105,
      "¨": 106,
      "©": 107,
      "ª": 108,
      "«": 109,
      "¬": 110,
      "®": 111,
      "¯": 112,
      "°": 113,
      "±": 114,
      "²": 115,
      "³": 116,
      "´": 117,
      "¶": 118,
      "·": 119,
      "¸": 120,
      "¹": 121,
      "º": 122,
      "»": 123,
      "¼": 124,
      "½": 125,
      "¾": 126,
      "¿": 127,
      "Â": 128,
      "Ã": 129,
      "Å": 130,
      "â": 131,
      "ï": 132,
      "Ĉ": 133,
      "ĉ": 134,
      "Đ": 135,
      "Ġ": 136,
      "Ģ": 137,
      "ģ": 138,
      "Ĥ": 139,
      "ĥ": 140,
      "Ħ": 141,
      "ħ": 142,
      "Ī": 143,
      "ī": 144,
      "Ĭ": 145,
      "į": 146,
      "İ": 147,
      "ĳ": 148,
      "ĵ": 149,
      "ķ": 150,
      "ĸ": 151,
      "Ĺ": 152,
      "ĺ": 153,
      "Ļ": 154,
      "ľ": 155,
      "Ŀ": 156,
      "ŀ": 157,
      "Ł": 158,
      "ł": 159,
      "Ń": 160,
      "Ġt": 161,
      "Ġa": 162,
      "he": 163,
      "in": 164,
      "Ġthe": 165,
      "Ġs": 166,
      "re": 167,
      "Ġw": 168,
      "Ġo": 169,
      "is": 170,
      "er": 171,
      "nd": 172,
      "Ġf": 173,
      "Ġm": 174,
      "Ġb": 175,
      "it": 176,
      "at": 177,
      "ing": 178,
      "Ġc": 179,
      "en": 180,
      "es": 181,
      "or": 182,
      "ou": 183,
      "Ġth": 184,
      "on": 185,
      "Ġh": 186,
      "ll": 187,
      "an": 188,
      "Ġand": 189,
      "Ġto": 190,
      "Ġof": 191,
      "Ġp": 192,
      "ar": 193,
      "Ġd": 194,
      "ed": 195,
      "as": 196,
      "Ġin": 197,
      "Ġl": 198,
      "om": 199,
      "ĠI": 200,
      "Ġis": 201,
      "ic": 202,
      "br": 203,
      "Ġg": 204,
      "Ġ/": 205,
      "Ġ/>": 206,
      "le": 207,
      "Ġe": 208,
      "ot": 209,
      "Ġn": 210,
      "al": 211,
      "ut": 212,
      "st": 213,
      "ct": 214,
      "il": 215,
      "Ġit": 216,
      "Ġbe": 217,
      "ĠT": 218,
      "ve": 219,
      "ie": 220,
      "ly": 221,
      "Ġmo": 222,
      "Ġre": 223,
      "Ġon": 224,
      "Ġthat": 225,
      "ver": 226,
      "ow": 227,
      "ad": 228,
      "ent": 229,
      "Ġhe": 230,
      "'s": 231,
      "im": 232,
      "ion": 233,
      "Ġthis": 234,
      "ay": 235,
      "Ġwh": 236,
      "se": 237,
      "Ġst": 238,
      "gh": 239,
      "et": 240,
      "id": 241,
      "ch": 242,
      "Ġwas": 243,
      "Ġmov": 244,
      "Ġy": 245,
      "Ġ/><": 246,
      "ith": 247,
      "ilm": 248,
      "all": 249,
      "Ġfor": 250,
      "oo": 251,
      "Ġfilm": 252,
      "Ġas": 253,
      "Ġu": 254,
      "ĠA": 255,
      "ce": 256,
      "ĠS": 257,
      "Ġwith": 258,
      "am": 259,
      "Ġan": 260,
      "ke": 261,
      "ld": 262,
      "Ġse": 263,
      "ĠThe": 264,
      "ir": 265,
      "Ġmovie": 266,
      "ro": 267,
      "Ġyou": 268,
      "ri": 269,
      "Ġha": 270,
      ".<": 271,
      "ĠB": 272,
      "her": 273,
      "ur": 274,
      "Ġli": 275,
      "ĠM": 276,
      "Ġbut": 277,
      "ra": 278,
      "Ġwe": 279,
      "Ġnot": 280,
      "ally": 281,
      "'t": 282,
      "ill": 283,
      "Ġ(": 284,
      "ter": 285,
      "ĠC": 286,
      "Ġ\"": 287,
      "ĠH": 288,
      "ck": 289,
      "Ġare": 290,
      "Ġsh": 291,
      "ĠW": 292,
      "Ġhis": 293,
      "ome": 294,
      "Ġch": 295,
      "pe": 296,
      "ers": 297,
      "ould": 298,
      "ul": 299,
      "Ġat": 300,
      "..": 301,
      "ĠD": 302,
      "ght": 303,
      "Ġhave": 304,
      "em": 305,
      "if": 306,
      "Ġsu": 307,
      "ust": 308,
      "Ġj": 309,
      "un": 310,
      "Ġfr": 311,
      "out": 312,
      "Ġsc": 313,
      "Ġact": 314,
      "Ġdo": 315,
      "ain": 316,
      "ble": 317,
      "ess": 318,
      "Ġex": 319,
      "Ġwho": 320,
      "Ġone": 321,
      "el": 322,
      "Ġk": 323,
      "Ġso": 324,
      "act": 325,
      "ood": 326,
      "very": 327,
      "Ġcom": 328,
      "Ġall": 329,
      "Ġpl": 330,
      "ant": 331,
      "art": 332,
      "Ġab": 333,
      "ies": 334,
      "ak": 335,
      "pp": 336,
      "Ġby": 337,
      "us": 338,
      "Ġal": 339,
      "ag": 340,
      "ol": 341,
      "Ġv": 342,
      "est": 343,
      "ĠP": 344,
      "ous": 345,
      "op": 346,
      "ist": 347,
      "Ġde": 348,
      "th": 349,
      "ĠL": 350,
      "ĠR": 351,
      "and": 352,
      "Ġfrom": 353,
      "Ġne": 354,
      "Ġwor": 355,
      "ast": 356,
      "one": 357,
      "ĠF": 358,
      "Ġthey": 359,
      "Ġlike": 360,
      "Ġout": 361,
      "ven": 362,
      "Ġint": 363,
      "ĠJ": 364,
      "Ġr": 365,
      "Ġsome": 366,
      "Ġwhe": 367,
      "ĠG": 368,
      "Ġcon": 369,
      "qu": 370,
      "ation": 371,
      "Ġher": 372,
      "Ġor": 373,
      "um": 374,
      "fe": 375,
      "ough": 376,
      "red": 377,
      "ĠTh": 378,
      "au": 379,
      "ate": 380,
      "ĠIt": 381,
      "Ġme": 382,
      "Ġabout": 383,
      "Ġjust": 384,
      "Ġhas": 385,
      "res": 386,
      "ich": 387,
      "os": 388,
      "ind": 389,
      "ory": 390,
      "ive": 391,
      "ĠN": 392,
      "ard": 393,
      "Ġpro": 394,
      "ack": 395,
      "Ġchar": 396,
      "Ġcan": 397,
      "ort": 398,
      "pt": 399,
      "Ġtim": 400,
      "Ġun": 401,
      "ĠE": 402,
      "ig": 403,
      "ire": 404,
      "ook": 405,
      "ud": 406,
      "ake": 407,
      "Ġle": 408,
      "ight": 409,
      "reat": 410,
      "ĠO": 411,
      "Ġgood": 412,
      "Ġcharact": 413,
      "Ġany": 414,
      "ong": 415,
      "Ġman": 416,
      "Ġtr": 417,
      "Ġwat": 418,
      "Ġmore": 419,
      "Ġlo": 420,
      "Ġup": 421,
      "Ġget": 422,
      "Ġgo": 423,
      "Ġno": 424,
      "Ġwould": 425,
      "Ġfe": 426,
      "ity": 427,
      "Ġsee": 428,
      "Ġvery": 429,
      "The": 430,
      "Ġwhat": 431,
      "ther": 432,
      "ound": 433,
      "Ġmy": 434,
      "Ġthere": 435,
      "ite": 436,
      "Ġstory": 437,
      "ge": 438,
      "ame": 439,
      "Ġbec": 440,
      "nt": 441,
      "ĠThis": 442,
      "ide": 443,
      "Ġtime": 444,
      "able": 445,
      "Ġshe": 446,
      "od": 447,
      "Ġ1": 448,
      "Ġwhen": 449,
      "Ġen": 450,
      "Ġ-": 451,
      "hing": 452,
      "Ġwere": 453,
      "Ġhad": 454,
      "Ġreally": 455,
      "ure": 456,
      "ell": 457,
      "ore": 458,
      "Ġonly": 459,
      "oy": 460,
      "ab": 461,
      "Ġtheir": 462,
      "Ġscen": 463,
      "ĠK": 464,
      "itt": 465,
      "Ġwatch": 466,
      "Ġhim": 467,
      "Ġper": 468,
      "Ġif": 469,
      "Ġshow": 470,
      "Ġeven": 471,
      "Ġwhich": 472,
      "ious": 473,
      "so": 474,
      "Ġother": 475,
      "ick": 476,
      "ial": 477,
      "pl": 478,
      "ink": 479,
      "Ġcl": 480,
      "ment": 481,
      "man": 482,
      "Ġthan": 483,
      "te": 484,
      "ars": 485,
      "Ġthem": 486,
      "our": 487,
      "ine": 488,
      "ap": 489,
      "ond": 490,
      "Ġkn": 491,
      "og": 492,
      "Ġdid": 493,
      "ays": 494,
      "Ġdoes": 495,
      "uch": 496,
      "ade": 497,
      "Ġend": 498,
      "are": 499,
      "ves": 500,
      "ause": 501,
      "ac": 502,
      "Ġpe": 503,
      "ice": 504,
      "Ġmuch": 505,
      "Ġgreat": 506,
      "Ġbad": 507,
      "Ġlook": 508,
      "Ġqu": 509,
      "Ġbet": 510,
      "Ġar": 511,
      "irst": 512,
      "...": 513,
      "ue": 514,
      "irect": 515,
      "ople": 516,
      "Ġcould": 517,
      "Ġbeen": 518,
      "Ġwill": 519,
      "Ġover": 520,
      "Ġim": 521,
      "Ġpo": 522,
      "ple": 523,
      "Ġinto": 524,
      "Ġhow": 525,
      "ert": 526,
      "ence": 527,
      "lf": 528,
      "int": 529,
      "Ġpre": 530,
      "ne": 531,
      "Ġwell": 532,
      "Ġpeople": 533,
      "Ġmost": 534,
      "ry": 535,
      "ose": 536,
      "Ġro": 537,
      "Ġtw": 538,
      "Ġknow": 539,
      "Ġthink": 540,
      "ass": 541,
      "age": 542,
      "Ġad": 543,
      "Ġbecause": 544,
      "for": 545,
      "Ġtoo": 546,
      "Ġdis": 547,
      "other": 548,
      "per": 549,
      "Ġus": 550,
      "av": 551,
      "fter": 552,
      "ors": 553,
      "Ġag": 554,
      "ful": 555,
      "ff": 556,
      "Ġreal": 557,
      "Ġdirect": 558,
      "Ġfirst": 559,
      "Ġmake": 560,
      "Ġmade": 561,
      "Ġpart": 562,
      "Ġoff": 563,
      "ile": 564,
      "Ġevery": 565,
      "Ġam": 566,
      "ull": 567,
      "Ġthing": 568,
      "ish": 569,
      "aw": 570,
      "Ġway": 571,
      "ict": 572,
      "ere": 573,
      "Ġalso": 574,
      "ated": 575,
      "ny": 576,
      "ary": 577,
      "oll": 578,
      "Ġseem": 579,
      "gin": 580,
      "Ġ'": 581,
      "Ġfun": 582,
      "ty": 583,
      "ost": 584,
      "Ġwr": 585,
      "Ġthr": 586,
      "ical": 587,
      "Ġdon": 588,
      "akes": 589,
      "Ġits": 590,
      "own": 591,
      "Ġcharacter": 592,
      "Ġmovies": 593,
      "ans": 594,
      "ĠY": 595,
      "ep": 596,
      "Ġwork": 597,
      "ress": 598,
      "iew": 599,
      "ng": 600,
      "Ġbl": 601,
      "Ġsp": 602,
      "Ġcharacters": 603,
      "ace": 604,
      "ĠCh": 605,
      "ance": 606,
      "ob": 607,
      "ually": 608,
      "hed": 609,
      "Ġgu": 610,
      "ĠAnd": 611,
      "pect": 612,
      "cc": 613,
      "Ġfilms": 614,
      "fect": 615,
      "Ġplay": 616,
      "Ġfl": 617,
      "iz": 618,
      "Ġte": 619,
      "ving": 620,
      "self": 621,
      "Ġplot": 622,
      "Ġye": 623,
      "Ġthen": 624,
      "Ġseen": 625,
      "ĠWh": 626,
      "Ġser": 627,
      "ces": 628,
      "omet": 629,
      "Ġaw": 630,
      "Ġwant": 631,
      "ĠV": 632,
      "ĠBut": 633,
      "ittle": 634,
      "),": 635,
      "Ġbeing": 636,
      "ĠIn": 637,
      "Ġyour": 638,
      "Ġtwo": 639,
      ").": 640,
      "Ġafter": 641,
      "Ġsay": 642,
      "Ġlove": 643,
      "ĠHe": 644,
      "Ġnever": 645,
      "Ġmany": 646,
      "ip": 647,
      "get": 648,
      "Ġacting": 649,
      "urn": 650,
      "nder": 651,
      "Ġback": 652,
      "Ġthrough": 653,
      "ang": 654,
      "ark": 655,
      "mer": 656,
      "Ġlife": 657,
      "Ġwhere": 658,
      "Ġlittle": 659,
      "ily": 660,
      "ens": 661,
      "Ġent": 662,
      "ved": 663,
      "Ġbest": 664,
      "Ġ<": 665,
      "ian": 666,
      "Ġrem": 667,
      "Ġbr": 668,
      "Ġsomet": 669,
      "ild": 670,
      "ult": 671,
      "ather": 672,
      "ach": 673,
      "ĠSt": 674,
      "ise": 675,
      "Ġdes": 676,
      "ber": 677,
      "Ġever": 678,
      "Ġhor": 679,
      "ci": 680,
      "we": 681,
      "Ġbetter": 682,
      "du": 683,
      "Ġrec": 684,
      "wn": 685,
      "vel": 686,
      "ions": 687,
      "ual": 688,
      "Ġperfor": 689,
      "rap": 690,
      "Ġshould": 691,
      "Ġfind": 692,
      "aking": 693,
      "Ġsl": 694,
      "be": 695,
      "Ġscene": 696,
      "Ġspe": 697,
      "!!": 698,
      "vers": 699,
      "Ġcont": 700,
      "ought": 701,
      "thing": 702,
      "Ġgr": 703,
      "ase": 704,
      "Ġfeel": 705,
      "less": 706,
      "ĠU": 707,
      "Ġagain": 708,
      "Ġscenes": 709,
      "Ġpr": 710,
      "ertain": 711,
      "'ve": 712,
      "Ġatt": 713,
      "Ġi": 714,
      "ĠThere": 715,
      "ath": 716,
      "ents": 717,
      "Ġcr": 718,
      "Ġ2": 719,
      "iend": 720,
      "Ġhere": 721,
      "lie": 722,
      "Ġstill": 723,
      "Ġri": 724,
      "ia": 725,
      "Ġmin": 726,
      "ning": 727,
      "Ġunder": 728,
      "ting": 729,
      "erest": 730,
      "ever": 731,
      "augh": 732,
      "me": 733,
      "Ġ19": 734,
      "ably": 735,
      "fore": 736,
      "Ġsuch": 737,
      "Ġinterest": 738,
      "igh": 739,
      "Ġkill": 740,
      "'m": 741,
      "les": 742,
      "Ġinc": 743,
      "Ġsomething": 744,
      "ren": 745,
      "ree": 746,
      "ating": 747,
      "arly": 748,
      "Ġhapp": 749,
      "ason": 750,
      "Ġold": 751,
      "Ġimp": 752,
      "alk": 753,
      "ations": 754,
      "ense": 755,
      "Ġcast": 756,
      "Ġmay": 757,
      "Ġperforman": 758,
      "Ġthese": 759,
      "Ġfam": 760,
      "Ġgi": 761,
      "ail": 762,
      "Ġpoint": 763,
      "ave": 764,
      "ĠAl": 765,
      "Ġlot": 766,
      "Ġhum": 767,
      "Ġsur": 768,
      "oth": 769,
      "ater": 770,
      "Ġap": 771,
      "reen": 772,
      "ru": 773,
      "Ġdoesn": 774,
      "the": 775,
      "Ġdec": 776,
      "iv": 777,
      "Ġthose": 778,
      "ror": 779,
      "joy": 780,
      "ect": 781,
      "ying": 782,
      "Ġyears": 783,
      "Ġactors": 784,
      "Ġsim": 785,
      "Ġwom": 786,
      "up": 787,
      "Ġwatching": 788,
      "Ġres": 789,
      "Ġmus": 790,
      "Ġra": 791,
      "ĠIf": 792,
      "Ġgen": 793,
      "Ġgir": 794,
      "Ġdidn": 795,
      "Ġenjoy": 796,
      "Ġset": 797,
      "Ġche": 798,
      "ock": 799,
      "Ġview": 800,
      "Ġcou": 801,
      "Ġstart": 802,
      "Ġfact": 803,
      "Ġmakes": 804,
      "Ġdown": 805,
      "ffect": 806,
      "old": 807,
      "Ġfunny": 808,
      "erson": 809,
      "Ġfew": 810,
      "Ġob": 811,
      "edy": 812,
      "Ġguy": 813,
      "ute": 814,
      "Ġbelie": 815,
      "oss": 816,
      "Ġev": 817,
      "rigin": 818,
      "oc": 819,
      "iss": 820,
      "az": 821,
      "ale": 822,
      "der": 823,
      "Ġfin": 824,
      "Ġgoing": 825,
      "li": 826,
      "Ġsame": 827,
      "Ġactually": 828,
      "Ġcomp": 829,
      "Ġbefore": 830,
      "Ġtra": 831,
      "ĠJo": 832,
      "Ġgot": 833,
      "Ġorigin": 834,
      "wh": 835,
      "Ġlong": 836,
      "Ġpret": 837,
      "Ġyoung": 838,
      "Ġdif": 839,
      "Ġsupp": 840,
      "Ġthough": 841,
      "Ġwhile": 842,
      "Ġem": 843,
      "--": 844,
      "**": 845,
      "Ġown": 846,
      "ft": 847,
      "Ġprodu": 848,
      "ub": 849,
      "Ġwhy": 850,
      "Ġbit": 851,
      "ience": 852,
      "ool": 853,
      "Ġnew": 854,
      "Ġnow": 855,
      "Ġtri": 856,
      "ible": 857,
      "ction": 858,
      "hen": 859,
      "ript": 860,
      "Ġdirector": 861,
      "Ġke": 862,
      "Ġsub": 863,
      "Ġter": 864,
      "ons": 865,
      "Ġturn": 866,
      "Ġbig": 867,
      "Ġexce": 868,
      "Ġthought": 869,
      "'re": 870,
      "Ġnothing": 871,
      "hy": 872,
      "aut": 873,
      "ram": 874,
      "Ġgirl": 875,
      "Ġanother": 876,
      "ings": 877,
      "Ġrel": 878,
      "ince": 879,
      "rent": 880,
      "Ġquite": 881,
      "Ġsm": 882,
      "iting": 883,
      "Ġcomple": 884,
      "Ġinv": 885,
      "Ġseems": 886,
      "cial": 887,
      "onder": 888,
      "Th": 889,
      "Ġapp": 890,
      "Ġoriginal": 891,
      "ign": 892,
      "Ġaround": 893,
      "Ġ&": 894,
      "Ġfriend": 895,
      "Ġthings": 896,
      "Ġeffect": 897,
      "Ġpretty": 898,
      "ways": 899,
      "pr": 900,
      "Ġworld": 901,
      "Ġright": 902,
      "ically": 903,
      "ĠAs": 904,
      "00": 905,
      "Ġneed": 906,
      "ew": 907,
      "arr": 908,
      "Ġhard": 909,
      "air": 910,
      "ween": 911,
      "ched": 912,
      "Ġenough": 913,
      "Ġscreen": 914,
      "ank": 915,
      "ib": 916,
      "ness": 917,
      "Ġscript": 918,
      "ately": 919,
      "most": 920,
      "Ġstr": 921,
      "ĠShe": 922,
      "meric": 923,
      "ĠBr": 924,
      "Ġacc": 925,
      "Ġappe": 926,
      "Ġtake": 927,
      "Ġbetween": 928,
      "app": 929,
      "rill": 930,
      "ster": 931,
      "ead": 932,
      "Ġperson": 933,
      "Ġkind": 934,
      "Ġins": 935,
      "Ġkid": 936,
      "Ġhigh": 937,
      "Ġsec": 938,
      "Ġlaugh": 939,
      "hes": 940,
      "ention": 941,
      "inem": 942,
      "ced": 943,
      "Ġseries": 944,
      "Ġfar": 945,
      "ĠYou": 946,
      "Ġgets": 947,
      "Ġgive": 948,
      "ward": 949,
      "Ġmust": 950,
      "Ġtell": 951,
      "Ġwonder": 952,
      "Ġrole": 953,
      "Ġmom": 954,
      "\",": 955,
      "Ġes": 956,
      "Ġhorror": 957,
      "Ġreason": 958,
      "Ġalways": 959,
      "Ġep": 960,
      "ord": 961,
      "Ġisn": 962,
      "utes": 963,
      "Ġop": 964,
      "vious": 965,
      "aid": 966,
      "Ġchild": 967,
      "Ġaction": 968,
      "icul": 969,
      "Ġsex": 970,
      "Ġread": 971,
      "Ġinteresting": 972,
      "Ġtimes": 973,
      "Ġbu": 974,
      "Ġput": 975,
      "ouse": 976,
      "Ġleast": 977,
      "its": 978,
      "ash": 979,
      "Ġhel": 980,
      "ĠHow": 981,
      "ased": 982,
      "Ġsaw": 983,
      "Ġwhole": 984,
      "ife": 985,
      "Ġcome": 986,
      "Ġclass": 987,
      "Ġbeaut": 988,
      "here": 989,
      "ĠAmeric": 990,
      "Ġfamily": 991,
      "ody": 992,
      "Ġwithout": 993,
      "Ġcomedy": 994,
      "ully": 995,
      "ĠSh": 996,
      "Ġmain": 997,
      "Ġdone": 998,
      "ĠThey": 999,
      "ines": 1000,
      "Ġmusic": 1001,
      "Ġdiffe": 1002,
      "Ġexpect": 1003,
      "oot": 1004,
      "Ġboth": 1005,
      "Ġcons": 1006,
      "arn": 1007,
      "Ġhand": 1008,
      "Ġlead": 1009,
      "hn": 1010,
      "Ġalmost": 1011,
      "Ġrev": 1012,
      "Ġmight": 1013,
      "Ġminutes": 1014,
      "Ġshot": 1015,
      "Ġide": 1016,
      "Ġaud": 1017,
      "Ġperformance": 1018,
      "Ġcinem": 1019,
      "'ll": 1020,
      "Ġcam": 1021,
      "bably": 1022,
      "Ġlast": 1023,
      "gg": 1024,
      "Ġcomplete": 1025,
      "xt": 1026,
      "Ġinst": 1027,
      "Ġbegin": 1028,
      "Ġexpl": 1029,
      "Ġbook": 1030,
      "ime": 1031,
      "Ġsound": 1032,
      "son": 1033,
      "de": 1034,
      "Ġanything": 1035,
      "uring": 1036,
      "though": 1037,
      "ĠAn": 1038,
      "Ġcare": 1039,
      "Ġcour": 1040,
      "Ġworth": 1041,
      "stand": 1042,
      "rible": 1043,
      "Ġhelp": 1044,
      "Ġco": 1045,
      "Ġart": 1046,
      "Ġ3": 1047,
      "ane": 1048,
      "Ġentertain": 1049,
      "\".": 1050,
      "ograp": 1051,
      "ism": 1052,
      "Ġcle": 1053,
      "oney": 1054,
      "cially": 1055,
      "Ġaway": 1056,
      "Ġfound": 1057,
      "atch": 1058,
      "Ġsince": 1059,
      "ative": 1060,
      "Ġel": 1061,
      "isod": 1062,
      "ner": 1063,
      "Ġsequ": 1064,
      "ov": 1065,
      "ition": 1066,
      "Ġwoman": 1067,
      "istic": 1068,
      "ures": 1069,
      "ĠFr": 1070,
      "Ġprobably": 1071,
      "ret": 1072,
      "era": 1073,
      "Ġsure": 1074,
      "als": 1075,
      "This": 1076,
      "Ġrather": 1077,
      "ĠTV": 1078,
      "ĠWhat": 1079,
      "mend": 1080,
      "Ġcall": 1081,
      "Ġrun": 1082,
      "Ġepisod": 1083,
      "ros": 1084,
      "rist": 1085,
      "Ġext": 1086,
      "Ġcar": 1087,
      "ange": 1088,
      "ialog": 1089,
      "Ġvers": 1090,
      "led": 1091,
      "oint": 1092,
      "Ġmaking": 1093,
      "pecially": 1094,
      "ĠBe": 1095,
      "Ġabs": 1096,
      "umb": 1097,
      "osed": 1098,
      "ady": 1099,
      "apt": 1100,
      "Ġdialog": 1101,
      "ten": 1102,
      "Ġhappen": 1103,
      "ah": 1104,
      "ling": 1105,
      "Ġ10": 1106,
      "ither": 1107,
      "ĠJohn": 1108,
      "ream": 1109,
      "Ġlik": 1110,
      "ER": 1111,
      "Ġworst": 1112,
      "ee": 1113,
      "Ġdifferent": 1114,
      "ok": 1115,
      "Ġadd": 1116,
      "ject": 1117,
      "wood": 1118,
      "Ġour": 1119,
      "olly": 1120,
      "Ġcourse": 1121,
      "Ġcomes": 1122,
      "ollow": 1123,
      "Ġmean": 1124,
      "Ġlet": 1125,
      ".\"": 1126,
      "Ġdel": 1127,
      "VD": 1128,
      "Ġbo": 1129,
      "ĠThat": 1130,
      "ĠSo": 1131,
      "Ġjob": 1132,
      "aster": 1133,
      "co": 1134,
      "ments": 1135,
      "Ġbeautif": 1136,
      "Ġeach": 1137,
      "Ġtrying": 1138,
      "Ġless": 1139,
      "Ġkeep": 1140,
      "Ġday": 1141,
      "Ġbelieve": 1142,
      "Ġpoor": 1143,
      "Ġgoes": 1144,
      "uck": 1145,
      "ney": 1146,
      "Ġsurpr": 1147,
      "ont": 1148,
      "Ġrest": 1149,
      "blem": 1150,
      "alf": 1151,
      "Ġanyone": 1152,
      "fin": 1153,
      "ates": 1154,
      "Ġlooks": 1155,
      "Ġplace": 1156,
      "Ġsense": 1157,
      "ĠWe": 1158,
      "hip": 1159,
      "Ġmind": 1160,
      "Ġpol": 1161,
      "'d": 1162,
      "ph": 1163,
      "ex": 1164,
      "ĠDVD": 1165,
      "empt": 1166,
      "Ġstand": 1167,
      "ics": 1168,
      "Ġbor": 1169,
      "ingly": 1170,
      "sc": 1171,
      "dd": 1172,
      "Ġsuper": 1173,
      "Ġwasn": 1174,
      "Ġyet": 1175,
      "iter": 1176,
      "Ġproblem": 1177,
      "Ġending": 1178,
      "Ġpres": 1179,
      "Ġty": 1180,
      "ĠNot": 1181,
      "Ġplayed": 1182,
      "lud": 1183,
      "ommend": 1184,
      "Ġinter": 1185,
      "Ġmoney": 1186,
      "ues": 1187,
      "ortun": 1188,
      "inc": 1189,
      "Ġshows": 1190,
      "aps": 1191,
      "Ġgl": 1192,
      "iece": 1193,
      "ower": 1194,
      "Ġac": 1195,
      "arent": 1196,
      "It": 1197,
      "ĠDe": 1198,
      "Ġperfect": 1199,
      "ality": 1200,
      "Ġactor": 1201,
      "Ġport": 1202,
      "ray": 1203,
      "way": 1204,
      "ks": 1205,
      "Ġconf": 1206,
      "ĠBl": 1207,
      "Ġwar": 1208,
      "Ġboy": 1209,
      "Ġdram": 1210,
      "ember": 1211,
      "ann": 1212,
      "Ġfollow": 1213,
      "ilar": 1214,
      "ope": 1215,
      "Ġcre": 1216,
      "ĠTH": 1217,
      "Ġfan": 1218,
      "Ġshort": 1219,
      "Ġcreat": 1220,
      "Ġwatched": 1221,
      "Ġplays": 1222,
      "Ġsaid": 1223,
      "ĠRe": 1224,
      "Ġfav": 1225,
      "Ġrecommend": 1226,
      "Ġaudience": 1227,
      "ĠAll": 1228,
      "Ġhaving": 1229,
      "gether": 1230,
      "Ġtogether": 1231,
      "Ġhead": 1232,
      "Ġmiss": 1233,
      "Ġnice": 1234,
      "llent": 1235,
      "ident": 1236,
      "Ġlooking": 1237,
      "Ġhalf": 1238,
      "atter": 1239,
      "omb": 1240,
      "Ġsomeone": 1241,
      "Ġsecond": 1242,
      "Ġeffects": 1243,
      "Ġtakes": 1244,
      "Ġhimself": 1245,
      "ĠWhen": 1246,
      "Ġtrue": 1247,
      "Ġsit": 1248,
      "ĠFor": 1249,
      "Ġcertain": 1250,
      "ied": 1251,
      "Ġunderstand": 1252,
      "ature": 1253,
      "Ġposs": 1254,
      "....": 1255,
      "Ġdep": 1256,
      "Ġreview": 1257,
      "Ġversion": 1258,
      "Ġelse": 1259,
      "Ġfall": 1260,
      "Ġtalk": 1261,
      "ames": 1262,
      "land": 1263,
      "Ġvis": 1264,
      "not": 1265,
      "ollywood": 1266,
      "Ġimag": 1267,
      "Ġanim": 1268,
      "sp": 1269,
      "Ġleft": 1270,
      "atic": 1271,
      "Ġed": 1272,
      "Ġnight": 1273,
      "day": 1274,
      "Ġspecial": 1275,
      "ĠSc": 1276,
      "ix": 1277,
      "Ġfather": 1278,
      "Ġsing": 1279,
      "Ġele": 1280,
      "ited": 1281,
      "cept": 1282,
      "Ġrele": 1283,
      "Ġespecially": 1284,
      "Ġwife": 1285,
      "ier": 1286,
      "Ġcame": 1287,
      "10": 1288,
      "ists": 1289,
      "ared": 1290,
      "Ġobvious": 1291,
      "ply": 1292,
      "Ġthree": 1293,
      "ional": 1294,
      "Ġcomm": 1295,
      "anc": 1296,
      "Ġbeautiful": 1297,
      "Ġseeing": 1298,
      "ted": 1299,
      "Ġph": 1300,
      "Ġinvol": 1301,
      "ired": 1302,
      "Ġentire": 1303,
      "Ġdist": 1304,
      "Ġexc": 1305,
      "ird": 1306,
      "Ġyear": 1307,
      "Ġmur": 1308,
      "Ġuse": 1309,
      "uff": 1310,
      "Ġhour": 1311,
      "Ġidea": 1312,
      "ĠAmerican": 1313,
      "ĠSte": 1314,
      "Ġexcellent": 1315,
      "sy": 1316,
      "Ġhome": 1317,
      "ides": 1318,
      "Ġfriends": 1319,
      "upid": 1320,
      "Ġmon": 1321,
      "Ġdet": 1322,
      "fully": 1323,
      "like": 1324,
      "ĠCl": 1325,
      "att": 1326,
      "ĠMy": 1327,
      "Ġmar": 1328,
      "ĠChrist": 1329,
      "Ġlater": 1330,
      "ĠUn": 1331,
      "Ġey": 1332,
      "udget": 1333,
      "Ġsk": 1334,
      "Ġeverything": 1335,
      "appoint": 1336,
      "Ġduring": 1337,
      "Ġlow": 1338,
      "Ġeveryone": 1339,
      "ract": 1340,
      "ross": 1341,
      "io": 1342,
      "Ġattempt": 1343,
      "ised": 1344,
      "Ġmen": 1345,
      "Ġhist": 1346,
      "Ġexp": 1347,
      "ĠZ": 1348,
      "ork": 1349,
      "Ġfight": 1350,
      "ĠSe": 1351,
      "orn": 1352,
      "Ġlack": 1353,
      "Ġonce": 1354,
      "Ġsch": 1355,
      "Ġmem": 1356,
      "Ġdisappoint": 1357,
      "olute": 1358,
      "ount": 1359,
      "Ġsty": 1360,
      "Ġunt": 1361,
      "Ġsimply": 1362,
      "Ġcompletely": 1363,
      "Ġtal": 1364,
      "Ġused": 1365,
      "ains": 1366,
      "ets": 1367,
      "my": 1368,
      "Ġbeh": 1369,
      "iol": 1370,
      "Ġstupid": 1371,
      "ĠAt": 1372,
      "but": 1373,
      "Ġtot": 1374,
      "ĠRob": 1375,
      "ĠAr": 1376,
      "ĠMar": 1377,
      "Ġheart": 1378,
      "Ġsong": 1379,
      "Ġsupposed": 1380,
      "Ġhuman": 1381,
      "Ġmess": 1382,
      "Ġexper": 1383,
      "Ġdeath": 1384,
      "Ġtop": 1385,
      "ĠSp": 1386,
      "ĠOne": 1387,
      "Ġdefin": 1388,
      "Ġwrong": 1389,
      "Ġrep": 1390,
      "ien": 1391,
      "Ġ4": 1392,
      "Ġinclud": 1393,
      "Ġdra": 1394,
      "ery": 1395,
      "Ġserious": 1396,
      "Ġpict": 1397,
      "Ġeas": 1398,
      "amp": 1399,
      "Ġass": 1400,
      "Ġgener": 1401,
      "Ġtry": 1402,
      "Ġperformances": 1403,
      "ĠHollywood": 1404,
      "ott": 1405,
      "Ġfail": 1406,
      "Ġret": 1407,
      "aring": 1408,
      "Ġsy": 1409,
      "Ġeither": 1410,
      "elt": 1411,
      "ography": 1412,
      "orm": 1413,
      "uth": 1414,
      "Ġopen": 1415,
      "Ġtit": 1416,
      "ins": 1417,
      "itten": 1418,
      "haps": 1419,
      "Ġgiven": 1420,
      "Ġbecom": 1421,
      "Ġexam": 1422,
      "Ġhouse": 1423,
      "Ġsmall": 1424,
      "Ġ--": 1425,
      "Ġabsolute": 1426,
      "fic": 1427,
      "uly": 1428,
      "ĠHowever": 1429,
      "Ġloc": 1430,
      "Ġword": 1431,
      "Ġcamera": 1432,
      "com": 1433,
      "Ġclassic": 1434,
      "ideo": 1435,
      "oon": 1436,
      "ove": 1437,
      "gr": 1438,
      "idd": 1439,
      "Ã©": 1440,
      "Ġcra": 1441,
      "Ġbas": 1442,
      "Ġconc": 1443,
      "oice": 1444,
      "Ġind": 1445,
      "Ġlight": 1446,
      "play": 1447,
      "Ġkids": 1448,
      "Ġcount": 1449,
      "Ġstud": 1450,
      "ider": 1451,
      "Ġblack": 1452,
      "velop": 1453,
      "Ġemot": 1454,
      "Ġparticul": 1455,
      "Ġline": 1456,
      "ĠWell": 1457,
      "Ġconv": 1458,
      "Ġproduction": 1459,
      "Ġmoments": 1460,
      "itely": 1461,
      "Ġsad": 1462,
      "ize": 1463,
      "Ġboring": 1464,
      "Ġgra": 1465,
      "Ġrom": 1466,
      "Ġwomen": 1467,
      "ike": 1468,
      "Ġuntil": 1469,
      "ories": 1470,
      "Ġalong": 1471,
      "Ġwon": 1472,
      "Ġ8": 1473,
      "ities": 1474,
      "Ġcop": 1475,
      "Ġsort": 1476,
      "Ġcouple": 1477,
      "Ġpain": 1478,
      "Ġtruly": 1479,
      "Ġpass": 1480,
      "Ġstar": 1481,
      "Ġwa": 1482,
      "ĠÂ": 1483,
      "Ġ5": 1484,
      "Ġinstead": 1485,
      "fortun": 1486,
      "Ġviol": 1487,
      "iant": 1488,
      "Ġfavor": 1489,
      "iness": 1490,
      "Ġform": 1491,
      "Ġportray": 1492,
      "ug": 1493,
      "Ġhope": 1494,
      "Ġcred": 1495,
      "Ġple": 1496,
      "ĠNo": 1497,
      "ote": 1498,
      "IN": 1499,
      "reak": 1500,
      "Ġadv": 1501,
      "Ġepisode": 1502,
      "Ġfull": 1503,
      "Ġ7": 1504,
      "Ġremember": 1505,
      "Ġamaz": 1506,
      "sel": 1507,
      "Ġschool": 1508,
      "ming": 1509,
      "Ġgetting": 1510,
      "aj": 1511,
      "ented": 1512,
      "Ġhero": 1513,
      "Ġawful": 1514,
      "Ġhumor": 1515,
      "Ġname": 1516,
      "Ġgives": 1517,
      "ility": 1518,
      "ĠWill": 1519,
      "ric": 1520,
      "Ġdoing": 1521,
      "Ġflick": 1522,
      "ĠLe": 1523,
      "Ġexcept": 1524,
      "que": 1525,
      "Ġz": 1526,
      "Ġitself": 1527,
      "ows": 1528,
      "ler": 1529,
      "Ġoften": 1530,
      "Ġbudget": 1531,
      "imes": 1532,
      "med": 1533,
      "Ġstars": 1534,
      "Ġdevelop": 1535,
      "Ġothers": 1536,
      "Ġbecome": 1537,
      "Ġplaying": 1538,
      "Ġreg": 1539,
      "ently": 1540,
      "ĠOn": 1541,
      "Ġlines": 1542,
      "Ġnext": 1543,
      ",\"": 1544,
      "ison": 1545,
      "ĠMan": 1546,
      "ĠMr": 1547,
      "ax": 1548,
      "ony": 1549,
      "Ġdri": 1550,
      "Ġfelt": 1551,
      "Ġann": 1552,
      "Ġwonderful": 1553,
      "ton": 1554,
      "ister": 1555,
      "Ġface": 1556,
      "right": 1557,
      "Ġliked": 1558,
      "olog": 1559,
      "Ġslow": 1560,
      "ized": 1561,
      "Ġ9": 1562,
      "Ġclose": 1563,
      "Ġpiece": 1564,
      "Ġdialogue": 1565,
      "ĠDon": 1566,
      "Ġterrible": 1567,
      "ibly": 1568,
      "ĠTHE": 1569,
      "Ġearly": 1570,
      "Ġimpress": 1571,
      "Ġhowever": 1572,
      "aughter": 1573,
      "ps": 1574,
      "ael": 1575,
      "ĠCar": 1576,
      "reme": 1577,
      "Ġfant": 1578,
      "Ġlive": 1579,
      "Ġdead": 1580,
      "Ġguess": 1581,
      "Ġbrill": 1582,
      "Ġquest": 1583,
      "line": 1584,
      "Ġcor": 1585,
      "Ġcoll": 1586,
      "Ġ.": 1587,
      "Ġcouldn": 1588,
      "Ġwent": 1589,
      "tern": 1590,
      "und": 1591,
      "Ġvideo": 1592,
      "Ġcase": 1593,
      "Ġpower": 1594,
      "ument": 1595,
      "Ġmention": 1596,
      "used": 1597,
      "vis": 1598,
      "Ġchildren": 1599,
      "ger": 1600,
      "Ġstrong": 1601,
      "Ġcut": 1602,
      "Ġdark": 1603,
      "ley": 1604,
      "Ġref": 1605,
      "Ġactress": 1606,
      "Ġagainst": 1607,
      "ccess": 1608,
      "Ġmother": 1609,
      "ĠEven": 1610,
      "illy": 1611,
      "Ġrelations": 1612,
      "Ġwaste": 1613,
      "Ġstyle": 1614,
      "ular": 1615,
      "Ġentertaining": 1616,
      "ĠNew": 1617,
      "Wh": 1618,
      "ured": 1619,
      "Ġpast": 1620,
      "ĠJack": 1621,
      "pite": 1622,
      "Ġtrans": 1623,
      "yn": 1624,
      "Ġmaybe": 1625,
      "ined": 1626,
      "Ġabsolutely": 1627,
      "In": 1628,
      "ĠDav": 1629,
      "Ġdefinitely": 1630,
      "Ġmis": 1631,
      "Ġbecomes": 1632,
      "ĠAfter": 1633,
      "sh": 1634,
      "Ġrid": 1635,
      "ichael": 1636,
      "Ġbeginning": 1637,
      "ready": 1638,
      "lish": 1639,
      "ific": 1640,
      "cess": 1641,
      "Ġthrill": 1642,
      "oid": 1643,
      "Ġtitle": 1644,
      "ĠHis": 1645,
      "Ġsupport": 1646,
      "iam": 1647,
      "unch": 1648,
      "by": 1649,
      "Ġworse": 1650,
      "atur": 1651,
      "Ġseemed": 1652,
      "Ġsw": 1653,
      "Ġexample": 1654,
      "Ġwritten": 1655,
      "Ġsuccess": 1656,
      "Ġcertainly": 1657,
      "rew": 1658,
      "oub": 1659,
      "ts": 1660,
      "ĠSome": 1661,
      "Ġadm": 1662,
      "body": 1663,
      "ĠMc": 1664,
      "enn": 1665,
      "Ġpop": 1666,
      "riend": 1667,
      "Ġalready": 1668,
      "fortunately": 1669,
      "pped": 1670,
      "Ġside": 1671,
      "Ġextreme": 1672,
      "selves": 1673,
      "Ġbrilliant": 1674,
      "Ġfans": 1675,
      "itch": 1676,
      "Ġpicture": 1677,
      "Ġlives": 1678,
      "Ġsever": 1679,
      "ĠTo": 1680,
      "Ġbrother": 1681,
      "Ġrent": 1682,
      "ĠEng": 1683,
      "Ġdirection": 1684,
      "Ġcinema": 1685,
      "Ġrelationship": 1686,
      "Ġfine": 1687,
      "Ġseveral": 1688,
      "Ġtou": 1689,
      "Ġpred": 1690,
      "vable": 1691,
      "Ġloved": 1692,
      ").<": 1693,
      "Ġmatter": 1694,
      "Ġdrama": 1695,
      "aul": 1696,
      "Ġwalk": 1697,
      "Ġblood": 1698,
      "Ġalthough": 1699,
      "Ġwanted": 1700,
      "Ġmaster": 1701,
      "Ġself": 1702,
      "aken": 1703,
      "het": 1704,
      "osp": 1705,
      "ried": 1706,
      "ape": 1707,
      "ĠÂĸ": 1708,
      "aving": 1709,
      "cy": 1710,
      "Ġpur": 1711,
      "Ġcent": 1712,
      "Ġannoy": 1713,
      "ec": 1714,
      "chn": 1715,
      "Ġwants": 1716,
      "what": 1717,
      "Ġet": 1718,
      "Ġlost": 1719,
      "orge": 1720,
      "ief": 1721,
      "ided": 1722,
      "Ġtries": 1723,
      "Ġmor": 1724,
      "Ġtown": 1725,
      "Ġpar": 1726,
      "Ġworks": 1727,
      "Ġdem": 1728,
      "Ġwriting": 1729,
      "??": 1730,
      "uss": 1731,
      "ages": 1732,
      "gu": 1733,
      "Ġable": 1734,
      "Ġviewer": 1735,
      "Ġnum": 1736,
      "Ġguys": 1737,
      "Ġtotally": 1738,
      "ung": 1739,
      "sych": 1740,
      "Ġdoc": 1741,
      "Ġeff": 1742,
      "Ġprov": 1743,
      "Ġthroughout": 1744,
      "unk": 1745,
      "Ġav": 1746,
      "ination": 1747,
      "Ġcapt": 1748,
      "Ġlist": 1749,
      "Ġhistory": 1750,
      "Ġdr": 1751,
      "Ġdeser": 1752,
      "oil": 1753,
      "Ġson": 1754,
      "Ġmed": 1755,
      "Ġmag": 1756,
      "Ġstuff": 1757,
      "Ġbased": 1758,
      "ĠChar": 1759,
      "Ġcol": 1760,
      "amed": 1761,
      "Ġcalled": 1762,
      "Ġvill": 1763,
      "Ġenjoyed": 1764,
      "Ġcomment": 1765,
      "where": 1766,
      "Ġgame": 1767,
      "Ġnovel": 1768,
      "Ġsat": 1769,
      "ern": 1770,
      "Ġdaughter": 1771,
      "!<": 1772,
      "oke": 1773,
      "Ġcontin": 1774,
      "OT": 1775,
      "Ġgenre": 1776,
      "Ġquality": 1777,
      "Ġturns": 1778,
      "ĠWith": 1779,
      "ĠMichael": 1780,
      "ms": 1781,
      "Ġfem": 1782,
      "Ġval": 1783,
      "use": 1784,
      "ĠIs": 1785,
      "Ġocc": 1786,
      "ĠDan": 1787,
      "Ġfinally": 1788,
      "Ġbra": 1789,
      "using": 1790,
      "Ġappear": 1791,
      "rib": 1792,
      "Ġfair": 1793,
      "Ġgave": 1794,
      "Ġimport": 1795,
      "Ġtoday": 1796,
      "Ġdeal": 1797,
      "Ġfig": 1798,
      "Ġstarts": 1799,
      "Ġmyster": 1800,
      "off": 1801,
      "Ġhon": 1802,
      "Ġinf": 1803,
      "Ġlearn": 1804,
      "Ġamazing": 1805,
      "ches": 1806,
      "rop": 1807,
      "ished": 1808,
      "Ġmoment": 1809,
      "ude": 1810,
      "Ġkiller": 1811,
      "rodu": 1812,
      "Ġsitu": 1813,
      "arth": 1814,
      "19": 1815,
      "Ġcult": 1816,
      "Ġbehind": 1817,
      "oup": 1818,
      "Ġparts": 1819,
      "Ġfavorite": 1820,
      "itive": 1821,
      "ese": 1822,
      "na": 1823,
      "Ġlate": 1824,
      "ards": 1825,
      "Ġdays": 1826,
      "to": 1827,
      "Ġfinal": 1828,
      "ajor": 1829,
      "Ġevil": 1830,
      "Ġtyp": 1831,
      "Ġstra": 1832,
      "ik": 1833,
      "There": 1834,
      "Ġstories": 1835,
      "Ġthemselves": 1836,
      "Ġetc": 1837,
      "Ġopp": 1838,
      "Ġexact": 1839,
      "Ġintell": 1840,
      "band": 1841,
      "Ġdream": 1842,
      "Ġfeat": 1843,
      "Ġprom": 1844,
      "dy": 1845,
      "ĠGr": 1846,
      "ox": 1847,
      "Ġfoot": 1848,
      "astic": 1849,
      "Ġcrit": 1850,
      "ĠThen": 1851,
      "ump": 1852,
      "Ġlevel": 1853,
      "iet": 1854,
      "Ġshoot": 1855,
      "Ġthinking": 1856,
      "Ġmusical": 1857,
      "ĠAlso": 1858,
      "akers": 1859,
      "Ġeffort": 1860,
      "Ġpick": 1861,
      "Ġsusp": 1862,
      "Ġmyself": 1863,
      ".)": 1864,
      "Ġperhaps": 1865,
      "Ġfeeling": 1866,
      "iculous": 1867,
      "Ġask": 1868,
      "Ġroles": 1869,
      "Ġdeli": 1870,
      "Ġcost": 1871,
      "Ġvoice": 1872,
      "ĠWhile": 1873,
      "Ġpat": 1874,
      "Ġir": 1875,
      "Ġsn": 1876,
      "usband": 1877,
      "ĠJust": 1878,
      "Ġconsider": 1879,
      "uc": 1880,
      "Ġsays": 1881,
      "Ġhorrible": 1882,
      "Ġpsych": 1883,
      "Ġheard": 1884,
      "Ġsoon": 1885,
      "Ġincred": 1886,
      "ĠBrit": 1887,
      "Ġmot": 1888,
      "Ġbus": 1889,
      "ĠHer": 1890,
      "ene": 1891,
      "Ġtook": 1892,
      "els": 1893,
      "okes": 1894,
      "Ġmurder": 1895,
      "Ġstru": 1896,
      "Ġdecent": 1897,
      "uge": 1898,
      "Ġdocument": 1899,
      "ances": 1900,
      "ĠOf": 1901,
      "If": 1902,
      "AN": 1903,
      "ĠWhy": 1904,
      "Ġwin": 1905,
      "antly": 1906,
      "ior": 1907,
      "Ġeyes": 1908,
      "Ġfore": 1909,
      "Ġstop": 1910,
      "Ġgirls": 1911,
      "ma": 1912,
      "arb": 1913,
      "owing": 1914,
      "urt": 1915,
      "Ġ,": 1916,
      "Ġconst": 1917,
      "LL": 1918,
      "ising": 1919,
      "Ġhit": 1920,
      "Ġcinemat": 1921,
      "gan": 1922,
      "ives": 1923,
      "Ġroom": 1924,
      "gs": 1925,
      "Ġkilled": 1926,
      "Ġmajor": 1927,
      "Ġweak": 1928,
      "antic": 1929,
      "Ġcannot": 1930,
      "tra": 1931,
      "yp": 1932,
      "Ġhusband": 1933,
      "Ġinvolved": 1934,
      "Ġwhite": 1935,
      "side": 1936,
      "Ġridiculous": 1937,
      "ats": 1938,
      "ey": 1939,
      "Ġhilar": 1940,
      "Ġbring": 1941,
      "eth": 1942,
      "Ġhappens": 1943,
      "ient": 1944,
      "ences": 1945,
      "Ġdirected": 1946,
      "Ġsle": 1947,
      "ĠMay": 1948,
      "ering": 1949,
      "aves": 1950,
      "Ġnon": 1951,
      "ĠGe": 1952,
      "Ġopin": 1953,
      "ĠGod": 1954,
      "ĠOr": 1955,
      "Ġtype": 1956,
      "ĠRobert": 1957,
      "AT": 1958,
      "Ġmove": 1959,
      "Ġchang": 1960,
      "Ġtechn": 1961,
      "Ġgroup": 1962,
      "Ġevent": 1963,
      "Ġprof": 1964,
      "Ġbreak": 1965,
      "urb": 1966,
      "Ġleave": 1967,
      "apan": 1968,
      "how": 1969,
      "Ġhold": 1970,
      "Ġpredict": 1971,
      "Ġviolence": 1972,
      "Ġhappened": 1973,
      "ique": 1974,
      "ĠGer": 1975,
      "Ġchance": 1976,
      "Ġtele": 1977,
      "Ġresult": 1978,
      "Ġexperience": 1979,
      "zy": 1980,
      "ĠEvery": 1981,
      "mp": 1982,
      "Ġwouldn": 1983,
      "Ġextremely": 1984,
      "ST": 1985,
      "Ġage": 1986,
      "ters": 1987,
      "...<": 1988,
      "Ġteen": 1989,
      "ky": 1990,
      "Ġcrap": 1991,
      "Ġfut": 1992,
      "ution": 1993,
      "aced": 1994,
      "Ġsol": 1995,
      "ĠPaul": 1996,
      "Ġ200": 1997,
      "Ġesc": 1998,
      "ĠPe": 1999,
      "Ġago": 2000,
      "Ġcheap": 2001,
      "Ġtold": 2002,
      "ĠEd": 2003,
      "Ġhilarious": 2004,
      "Ġ6": 2005,
      "Ġstre": 2006,
      "rest": 2007,
      "ON": 2008,
      "Ġfoc": 2009,
      "ĠRich": 2010,
      "Ġstay": 2011,
      "But": 2012,
      "Ġste": 2013,
      "Ġlooked": 2014,
      "Ġquick": 2015,
      "ered": 2016,
      "ential": 2017,
      "Ġcareer": 2018,
      "ys": 2019,
      "Ġswe": 2020,
      "ement": 2021,
      "iddle": 2022,
      "Ġphot": 2023,
      "ĠHar": 2024,
      "ĠJames": 2025,
      "Ġsimilar": 2026,
      "ational": 2027,
      "Ġpos": 2028,
      "ĠQ": 2029,
      "ots": 2030,
      "mb": 2031,
      "Ġshock": 2032,
      "Ġpolit": 2033,
      "vision": 2034,
      "Ġsometimes": 2035,
      "Ġannoying": 2036,
      "RE": 2037,
      "aim": 2038,
      "enty": 2039,
      "Ġscore": 2040,
      "Ġdesc": 2041,
      "Ġhuge": 2042,
      "ĠNow": 2043,
      "Ġshown": 2044,
      "Ġdev": 2045,
      "Ġparticularly": 2046,
      "Ġant": 2047,
      "Ġhighly": 2048,
      "ĠJapan": 2049,
      "ĠKe": 2050,
      "iety": 2051,
      "ĠPl": 2052,
      "Ġtaken": 2053,
      "Ġcomed": 2054,
      "ury": 2055,
      "itting": 2056,
      "ground": 2057,
      "Ġnumber": 2058,
      "And": 2059,
      "ĠInd": 2060,
      "Ġang": 2061,
      "Ġcoming": 2062,
      "Ġsimple": 2063,
      "wards": 2064,
      "Ġobviously": 2065,
      "nds": 2066,
      "Ġinde": 2067,
      "Ġvar": 2068,
      "Ġdeep": 2069,
      "ĠOsc": 2070,
      "ili": 2071,
      "Ġalone": 2072,
      "Ġapparent": 2073,
      "nded": 2074,
      "Ġones": 2075,
      "Ġexactly": 2076,
      "Ġbody": 2077,
      "Ġends": 2078,
      "ĠEnglish": 2079,
      "aged": 2080,
      "Ġopinion": 2081,
      "Ġlar": 2082,
      "ĠPet": 2083,
      "Ġknown": 2084,
      "Ġpossible": 2085,
      "Ġstarted": 2086,
      "Ġdisco": 2087,
      "rence": 2088,
      "aces": 2089,
      "ones": 2090,
      "Ġyourself": 2091,
      "Ġstrange": 2092,
      "ovie": 2093,
      "bel": 2094,
      "ina": 2095,
      "pping": 2096,
      "ĠPer": 2097,
      "ĠWar": 2098,
      "ino": 2099,
      "Ġpay": 2100,
      "cks": 2101,
      "Ġwhose": 2102,
      "Ġfinds": 2103,
      "Ġreturn": 2104,
      "Ġgun": 2105,
      "Ġreleased": 2106,
      "Ġtreat": 2107,
      "ator": 2108,
      "Ġsomewhat": 2109,
      "Ġgore": 2110,
      "Ġhours": 2111,
      "Ġcountry": 2112,
      "Ġchange": 2113,
      "ouble": 2114,
      "Ġacross": 2115,
      "read": 2116,
      "Ġprem": 2117,
      "any": 2118,
      "Ġunc": 2119,
      "Ġwriter": 2120,
      "Ġfour": 2121,
      "Ġsubject": 2122,
      "Ġepisodes": 2123,
      "Ġdoub": 2124,
      "ball": 2125,
      "ubl": 2126,
      "Ġpot": 2127,
      "Ġcinematography": 2128,
      "lt": 2129,
      "Ġill": 2130,
      "Ġfa": 2131,
      "Ġhot": 2132,
      "Ġpolice": 2133,
      "Ġdest": 2134,
      "outh": 2135,
      "Ġorder": 2136,
      "Ġcool": 2137,
      "Ġusual": 2138,
      "Ġzomb": 2139,
      "rit": 2140,
      "Ġsingle": 2141,
      "Ġjokes": 2142,
      "Ġtalent": 2143,
      "Ġnarr": 2144,
      "Ġmoder": 2145,
      "ching": 2146,
      "Ġdisc": 2147,
      "Ġproduc": 2148,
      "Ġsent": 2149,
      "Ġfilmm": 2150,
      "Ġliving": 2151,
      "Ġbuild": 2152,
      "Ġwee": 2153,
      "aker": 2154,
      "Ġsaying": 2155,
      "Ġshots": 2156,
      "ians": 2157,
      "anger": 2158,
      "Ġopening": 2159,
      "Ġmist": 2160,
      "Ġpull": 2161,
      "ield": 2162,
      "!\"": 2163,
      "Ġfill": 2164,
      "Ġreality": 2165,
      "ĠNe": 2166,
      "mosp": 2167,
      "Ġdisappointed": 2168,
      "ĠTom": 2169,
      "Ġseason": 2170,
      "ral": 2171,
      "Ġrating": 2172,
      "Ġlocal": 2173,
      "ĠWilliam": 2174,
      "lo": 2175,
      "Ġimportant": 2176,
      "wise": 2177,
      "!!!!": 2178,
      "Ġprot": 2179,
      "****": 2180,
      "ole": 2181,
      "Ġforget": 2182,
      "Ġfemale": 2183,
      "Ġvict": 2184,
      "Ġrunning": 2185,
      "omp": 2186,
      "Ġhonest": 2187,
      "unt": 2188,
      "Ġevents": 2189,
      "Ġtells": 2190,
      "ĠDavid": 2191,
      "ĠAd": 2192,
      "Ġdespite": 2193,
      "ING": 2194,
      "reci": 2195,
      "Ġatmosp": 2196,
      "Ġnear": 2197,
      "light": 2198,
      "orth": 2199,
      "ald": 2200,
      "Ġremind": 2201,
      "Ġut": 2202,
      "head": 2203,
      "Ġtalking": 2204,
      "hetic": 2205,
      "ron": 2206,
      "Ġwish": 2207,
      "ĠJe": 2208,
      "Ġsign": 2209,
      "ires": 2210,
      "real": 2211,
      "asy": 2212,
      "Ġattention": 2213,
      "ctor": 2214,
      "AR": 2215,
      "iod": 2216,
      "Ġdocumentary": 2217,
      "Ġtaking": 2218,
      "Ġsister": 2219,
      "ĠEl": 2220,
      "Ġturned": 2221,
      "oud": 2222,
      "ĠDis": 2223,
      "Ġknew": 2224,
      "Ġteam": 2225,
      "Ġplan": 2226,
      "Ġsuspense": 2227,
      "uri": 2228,
      "ush": 2229,
      "Ġsave": 2230,
      "Ġair": 2231,
      "ĠMe": 2232,
      "Ġsongs": 2233,
      "lling": 2234,
      "iction": 2235,
      "Ġproblems": 2236,
      "rely": 2237,
      "Ġparent": 2238,
      "ises": 2239,
      "iel": 2240,
      "Ġstraight": 2241,
      "Ġsubt": 2242,
      "Ġmiddle": 2243,
      "Ġunf": 2244,
      "Ġdetail": 2245,
      "which": 2246,
      "Ġrespect": 2247,
      "Ġhop": 2248,
      "Ġpri": 2249,
      "Ġmeet": 2250,
      "oul": 2251,
      "Ġintellig": 2252,
      "Ġinn": 2253,
      "Ġscary": 2254,
      "ĠDo": 2255,
      "ants": 2256,
      "ĠAny": 2257,
      "Ġsequence": 2258,
      "ĠBritish": 2259,
      "eng": 2260,
      "Ġhell": 2261,
      "Ġaren": 2262,
      "OR": 2263,
      "Ġten": 2264,
      "ital": 2265,
      "ained": 2266,
      "Ġapart": 2267,
      "Ġmodern": 2268,
      "Ġcomic": 2269,
      "Ġknows": 2270,
      "Ġusually": 2271,
      "Ġ20": 2272,
      "Ġcart": 2273,
      "Ġcompl": 2274,
      "rench": 2275,
      "Ġincluding": 2276,
      "che": 2277,
      "Ġeasily": 2278,
      "Ġfuture": 2279,
      "Ġsilly": 2280,
      "ichÃ©": 2281,
      "Ġcontro": 2282,
      "Ġland": 2283,
      "usion": 2284,
      "Ġromantic": 2285,
      "orable": 2286,
      "Ġdue": 2287,
      "aterial": 2288,
      "Ġmark": 2289,
      "Ġamong": 2290,
      "ubb": 2291,
      "oe": 2292,
      "Ġve": 2293,
      "otic": 2294,
      "Ġappreci": 2295,
      "Ġsupporting": 2296,
      "Ġtelevision": 2297,
      "Ġsexual": 2298,
      "Ġequ": 2299,
      "Ġadult": 2300,
      "Ġenjoyable": 2301,
      "ris": 2302,
      "Ġfast": 2303,
      "Ġquestion": 2304,
      "Ġca": 2305,
      "Ġdull": 2306,
      "gy": 2307,
      "asc": 2308,
      "ĠTr": 2309,
      "As": 2310,
      "Ġear": 2311,
      "Ġaspect": 2312,
      "Ġwords": 2313,
      "go": 2314,
      "ltim": 2315,
      "yond": 2316,
      "Ġsets": 2317,
      "ĠYork": 2318,
      "Ġpresent": 2319,
      "rated": 2320,
      "Ġsold": 2321,
      "Ġhappy": 2322,
      "Ġappears": 2323,
      "irector": 2324,
      "Ġeng": 2325,
      "Ġprevious": 2326,
      "Ġfalls": 2327,
      "Ġclearly": 2328,
      "Ġmaterial": 2329,
      "Ġherself": 2330,
      "Ġmostly": 2331,
      "Ġhands": 2332,
      "ĠRichard": 2333,
      "Ġactual": 2334,
      "ĠOscar": 2335,
      "amb": 2336,
      "ĠPr": 2337,
      "Ġcreep": 2338,
      "Ġpleas": 2339,
      "estern": 2340,
      "Ġentertainment": 2341,
      "Ġsequel": 2342,
      "Ġforg": 2343,
      "Ġperiod": 2344,
      "Ġneeds": 2345,
      "ĠGerman": 2346,
      "inal": 2347,
      "Ġnone": 2348,
      "Ġsum": 2349,
      "aught": 2350,
      "ĠclichÃ©": 2351,
      "Ġgiving": 2352,
      "Ġcheck": 2353,
      "Ġseriously": 2354,
      "ara": 2355,
      "Ġanimation": 2356,
      "ĠAlthough": 2357,
      "Ġexist": 2358,
      "Ġspir": 2359,
      "Ġfeels": 2360,
      "who": 2361,
      "attle": 2362,
      "nding": 2363,
      "oof": 2364,
      "ĠMor": 2365,
      "Ġprog": 2366,
      "form": 2367,
      "back": 2368,
      "Ġreve": 2369,
      "Ġstoryline": 2370,
      "ressed": 2371,
      "Ġpoints": 2372,
      "Ġways": 2373,
      "Ġsurprised": 2374,
      "ĠAm": 2375,
      "Ġhaven": 2376,
      "Ġpredictable": 2377,
      "ĠFirst": 2378,
      "Ġ197": 2379,
      "EN": 2380,
      "Ġmessage": 2381,
      "iest": 2382,
      "ĠOK": 2383,
      "Ġfeature": 2384,
      "Ġelements": 2385,
      "Ġodd": 2386,
      "track": 2387,
      "ĠSam": 2388,
      "Ġclear": 2389,
      "Ġeye": 2390,
      "Ġtheme": 2391,
      "Ġflaw": 2392,
      "Ġmet": 2393,
      "ĠCon": 2394,
      "ublic": 2395,
      "Ġvictim": 2396,
      "ĠBen": 2397,
      "Ġabove": 2398,
      "Ġsetting": 2399,
      "Ġgang": 2400,
      "Ġcomb": 2401,
      "ĠKing": 2402,
      "Ġattack": 2403,
      "Ġcamp": 2404,
      "?<": 2405,
      "Ġslight": 2406,
      "Ġtheat": 2407,
      "Ġadapt": 2408,
      "ension": 2409,
      "work": 2410,
      "Ġthriller": 2411,
      "ĠPh": 2412,
      "Ġ198": 2413,
      "Ġdoubt": 2414,
      "orry": 2415,
      "Ġsecret": 2416,
      "Ġviewers": 2417,
      "Ġvisual": 2418,
      "ĠIM": 2419,
      "ĠSu": 2420,
      "Ġshowing": 2421,
      "Ġru": 2422,
      "Ġemb": 2423,
      "Ġbox": 2424,
      "Ġmoving": 2425,
      "ĠSim": 2426,
      "Ġbegins": 2427,
      "ining": 2428,
      "ental": 2429,
      "Ġnearly": 2430,
      "Ġpersonal": 2431,
      "Ġsuff": 2432,
      "aby": 2433,
      "Ġeasy": 2434,
      "cl": 2435,
      "arre": 2436,
      "Ġtried": 2437,
      "aur": 2438,
      "verage": 2439,
      "uses": 2440,
      "Ġmeans": 2441,
      "ggest": 2442,
      "Ġsuperb": 2443,
      "ficult": 2444,
      "ĠGeorge": 2445,
      "OU": 2446,
      "atural": 2447,
      "Ġmil": 2448,
      "Ġwithin": 2449,
      "Ġupon": 2450,
      "Ġlarge": 2451,
      "Ġsoundtrack": 2452,
      "Ġfell": 2453,
      "Ġdecided": 2454,
      "Ġhate": 2455,
      "row": 2456,
      "Ġbunch": 2457,
      "Ġbeyond": 2458,
      "irt": 2459,
      "Ġinsp": 2460,
      "Ġ80": 2461,
      "wr": 2462,
      "Ġtre": 2463,
      "Ġcomments": 2464,
      "Ġleads": 2465,
      "Ġbro": 2466,
      "ices": 2467,
      "Ġdifficult": 2468,
      "Ġaccept": 2469,
      "ĠNOT": 2470,
      "ĠOh": 2471,
      "ening": 2472,
      "Ġsuggest": 2473,
      "ously": 2474,
      "ett": 2475,
      "IL": 2476,
      "Ġnamed": 2477,
      "Ġtrag": 2478,
      "Ġrelease": 2479,
      "What": 2480,
      "Ġtypical": 2481,
      "sw": 2482,
      "Ġtale": 2483,
      "Ġhear": 2484,
      "Ġfigure": 2485,
      "',": 2486,
      "Ġkept": 2487,
      "ĠDisney": 2488,
      "!)": 2489,
      "St": 2490,
      "view": 2491,
      "oun": 2492,
      "Ġdru": 2493,
      "Ġclim": 2494,
      "Ġfantastic": 2495,
      "Ġtheater": 2496,
      "omin": 2497,
      "ĠLee": 2498,
      "Ġstri": 2499,
      "Ġspoil": 2500,
      "Ġtwist": 2501,
      "Ġwrit": 2502,
      "bs": 2503,
      "ially": 2504,
      "Ġ*": 2505,
      "Ġfive": 2506,
      "Ġoverall": 2507,
      "ceed": 2508,
      "atever": 2509,
      "incing": 2510,
      "Al": 2511,
      "Ġusing": 2512,
      "Ġmix": 2513,
      "Ġsurv": 2514,
      "lier": 2515,
      "Ġfree": 2516,
      "Ġweird": 2517,
      "Ġworking": 2518,
      "lin": 2519,
      "Ġrealistic": 2520,
      "vent": 2521,
      "ival": 2522,
      "Ġviewing": 2523,
      "Ġediting": 2524,
      "hic": 2525,
      "Ġdanc": 2526,
      "Ġsequences": 2527,
      "ai": 2528,
      "Ġwit": 2529,
      "orld": 2530,
      "Ġstun": 2531,
      "ĠLu": 2532,
      "mas": 2533,
      "Ġtruth": 2534,
      "Ġfamous": 2535,
      "Ġatmosphere": 2536,
      "oor": 2537,
      "Ġred": 2538,
      "Ġbrought": 2539,
      "Ġpost": 2540,
      "Ġund": 2541,
      "ively": 2542,
      "?\"": 2543,
      "Ġwhether": 2544,
      "ĠUS": 2545,
      "Ġintrodu": 2546,
      "Ġbackground": 2547,
      "ĠSm": 2548,
      "Ġgreatest": 2549,
      "Ġparents": 2550,
      "Ġnorm": 2551,
      "ĠCol": 2552,
      "Ġparticular": 2553,
      "Ġwood": 2554,
      "Ġrese": 2555,
      "Ġstage": 2556,
      "Ġobs": 2557,
      "Ġwait": 2558,
      "ĠChe": 2559,
      "!!!": 2560,
      "Ġbusiness": 2561,
      "Ġstrugg": 2562,
      "Ġpremise": 2563,
      "Ġcity": 2564,
      "Ġcrime": 2565,
      "ĠAmerica": 2566,
      "af": 2567,
      "of": 2568,
      "let": 2569,
      "rific": 2570,
      "ĠFrank": 2571,
      "rey": 2572,
      "Ġiss": 2573,
      "Ġsoc": 2574,
      "Ġspeak": 2575,
      "Ġutter": 2576,
      "Ġfilmed": 2577,
      "ĠWho": 2578,
      "kay": 2579,
      "Ġbelievable": 2580,
      "Ġbuy": 2581,
      "ged": 2582,
      "ĠMaybe": 2583,
      "'.": 2584,
      "host": 2585,
      "Ġcat": 2586,
      "Ġreviews": 2587,
      "aling": 2588,
      "avy": 2589,
      "Ġdesign": 2590,
      "Ġlame": 2591,
      "Ġlaw": 2592,
      "Ġ199": 2593,
      "oose": 2594,
      "ĠGu": 2595,
      "ĠMost": 2596,
      "bers": 2597,
      "ye": 2598,
      "Ġexpected": 2599,
      "ES": 2600,
      "Ġfront": 2601,
      "Ġpure": 2602,
      "lor": 2603,
      "Ġappro": 2604,
      "Ġsurprise": 2605,
      "dden": 2606,
      "Ġbasically": 2607,
      "ĠUnfortunately": 2608,
      "ĠJapanese": 2609,
      "ana": 2610,
      "Ġbecame": 2611,
      "Ġmeaning": 2612,
      "Ġ...": 2613,
      "Ġcur": 2614,
      "arch": 2615,
      "Ġlos": 2616,
      "ĠFrench": 2617,
      "Ġavoid": 2618,
      "Ġpoorly": 2619,
      "iences": 2620,
      "Ġexec": 2621,
      "ges": 2622,
      "Ġdumb": 2623,
      "ĠJim": 2624,
      "Ġsil": 2625,
      "urther": 2626,
      "ogn": 2627,
      "ĠYes": 2628,
      "EA": 2629,
      "piece": 2630,
      "Ġaverage": 2631,
      "verall": 2632,
      "udd": 2633,
      "esy": 2634,
      "spect": 2635,
      "ager": 2636,
      "Ġleaves": 2637,
      "ills": 2638,
      "anks": 2639,
      "lect": 2640,
      "Ġultim": 2641,
      "Ġsituation": 2642,
      "ĠPeter": 2643,
      "Ġfire": 2644,
      "Ġnature": 2645,
      "pend": 2646,
      "bor": 2647,
      "hood": 2648,
      "Ġtast": 2649,
      "ĠDr": 2650,
      "lfriend": 2651,
      "Ġapparently": 2652,
      "Ġthird": 2653,
      "ppy": 2654,
      "Ġdie": 2655,
      "ĠNight": 2656,
      "Ġtrad": 2657,
      "hys": 2658,
      "set": 2659,
      "irc": 2660,
      "Ġkilling": 2661,
      "Ġwind": 2662,
      "Ġlim": 2663,
      "Ġliter": 2664,
      "icks": 2665,
      "Ġmystery": 2666,
      "Ġgone": 2667,
      "Ġsudden": 2668,
      "Ġunique": 2669,
      "more": 2670,
      "key": 2671,
      "Ġmeant": 2672,
      "Âħ": 2673,
      "Ġearlier": 2674,
      "Ġrock": 2675,
      "ĠLike": 2676,
      "Ġneeded": 2677,
      "Ġadvent": 2678,
      "ĠMart": 2679,
      "My": 2680,
      "isf": 2681,
      "Ġinte": 2682,
      "Ġlots": 2683,
      "Ġbored": 2684,
      "Ġmemorable": 2685,
      "Ġbar": 2686,
      "chie": 2687,
      "Ġwrite": 2688,
      "Ġminute": 2689,
      "Ġsens": 2690,
      "ĠGra": 2691,
      "Ġrealize": 2692,
      "Ġinterested": 2693,
      "Ġcredits": 2694,
      "time": 2695,
      "Ġpublic": 2696,
      "Ġprop": 2697,
      "ĠScott": 2698,
      "ĠIMD": 2699,
      "Ġforced": 2700,
      "ĠCan": 2701,
      "ĠItal": 2702,
      "Ġmeets": 2703,
      "Ġresp": 2704,
      "Ġreading": 2705,
      "king": 2706,
      "ored": 2707,
      "uro": 2708,
      "Ġvillain": 2709,
      "Ġcostum": 2710,
      "Ġ30": 2711,
      "ĠSch": 2712,
      "Ġfootage": 2713,
      "Ġmill": 2714,
      "inger": 2715,
      "Ġforward": 2716,
      "Ġproject": 2717,
      "erry": 2718,
      "Ġmale": 2719,
      "Ġscreenplay": 2720,
      "An": 2721,
      "Ġ/>\"": 2722,
      "ĠAng": 2723,
      "urd": 2724,
      "Ġemotional": 2725,
      "Ġdance": 2726,
      "ĠGood": 2727,
      "ĠIts": 2728,
      "Ġdirectors": 2729,
      "Ġkeeps": 2730,
      "Ġsociety": 2731,
      "ĠPar": 2732,
      "Ġsomehow": 2733,
      "Ġid": 2734,
      "Ġfasc": 2735,
      "Ġcap": 2736,
      "Ġbadly": 2737,
      "Ġer": 2738,
      "Ġallow": 2739,
      "Ġolder": 2740,
      "ĠFrom": 2741,
      "cessary": 2742,
      "por": 2743,
      "rif": 2744,
      "Ġoper": 2745,
      "Ġbel": 2746,
      "ĠJoe": 2747,
      "Ġpossibly": 2748,
      "look": 2749,
      "well": 2750,
      "ĠTw": 2751,
      "Ġfeatures": 2752,
      "zz": 2753,
      "ĠWood": 2754,
      "Ġlaughs": 2755,
      "Ġemotion": 2756,
      "fer": 2757,
      "Ġpopular": 2758,
      "Ġshame": 2759,
      "Ġanyway": 2760,
      "Ġdisturb": 2761,
      "Ġadmit": 2762,
      "Ġ$": 2763,
      "allow": 2764,
      "ĠMac": 2765,
      "acing": 2766,
      "Ġexpress": 2767,
      "Ġdevelopment": 2768,
      "friend": 2769,
      "ĠThese": 2770,
      "ula": 2771,
      "Ġ70": 2772,
      "Ġyes": 2773,
      "ĠAN": 2774,
      "Ġworked": 2775,
      "Ġbrings": 2776,
      "Ġgrand": 2777,
      "Ġperfectly": 2778,
      "Ġimagine": 2779,
      "iliar": 2780,
      "uel": 2781,
      "Ġnor": 2782,
      "ĠTim": 2783,
      "Ġgeneral": 2784,
      "Ġprofess": 2785,
      "Ġwriters": 2786,
      "bert": 2787,
      "Ġconcept": 2788,
      "ĠEx": 2789,
      "cious": 2790,
      "ived": 2791,
      "angu": 2792,
      "Ġromance": 2793,
      "So": 2794,
      "Ġunlike": 2795,
      "Ġhistor": 2796,
      "ĠMat": 2797,
      "Ġquickly": 2798,
      "reed": 2799,
      "Ġstere": 2800,
      "Ġ195": 2801,
      "Ġdramatic": 2802,
      "Ġcreepy": 2803,
      "Ġdam": 2804,
      "Ch": 2805,
      "Ġdirecting": 2806,
      "belie": 2807,
      "hel": 2808,
      "onic": 2809,
      "ries": 2810,
      "Ġpotential": 2811,
      "Ġsick": 2812,
      "erv": 2813,
      "ius": 2814,
      "ases": 2815,
      "Ġcartoon": 2816,
      "?)": 2817,
      "arring": 2818,
      "ague": 2819,
      "Ġimm": 2820,
      "Ġpowerful": 2821,
      "Ġband": 2822,
      "ĠBy": 2823,
      "Ġfails": 2824,
      "Ġsleep": 2825,
      "Ġeventually": 2826,
      "erm": 2827,
      "Ġmad": 2828,
      "Ġclever": 2829,
      "iny": 2830,
      "Ġcatch": 2831,
      "ĠJul": 2832,
      "Ġrob": 2833,
      "Ġagree": 2834,
      "Ġflat": 2835,
      "ashing": 2836,
      "ĠJane": 2837,
      "Ġconne": 2838,
      "Ġvarious": 2839,
      "Ġbattle": 2840,
      "Ġamount": 2841,
      "Ġgirlfriend": 2842,
      "Ġcreate": 2843,
      "arl": 2844,
      "Ġrepe": 2845,
      "Ġrecogn": 2846,
      "Ġcopy": 2847,
      "Ġinnoc": 2848,
      "Ġprison": 2849,
      "oman": 2850,
      "Ġenc": 2851,
      "Ġideas": 2852,
      "Ġincredibly": 2853,
      "ero": 2854,
      "Ġtowards": 2855,
      "venge": 2856,
      "Ġclaim": 2857,
      "Ġinvest": 2858,
      "ĠQu": 2859,
      "ele": 2860,
      "Ġ!": 2861,
      "Ġnud": 2862,
      "ĠFilm": 2863,
      "Ġmasterpiece": 2864,
      "over": 2865,
      "action": 2866,
      "Ġplain": 2867,
      "ĠInst": 2868,
      "Ġcheesy": 2869,
      "IS": 2870,
      "with": 2871,
      "Ġwhom": 2872,
      "ivid": 2873,
      "ĠChristmas": 2874,
      "Ġ193": 2875,
      "Ġcommun": 2876,
      "Ġ90": 2877,
      "Ġstereot": 2878,
      "Ġaut": 2879,
      "Ġbare": 2880,
      "iver": 2881,
      "Ġmatch": 2882,
      "Ġspace": 2883,
      "ivers": 2884,
      "Ġjoke": 2885,
      "Ġattract": 2886,
      "Ġreasons": 2887,
      "Ġplease": 2888,
      "ĠCom": 2889,
      "Ġmanages": 2890,
      "kn": 2891,
      "rom": 2892,
      "ĠFred": 2893,
      "arrass": 2894,
      "ĠIMDb": 2895,
      "een": 2896,
      "Ġplenty": 2897,
      "Ġleading": 2898,
      "Ġfantasy": 2899,
      "Ġpurp": 2900,
      "\")": 2901,
      "Ġ:": 2902,
      "Ġign": 2903,
      "ĠDes": 2904,
      "Ġacted": 2905,
      "Ġcover": 2906,
      "Ġspirit": 2907,
      "mist": 2908,
      "Ġsocial": 2909,
      "Ġneg": 2910,
      "Ġattempts": 2911,
      "Ġportrayed": 2912,
      "ĠBra": 2913,
      "Ġdesper": 2914,
      "cause": 2915,
      "Ġ`": 2916,
      "Ġcry": 2917,
      "Ġoutside": 2918,
      "ĠStre": 2919,
      "Ġdeserves": 2920,
      "All": 2921,
      "vin": 2922,
      "ĠAust": 2923,
      "ĠHere": 2924,
      "aked": 2925,
      "elly": 2926,
      "Ġcollect": 2927,
      "vered": 2928,
      "ĠAf": 2929,
      "Ġachie": 2930,
      "Ġstep": 2931,
      "Ġbeauty": 2932,
      "Ġoccas": 2933,
      "Ġest": 2934,
      "Ġcirc": 2935,
      "Ġcasting": 2936,
      "Ġmissing": 2937,
      "Ġembarrass": 2938,
      "gest": 2939,
      "ĠBlack": 2940,
      "wart": 2941,
      "Ġremake": 2942,
      "Ġcond": 2943,
      "oles": 2944,
      "Ġrich": 2945,
      "ĠEm": 2946,
      "Ġsounds": 2947,
      "Ġpolitical": 2948,
      "Ġphys": 2949,
      "lex": 2950,
      "itty": 2951,
      "itted": 2952,
      "Ġsymp": 2953,
      "Ġpositive": 2954,
      "Ġfighting": 2955,
      "Ġsweet": 2956,
      "su": 2957,
      "pper": 2958,
      "Ġtotal": 2959,
      "ĠWatch": 2960,
      "Ġjour": 2961,
      "ĠEuro": 2962,
      "ips": 2963,
      "Ġextra": 2964,
      "Ġindeed": 2965,
      "Ġhom": 2966,
      "Ġexpecting": 2967,
      "Ġtalented": 2968,
      "ask": 2969,
      "ology": 2970,
      "ford": 2971,
      "Ġfairly": 2972,
      "You": 2973,
      "Ġinside": 2974,
      "Ġrelig": 2975,
      "OO": 2976,
      "val": 2977,
      "ze": 2978,
      "Ġlangu": 2979,
      "Ġvamp": 2980,
      "Ġrevol": 2981,
      "Ġdog": 2982,
      "Ġmarried": 2983,
      "ĠMary": 2984,
      "berg": 2985,
      "Ġmurd": 2986,
      "cent": 2987,
      "iving": 2988,
      "Ġera": 2989,
      "Ġnote": 2990,
      "resh": 2991,
      "Ġfamiliar": 2992,
      "Ġexplain": 2993,
      "Ġdepth": 2994,
      "medi": 2995,
      "Ġess": 2996,
      "Ġaf": 2997,
      "Ġgay": 2998,
      "iller": 2999,
      "agon": 3000,
      "Ġcolle": 3001,
      "Ġdestro": 3002,
      "Ġnudity": 3003,
      "Ġcaught": 3004,
      "andy": 3005,
      "idden": 3006,
      "Ġdecides": 3007,
      "Ġcrew": 3008,
      "Ġdelight": 3009,
      "Ġmentioned": 3010,
      "Ġident": 3011,
      "irl": 3012,
      "Ġtelling": 3013,
      "Ġcrazy": 3014,
      "Ġremark": 3015,
      "Ġhardly": 3016,
      "Ġwasted": 3017,
      "ĠBill": 3018,
      "iff": 3019,
      "ĠGold": 3020,
      "Ġmonster": 3021,
      "Ġrap": 3022,
      "Ġfurther": 3023,
      "Ġmid": 3024,
      "Ġclos": 3025,
      "Ġrecently": 3026,
      "bo": 3027,
      "Ġaff": 3028,
      "cked": 3029,
      "Ġscream": 3030,
      "Ġaccident": 3031,
      "Ġmissed": 3032,
      "Ġpace": 3033,
      "alth": 3034,
      "Ġrequ": 3035,
      "Ġwhatever": 3036,
      "ĠSer": 3037,
      "Ġansw": 3038,
      "room": 3039,
      "unny": 3040,
      "Ġunbelie": 3041,
      "Ġhair": 3042,
      "Ġtrail": 3043,
      "Ġcommon": 3044,
      "Ġmembers": 3045,
      "bl": 3046,
      "Ġporn": 3047,
      "Ġlady": 3048,
      "uted": 3049,
      "imp": 3050,
      "ette": 3051,
      "Ġsorry": 3052,
      "Ġbiz": 3053,
      "asher": 3054,
      "oop": 3055,
      "Ġfilmmakers": 3056,
      "come": 3057,
      "Ġ(\"": 3058,
      "Ġwaiting": 3059,
      "Ġmedi": 3060,
      "lying": 3061,
      "Ġstat": 3062,
      "ĠGreat": 3063,
      "Ġuses": 3064,
      "rect": 3065,
      "Ġrecord": 3066,
      "Ġimpro": 3067,
      "ossible": 3068,
      "VER": 3069,
      "par": 3070,
      "aine": 3071,
      "Ġended": 3072,
      "izing": 3073,
      "Ġcreated": 3074,
      "Ġdraw": 3075,
      "Ġconvincing": 3076,
      "Ġble": 3077,
      "Ġrece": 3078,
      "ĠPat": 3079,
      "Ġintri": 3080,
      "Ġwrote": 3081,
      "arry": 3082,
      "ades": 3083,
      "acher": 3084,
      "Ġcredit": 3085,
      "alt": 3086,
      "ĠWorld": 3087,
      "Ġimmedi": 3088,
      "Ġsees": 3089,
      "Ġspent": 3090,
      "Ġslightly": 3091,
      "Ġmel": 3092,
      "Ġscient": 3093,
      "ĠOther": 3094,
      "ĠStar": 3095,
      "lict": 3096,
      "inating": 3097,
      "iced": 3098,
      "ĠMad": 3099,
      "iously": 3100,
      "Ġfunn": 3101,
      "Ġpointless": 3102,
      "Ġexplo": 3103,
      "Ġcolor": 3104,
      "ding": 3105,
      "ites": 3106,
      "ĠTra": 3107,
      "Ġmod": 3108,
      "oph": 3109,
      "Ġrate": 3110,
      "Ġbed": 3111,
      "ened": 3112,
      "Ġhy": 3113,
      "Ġstick": 3114,
      "con": 3115,
      "ishing": 3116,
      "uter": 3117,
      "ieces": 3118,
      "emy": 3119,
      "Ġflash": 3120,
      "Ġcomplex": 3121,
      "cher": 3122,
      "Ġtension": 3123,
      "olf": 3124,
      "lu": 3125,
      "ibility": 3126,
      "iers": 3127,
      "Ġcute": 3128,
      "Ġoffic": 3129,
      "Ġfollowing": 3130,
      "OW": 3131,
      "Ġmass": 3132,
      "Ġine": 3133,
      "acy": 3134,
      "Ġentirely": 3135,
      "ĠEurope": 3136,
      "cast": 3137,
      "itation": 3138,
      "Ġmoves": 3139,
      "eless": 3140,
      "vil": 3141,
      "rage": 3142,
      "Ġbiggest": 3143,
      "Ġformer": 3144,
      "ĠBig": 3145,
      "gend": 3146,
      "Ġ196": 3147,
      "Ġsuccessful": 3148,
      "inary": 3149,
      "lusion": 3150,
      "uine": 3151,
      "Ġwall": 3152,
      "esome": 3153,
      "rian": 3154,
      "aging": 3155,
      "Ġbrief": 3156,
      "Ġlaughing": 3157,
      "Ġescape": 3158,
      "Ġsubtle": 3159,
      "Ġghost": 3160,
      "ĠBat": 3161,
      "ĠRock": 3162,
      "Ġrad": 3163,
      "Ġamb": 3164,
      "Ġcontrol": 3165,
      "Ġidi": 3166,
      "ha": 3167,
      "ĠRed": 3168,
      "Ġsatisf": 3169,
      "isingly": 3170,
      "ĠAct": 3171,
      "Ġ15": 3172,
      "Ġboys": 3173,
      "Ġappreciate": 3174,
      "Ġwild": 3175,
      "Ġchoice": 3176,
      "Ġunfortunately": 3177,
      "Ġintelligent": 3178,
      "Ġcontr": 3179,
      "Ġaccent": 3180,
      "Ġmach": 3181,
      "ĠII": 3182,
      "vern": 3183,
      "Ġarri": 3184,
      "ashion": 3185,
      "Ġconcern": 3186,
      "aven": 3187,
      "Ġtravel": 3188,
      "Ġfollows": 3189,
      "ED": 3190,
      "Ġdied": 3191,
      "str": 3192,
      "Ġbrain": 3193,
      "PO": 3194,
      "men": 3195,
      "ateur": 3196,
      "Ġamusing": 3197,
      "uthor": 3198,
      "Ġvalue": 3199,
      "Ġfocus": 3200,
      "ĠInstead": 3201,
      "mon": 3202,
      "Ġjud": 3203,
      "Ġwater": 3204,
      "ective": 3205,
      "000": 3206,
      "standing": 3207,
      "Ġcontinu": 3208,
      "Ġball": 3209,
      "ĠIr": 3210,
      "ĠEn": 3211,
      "Ġspend": 3212,
      "Ġexciting": 3213,
      "Ġstore": 3214,
      "idered": 3215,
      "Ġeffective": 3216,
      "ribly": 3217,
      "Ġstereotyp": 3218,
      "itary": 3219,
      "iment": 3220,
      "ĠDead": 3221,
      "Ġzombie": 3222,
      "Ġyounger": 3223,
      "Ġbreat": 3224,
      "ĠMon": 3225,
      "Ġrecent": 3226,
      "Ġgenuine": 3227,
      "Ġsolid": 3228,
      "Ġforgot": 3229,
      "boy": 3230,
      "Ġsoul": 3231,
      "ĠPro": 3232,
      "Ġweek": 3233,
      "ĠAfric": 3234,
      "cing": 3235,
      "Ġjump": 3236,
      "Ġtrouble": 3237,
      "ictor": 3238,
      "Ġportrayal": 3239,
      "Ġopportun": 3240,
      "Ġweren": 3241,
      "Ġexception": 3242,
      "ging": 3243,
      "ilt": 3244,
      "ĠPark": 3245,
      "Ġbrut": 3246,
      "Ġbooks": 3247,
      "Ġglad": 3248,
      "Ġdancing": 3249,
      "mistry": 3250,
      "ĠHouse": 3251,
      "Ġshowed": 3252,
      "bb": 3253,
      "ĠBur": 3254,
      "ĠLou": 3255,
      "Ġdecide": 3256,
      "Ġlanguage": 3257,
      "rel": 3258,
      "Ġwestern": 3259,
      "Ġearth": 3260,
      "ĠHor": 3261,
      "Ġcompe": 3262,
      "Ġsinging": 3263,
      "Ġimpressive": 3264,
      "Ġchanged": 3265,
      "oes": 3266,
      "this": 3267,
      "Ġcrim": 3268,
      "Ġkills": 3269,
      "Ġcompared": 3270,
      "Ġconsidered": 3271,
      "Ġrepres": 3272,
      "Ġfilled": 3273,
      "Ġbizarre": 3274,
      "OM": 3275,
      "ener": 3276,
      "Ġluck": 3277,
      "Ġrevenge": 3278,
      "while": 3279,
      "Ġtrip": 3280,
      "Ġincredible": 3281,
      "Ġpract": 3282,
      "Ġdepict": 3283,
      "Ġ50": 3284,
      "ĠSmith": 3285,
      "TH": 3286,
      "Ġfit": 3287,
      "Ġmanner": 3288,
      "Ġslasher": 3289,
      "Ġlonger": 3290,
      "Ġruns": 3291,
      "How": 3292,
      "One": 3293,
      "ified": 3294,
      "ĠVan": 3295,
      "Ġfol": 3296,
      "Ġgarb": 3297,
      "Ġrede": 3298,
      "irty": 3299,
      "ĠCor": 3300,
      "Ġamateur": 3301,
      "fort": 3302,
      "Ġdanger": 3303,
      "Ġviolent": 3304,
      "Ġcritic": 3305,
      "arily": 3306,
      "no": 3307,
      "Ġtort": 3308,
      "Ġsuspect": 3309,
      "une": 3310,
      "ization": 3311,
      "Ġchemistry": 3312,
      "Ġcarry": 3313,
      "Ġproducers": 3314,
      "Ġdisturbing": 3315,
      "Ġotherwise": 3316,
      "even": 3317,
      "Ġunin": 3318,
      "Ġfear": 3319,
      "annel": 3320,
      "Ġsituations": 3321,
      "Ġstunning": 3322,
      "Ġsuddenly": 3323,
      "gl": 3324,
      "sters": 3325,
      "ĠTony": 3326,
      "iding": 3327,
      "aper": 3328,
      "Ġspot": 3329,
      "Ġproduced": 3330,
      "Ġanimated": 3331,
      "Ġquestions": 3332,
      "ĠItalian": 3333,
      "Ġbarely": 3334,
      "Ġtough": 3335,
      "ondon": 3336,
      "Ġregard": 3337,
      "Ġfat": 3338,
      "Ġbaby": 3339,
      "Ġappeal": 3340,
      "Ġfailed": 3341,
      "eg": 3342,
      "Ġaffect": 3343,
      "Ġdoctor": 3344,
      "ĠStan": 3345,
      "Ġdoll": 3346,
      "Ġanti": 3347,
      "fi": 3348,
      "ales": 3349,
      "iles": 3350,
      "Ġsuit": 3351,
      "Ġground": 3352,
      "ares": 3353,
      "ĠCra": 3354,
      "Ġunless": 3355,
      "Ġinvolving": 3356,
      "Ġtouch": 3357,
      "Ġvalues": 3358,
      "Ġpers": 3359,
      "Ġawesome": 3360,
      "ille": 3361,
      "Ġsuc": 3362,
      "Ġtrash": 3363,
      "ĠAnn": 3364,
      "Ġtaste": 3365,
      "Ġpurpose": 3366,
      "Ġfake": 3367,
      "owers": 3368,
      "Ġsav": 3369,
      "Ġrepl": 3370,
      "sequ": 3371,
      "ĠMovie": 3372,
      "Ġmagic": 3373,
      "min": 3374,
      "Ġbother": 3375,
      "Ġparty": 3376,
      "Ġconclusion": 3377,
      "Ġstudio": 3378,
      "Ġprogram": 3379,
      "LE": 3380,
      "thur": 3381,
      "appe": 3382,
      "Ġroll": 3383,
      "Ġimpossible": 3384,
      "Ġrare": 3385,
      "Ġfavour": 3386,
      "night": 3387,
      "Ġtest": 3388,
      "Ġbull": 3389,
      "Ġproduct": 3390,
      "Ġaudiences": 3391,
      "Ġculture": 3392,
      "known": 3393,
      "iring": 3394,
      "\".<": 3395,
      "Ġtradition": 3396,
      "Ġbought": 3397,
      "Ġcold": 3398,
      "Ġmood": 3399,
      "Ġoffice": 3400,
      "Ġassum": 3401,
      "Ġbasic": 3402,
      "Ġimpression": 3403,
      "Ġgarbage": 3404,
      "aus": 3405,
      "Ġheavy": 3406,
      "ĠST": 3407,
      "ĠBro": 3408,
      "ĠWay": 3409,
      "ĠLondon": 3410,
      "Ġleaving": 3411,
      "lessly": 3412,
      "Ġtrack": 3413,
      "Ġlikes": 3414,
      "inn": 3415,
      "Ġsqu": 3416,
      "Ġstate": 3417,
      "Ġhumour": 3418,
      "Ġcompany": 3419,
      "Ġimages": 3420,
      "Ġshooting": 3421,
      "idence": 3422,
      "ĠAlex": 3423,
      "ĠBest": 3424,
      "Ġability": 3425,
      "Ġredeem": 3426,
      "Ġhang": 3427,
      "rupt": 3428,
      "Ġrand": 3429,
      "ottom": 3430,
      "Ġfaith": 3431,
      "ength": 3432,
      "war": 3433,
      "ĠMel": 3434,
      "ĠRo": 3435,
      "ensive": 3436,
      "Ġutterly": 3437,
      "Ġsucceed": 3438,
      "AS": 3439,
      "uk": 3440,
      "Ġauthor": 3441,
      "Ġloud": 3442,
      "Ġnatural": 3443,
      "opher": 3444,
      "Ġinvestig": 3445,
      "aire": 3446,
      "rend": 3447,
      "ĠHam": 3448,
      "Ġneigh": 3449,
      "Ġcompet": 3450,
      "***": 3451,
      "mark": 3452,
      "riage": 3453,
      "Ġsci": 3454,
      "Ġcharming": 3455,
      "Ġdisg": 3456,
      "Ġappearance": 3457,
      "ĠPerhaps": 3458,
      "Ġreveal": 3459,
      "Ġadventure": 3460,
      "Ġimmediately": 3461,
      "Don": 3462,
      "anic": 3463,
      "ĠLove": 3464,
      "izes": 3465,
      "ĠVictor": 3466,
      "Ġ194": 3467,
      "Ġcross": 3468,
      "Ġkick": 3469,
      "ĠEarth": 3470,
      "ode": 3471,
      "Ġobsess": 3472,
      "Ġultimately": 3473,
      "Ġpack": 3474,
      "ĠLet": 3475,
      "Ġstreet": 3476,
      "round": 3477,
      "iche": 3478,
      "vey": 3479,
      "ĠCity": 3480,
      "ĠRuss": 3481,
      "Ġuns": 3482,
      "Ġadaptation": 3483,
      "Ġmer": 3484,
      "Ġnumb": 3485,
      "Ġunex": 3486,
      "Ġinsult": 3487,
      "ĠStewart": 3488,
      "ĠSuper": 3489,
      "ILER": 3490,
      "house": 3491,
      "ena": 3492,
      "Ġgrap": 3493,
      "urch": 3494,
      "Ġdoor": 3495,
      "Ġminor": 3496,
      "Ġterror": 3497,
      "anna": 3498,
      "Ġpathetic": 3499,
      "formation": 3500,
      "Ġrandom": 3501,
      "reg": 3502,
      "Ġterms": 3503,
      "Ġaccur": 3504,
      "ological": 3505,
      "Ġrefe": 3506,
      "ĠBoy": 3507,
      "Ġlab": 3508,
      "ĠAnt": 3509,
      "Ġseg": 3510,
      "Ġneither": 3511,
      "Ġclot": 3512,
      "ressing": 3513,
      "Ġgenius": 3514,
      "Ġspect": 3515,
      "Ġsomewhere": 3516,
      "ĠJeff": 3517,
      "rid": 3518,
      "Ġfashion": 3519,
      "Ġstarring": 3520,
      "Ġcomputer": 3521,
      "POILER": 3522,
      "Ġmult": 3523,
      "Ġpu": 3524,
      "that": 3525,
      "stem": 3526,
      "Ġbeat": 3527,
      "ĠSure": 3528,
      "Ġnotice": 3529,
      "ĠAnother": 3530,
      "Ġdeliver": 3531,
      "Ġgem": 3532,
      "ribut": 3533,
      "Ġapproach": 3534,
      "Ġcollege": 3535,
      "aff": 3536,
      "Ġcause": 3537,
      "cted": 3538,
      "vert": 3539,
      "Ġforce": 3540,
      "ĠOF": 3541,
      "Ġgovern": 3542,
      "Ġ100": 3543,
      "Ġtone": 3544,
      "Ġcharm": 3545,
      "reaking": 3546,
      "icated": 3547,
      "ĠMur": 3548,
      "uster": 3549,
      "Ġroad": 3550,
      "Ġthinks": 3551,
      "Ġabsurd": 3552,
      "Ġconflict": 3553,
      "Ġclimax": 3554,
      "you": 3555,
      "Ġfresh": 3556,
      "rag": 3557,
      "Ġstandard": 3558,
      "ĠSteve": 3559,
      "Ġgenerally": 3560,
      "Ġtouching": 3561,
      "Ġsitting": 3562,
      "ĠHarr": 3563,
      "Ġtwists": 3564,
      "Ġunbelievable": 3565,
      "ID": 3566,
      "Ġdad": 3567,
      "lyn": 3568,
      "Ġdef": 3569,
      "ĠKelly": 3570,
      "Ġoccur": 3571,
      "On": 3572,
      "Ġcuri": 3573,
      "Ġpun": 3574,
      "Ġlau": 3575,
      "ĠDirector": 3576,
      "anda": 3577,
      "ĠFe": 3578,
      "Ġlikely": 3579,
      "Ġgod": 3580,
      "movie": 3581,
      "itions": 3582,
      "Ġdig": 3583,
      "Ġthemes": 3584,
      "Ġnowhere": 3585,
      "Ġindust": 3586,
      "Ġliterally": 3587,
      "making": 3588,
      "ĠHen": 3589,
      "Ġdefe": 3590,
      "Ġ40": 3591,
      "Ġdreams": 3592,
      "Ġfully": 3593,
      "uts": 3594,
      "Ġsto": 3595,
      "ĠYe": 3596,
      "Ġserial": 3597,
      "ĠCharlie": 3598,
      "Ġconsidering": 3599,
      "Ġnarrative": 3600,
      "Ġmistake": 3601,
      "Ġnormal": 3602,
      "yle": 3603,
      "Ġgag": 3604,
      "Ġjo": 3605,
      "unting": 3606,
      "elling": 3607,
      "awn": 3608,
      "Ġartist": 3609,
      "Ġaddition": 3610,
      "Ġelement": 3611,
      "ĠHarry": 3612,
      "Ġrespons": 3613,
      "AD": 3614,
      "vir": 3615,
      "Ġsix": 3616,
      "aining": 3617,
      "Ġmanaged": 3618,
      "Ġremains": 3619,
      "Ġadded": 3620,
      "Ġmonth": 3621,
      "ĠPeople": 3622,
      "Ġcomedies": 3623,
      "Ġboss": 3624,
      "Ġdisappointment": 3625,
      "played": 3626,
      "ropri": 3627,
      "Ġconstantly": 3628,
      "Ġissues": 3629,
      "ify": 3630,
      "Ġdrive": 3631,
      "Ġzombies": 3632,
      "esides": 3633,
      "Ġplaces": 3634,
      "Ġthrown": 3635,
      "Ġintrigu": 3636,
      "BC": 3637,
      "For": 3638,
      "cer": 3639,
      "Ġdro": 3640,
      "riff": 3641,
      "Ġterrific": 3642,
      "Ġlaughable": 3643,
      "Ġcinematic": 3644,
      "Ġinterview": 3645,
      "iven": 3646,
      "oughly": 3647,
      "Ġpresence": 3648,
      "Ġdrawn": 3649,
      "Ġwitness": 3650,
      "ĠParis": 3651,
      "OV": 3652,
      "ision": 3653,
      "lease": 3654,
      "ĠDick": 3655,
      "Ġoffer": 3656,
      "ĠYet": 3657,
      "ĠChristian": 3658,
      "Ġhistorical": 3659,
      "Ġmakers": 3660,
      "Ġur": 3661,
      "estival": 3662,
      "ands": 3663,
      "orts": 3664,
      "Ġphotography": 3665,
      "Ġmilitary": 3666,
      "ring": 3667,
      "Ġthreat": 3668,
      "Ġleg": 3669,
      "ailable": 3670,
      "Ġkey": 3671,
      "Ġsexy": 3672,
      "Ġpresented": 3673,
      "Ġsystem": 3674,
      "ĠIndian": 3675,
      "Ġcho": 3676,
      "Ġscience": 3677,
      "Ġindivid": 3678,
      "Ġaspects": 3679,
      "part": 3680,
      "Ġbomb": 3681,
      "Ġprep": 3682,
      "Ġknowing": 3683,
      "Ġsurprisingly": 3684,
      "irth": 3685,
      "anted": 3686,
      "ability": 3687,
      "Ġfeelings": 3688,
      "Ġbeautifully": 3689,
      "ĠDen": 3690,
      "Ġtrain": 3691,
      "Ġexpectations": 3692,
      "Ġ60": 3693,
      "Ġcostumes": 3694,
      "mm": 3695,
      "Ġinflu": 3696,
      "Ġinnocent": 3697,
      "IT": 3698,
      "Ġokay": 3699,
      "Ġnames": 3700,
      "ĠSw": 3701,
      "ĠCal": 3702,
      "Ġfinish": 3703,
      "Ġexcuse": 3704,
      "Ġbehav": 3705,
      "Ġhoping": 3706,
      "Ġmillion": 3707,
      "heart": 3708,
      "ĠAb": 3709,
      "ĠBel": 3710,
      "ĠBru": 3711,
      "ĠMiss": 3712,
      "Ġlog": 3713,
      "Ġthrow": 3714,
      "Ġpainful": 3715,
      "Ġescap": 3716,
      "Ġequally": 3717,
      "cle": 3718,
      "hol": 3719,
      "ĠWhere": 3720,
      "ĠPal": 3721,
      "Ġmarriage": 3722,
      "Ġslowly": 3723,
      "Ġinit": 3724,
      "ached": 3725,
      "Ġsuppose": 3726,
      "Ġpictures": 3727,
      "ss": 3728,
      "aton": 3729,
      "ica": 3730,
      "icide": 3731,
      "ĠSci": 3732,
      "ribe": 3733,
      "ĠDou": 3734,
      "Ġ18": 3735,
      "arsh": 3736,
      "ĠBecause": 3737,
      "Ġspl": 3738,
      "Ġchall": 3739,
      "Ġscenery": 3740,
      "Ġwalking": 3741,
      "Ġdetails": 3742,
      "ĠCr": 3743,
      "ĠFl": 3744,
      "ĠVery": 3745,
      "ĠStill": 3746,
      "ĠAdam": 3747,
      "Ġdestroy": 3748,
      "Ġflashback": 3749,
      "just": 3750,
      "arm": 3751,
      "Ġdate": 3752,
      "ĠBer": 3753,
      "Ġstands": 3754,
      "Ġdrunk": 3755,
      "Ġdescrib": 3756,
      "He": 3757,
      "Ġburn": 3758,
      "ĠGo": 3759,
      "Ġsmart": 3760,
      "Ġsoldiers": 3761,
      "Ġaffair": 3762,
      "Ġmedioc": 3763,
      "under": 3764,
      "Ġoffe": 3765,
      "ĠSouth": 3766,
      "asty": 3767,
      "Ġoutstanding": 3768,
      "ploy": 3769,
      "rences": 3770,
      "Ġcentury": 3771,
      "face": 3772,
      "Ġlif": 3773,
      "ĠHigh": 3774,
      "Ġsoft": 3775,
      "Ġrecommended": 3776,
      "ancy": 3777,
      "Ġdisappointing": 3778,
      "Ġphotograp": 3779,
      "istent": 3780,
      "Ġener": 3781,
      "Ġsubst": 3782,
      "Ġintended": 3783,
      "Ġopportunity": 3784,
      "Ġsight": 3785,
      "itude": 3786,
      "Ġpil": 3787,
      "ĠRay": 3788,
      "Ġspec": 3789,
      "oking": 3790,
      "Ġfascinating": 3791,
      "Ġdin": 3792,
      "Ġproper": 3793,
      "ĠStr": 3794,
      "Ġmysterious": 3795,
      "Ġindividual": 3796,
      "ĠAg": 3797,
      "illing": 3798,
      "aint": 3799,
      "Ġcommer": 3800,
      "Ġboyfriend": 3801,
      "ĠAngel": 3802,
      "ghed": 3803,
      "ki": 3804,
      "icip": 3805,
      "ural": 3806,
      "ĠRog": 3807,
      "ĠThough": 3808,
      "athy": 3809,
      "Ġsurround": 3810,
      "Ġmir": 3811,
      "Ġalive": 3812,
      "Ġteacher": 3813,
      "Ġanimals": 3814,
      "Ġemotions": 3815,
      "Ġmat": 3816,
      "Ġserv": 3817,
      "Ġcontains": 3818,
      "Ġdrug": 3819,
      "Sh": 3820,
      "orter": 3821,
      "Ġacts": 3822,
      "Ġimpl": 3823,
      "Ġlovely": 3824,
      "appy": 3825,
      "Ġputs": 3826,
      "Ġdifference": 3827,
      "Ġchanges": 3828,
      "Ġdiscuss": 3829,
      "Ġprotagon": 3830,
      "Ġbreath": 3831,
      "IE": 3832,
      "yl": 3833,
      "ini": 3834,
      "Ġbase": 3835,
      "ĠSand": 3836,
      "ĠWest": 3837,
      "Ġobject": 3838,
      "azz": 3839,
      "Ġdemon": 3840,
      "Ġ****": 3841,
      "inct": 3842,
      "ishes": 3843,
      "Ġfright": 3844,
      "ĠWW": 3845,
      "Ġintense": 3846,
      "Ġlegend": 3847,
      "ĠYoung": 3848,
      "Ġintern": 3849,
      "ĠAllen": 3850,
      "Ġjourney": 3851,
      "ken": 3852,
      "Ġast": 3853,
      "itz": 3854,
      "anch": 3855,
      "Ġdim": 3856,
      "ĠCG": 3857,
      "ĠHard": 3858,
      "ĠOnly": 3859,
      "Ġbuilding": 3860,
      "ham": 3861,
      "uous": 3862,
      "Ġord": 3863,
      "Ġcontent": 3864,
      "Ġcompar": 3865,
      "orgeous": 3866,
      "gue": 3867,
      "Ġdies": 3868,
      "Ġpassion": 3869,
      "Ġgovernment": 3870,
      "pro": 3871,
      "Ġtired": 3872,
      "Ġfilming": 3873,
      "Ġride": 3874,
      "Ġloves": 3875,
      "Ġmoral": 3876,
      "budget": 3877,
      "lla": 3878,
      "Ġpieces": 3879,
      "Ġnoir": 3880,
      "Ġqual": 3881,
      "ledge": 3882,
      "ĠSec": 3883,
      "Ġavailable": 3884,
      "uit": 3885,
      "anced": 3886,
      "Ġlength": 3887,
      "ĠBo": 3888,
      "Ġproves": 3889,
      "ples": 3890,
      "Ġlikable": 3891,
      "Ġadults": 3892,
      "elebr": 3893,
      "IG": 3894,
      "onna": 3895,
      "ĠJes": 3896,
      "Ġedge": 3897,
      "Ġcompelling": 3898,
      "down": 3899,
      "ency": 3900,
      "Ġlad": 3901,
      "ĠTre": 3902,
      "Ġship": 3903,
      "ĠPart": 3904,
      "abb": 3905,
      "text": 3906,
      "Ġlacks": 3907,
      "Ġinclude": 3908,
      "Ġvictims": 3909,
      "Ġfellow": 3910,
      "table": 3911,
      "inally": 3912,
      "Ġment": 3913,
      "Ġthor": 3914,
      "entially": 3915,
      "ĠMus": 3916,
      "Ġjoy": 3917,
      "gged": 3918,
      "kin": 3919,
      "Ġisland": 3920,
      "ĠBob": 3921,
      "Ġappeared": 3922,
      "Ġhappening": 3923,
      "Ġconfused": 3924,
      "Ġnegative": 3925,
      "Ġwarn": 3926,
      "Ġfool": 3927,
      "see": 3928,
      "ĠCo": 3929,
      "Ġplus": 3930,
      "ushed": 3931,
      "Ġthank": 3932,
      "Ġmagn": 3933,
      "erous": 3934,
      "Ġmart": 3935,
      "Ġham": 3936,
      "ĠIS": 3937,
      "Ġhasn": 3938,
      "Ġunus": 3939,
      "pret": 3940,
      "ĠJones": 3941,
      "exic": 3942,
      "Ġdeveloped": 3943,
      "ĠCharles": 3944,
      "Ġcritics": 3945,
      "Ġsilent": 3946,
      "ĠTwo": 3947,
      "mar": 3948,
      "ustr": 3949,
      "Ġclean": 3950,
      "Ġdrink": 3951,
      "Ġmotion": 3952,
      "Ġforever": 3953,
      "Ġflaws": 3954,
      "Ġcurrent": 3955,
      "Ġnumbers": 3956,
      "CH": 3957,
      "Ġden": 3958,
      "Ġdread": 3959,
      "Ġloose": 3960,
      "ĠMag": 3961,
      "Ġshare": 3962,
      "ift": 3963,
      "ĠGreen": 3964,
      "tend": 3965,
      "That": 3966,
      "Ġrelationships": 3967,
      "Ġfault": 3968,
      "Ġdamn": 3969,
      "Ġmelod": 3970,
      "Ġgorgeous": 3971,
      "ĠDavis": 3972,
      "Ġcommercial": 3973,
      "ta": 3974,
      "Ġmouth": 3975,
      "ĠBas": 3976,
      "Ġmerely": 3977,
      "Ġimage": 3978,
      "ĠStory": 3979,
      "Ġwondering": 3980,
      "Ġfollowed": 3981,
      "Ġdetective": 3982,
      "ĠChristopher": 3983,
      "Ġlaughed": 3984,
      "ĠPol": 3985,
      "ander": 3986,
      "Ġlover": 3987,
      "Ġfalling": 3988,
      "ĠSteven": 3989,
      "ĠBatman": 3990,
      "?!": 3991,
      "abl": 3992,
      "akespe": 3993,
      "Ġprim": 3994,
      "Ġconfusing": 3995,
      "Ġbecoming": 3996,
      "Ġhig": 3997,
      "andon": 3998,
      "dered": 3999,
      "Ġtrailer": 4000,
      "Ġcell": 4001,
      "Ġcelebr": 4002,
      "Ġlatter": 4003,
      "ilities": 4004,
      "ĠTar": 4005,
      "pected": 4006,
      "omething": 4007,
      "Ġimpact": 4008,
      "Ġchildhood": 4009,
      "Ġimagination": 4010,
      "Ġcorrect": 4011,
      "ospital": 4012,
      "Ġindepend": 4013,
      "Ġtragedy": 4014,
      "ĠCanad": 4015,
      "Ġwise": 4016,
      "raid": 4017,
      "ĠLo": 4018,
      "Ġunne": 4019,
      "Ġstandards": 4020,
      "Not": 4021,
      "We": 4022,
      "ipp": 4023,
      "ront": 4024,
      "Ġhide": 4025,
      "Ġrape": 4026,
      "Ġhelps": 4027,
      "phen": 4028,
      "ĠSant": 4029,
      "ĠMark": 4030,
      ".....": 4031,
      "Ġprovides": 4032,
      "Ġoppos": 4033,
      "Ġmulti": 4034,
      "eal": 4035,
      "Ġahead": 4036,
      "Ġhost": 4037,
      "Ġlived": 4038,
      "ĠDark": 4039,
      "ĠChris": 4040,
      "Ġremote": 4041,
      "Ġlighting": 4042,
      "ĠJean": 4043,
      "ĠAustral": 4044,
      "Ġmediocre": 4045,
      "gly": 4046,
      "aries": 4047,
      "Ġalien": 4048,
      "ĠJerry": 4049,
      "Ġirrit": 4050,
      "Ġtragic": 4051,
      "Ġachieve": 4052,
      "Ġdisgust": 4053,
      "Ġpaid": 4054,
      "Ġdouble": 4055,
      "ĠNor": 4056,
      "Ġoffers": 4057,
      "Ġdelivers": 4058,
      "writer": 4059,
      "ĠMartin": 4060,
      "life": 4061,
      "ĠSee": 4062,
      "Ġrout": 4063,
      "Ġhighlight": 4064,
      "ĠNothing": 4065,
      "Ġformula": 4066,
      "asing": 4067,
      "Ġnons": 4068,
      "ĠMexic": 4069,
      "ĠHol": 4070,
      "Ġsun": 4071,
      "ĠGl": 4072,
      "Ġjustice": 4073,
      "Ġadds": 4074,
      "ĠHenry": 4075,
      "Jo": 4076,
      "ffe": 4077,
      "Ġfac": 4078,
      "Ġdubb": 4079,
      "Ġvirt": 4080,
      "Ġbrothers": 4081,
      "Ġthoroughly": 4082,
      "When": 4083,
      "ĠX": 4084,
      "Ġdiv": 4085,
      "Ġyouth": 4086,
      "ĠBad": 4087,
      "Ġchase": 4088,
      "Ġnobody": 4089,
      "inese": 4090,
      "Ġimpressed": 4091,
      "ĠCarl": 4092,
      ".,": 4093,
      "now": 4094,
      "herent": 4095,
      "Ġoh": 4096,
      "Ġrated": 4097,
      "Ġgold": 4098,
      "Ġquiet": 4099,
      "Ġrip": 4100,
      "ĠBruce": 4101,
      "good": 4102,
      "ĠDay": 4103,
      "Ġcreative": 4104,
      "Ġstudent": 4105,
      "mbol": 4106,
      "ĠWilliams": 4107,
      "To": 4108,
      "cra": 4109,
      "ech": 4110,
      "field": 4111,
      "Ġfiction": 4112,
      "ita": 4113,
      "asure": 4114,
      "ops": 4115,
      "Ġdisaster": 4116,
      "Ġseemingly": 4117,
      "Ġflicks": 4118,
      "Ġdiscover": 4119,
      "Ġplanet": 4120,
      "Ġmurders": 4121,
      "rough": 4122,
      "iday": 4123,
      "Ġblind": 4124,
      "azy": 4125,
      "ĠShakespe": 4126,
      "Ġsurely": 4127,
      "Ġcentral": 4128,
      "Ġnaked": 4129,
      "Ġstuck": 4130,
      "Ġlose": 4131,
      "Ġdisappe": 4132,
      "Ġpicked": 4133,
      "Ġanswer": 4134,
      "At": 4135,
      "lled": 4136,
      "Ġfort": 4137,
      "Ġcontem": 4138,
      "Ġrace": 4139,
      "Ġapartment": 4140,
      "gar": 4141,
      "Ġbright": 4142,
      "itor": 4143,
      "Ġaside": 4144,
      "ĠAlan": 4145,
      "Ġresc": 4146,
      "rama": 4147,
      "Ġhonestly": 4148,
      "Ġprofessional": 4149,
      "Ġattractive": 4150,
      "Ġheld": 4151,
      "arded": 4152,
      "Ġwilling": 4153,
      "Ġtwice": 4154,
      "ĠOnce": 4155,
      "Ġproducer": 4156,
      "Ġspectac": 4157,
      "hero": 4158,
      "Ġasks": 4159,
      "ĠMs": 4160,
      "osh": 4161,
      "Ġprocess": 4162,
      "Ġblond": 4163,
      "Ġmainly": 4164,
      "Ġreminded": 4165,
      "Ġmarket": 4166,
      "Ġfunniest": 4167,
      "Ġforgotten": 4168,
      "Ġfolks": 4169,
      "Be": 4170,
      "LY": 4171,
      "Overall": 4172,
      "Ġbegan": 4173,
      "Ġknock": 4174,
      "Now": 4175,
      "Ġaim": 4176,
      "Ġfaces": 4177,
      "anish": 4178,
      "icious": 4179,
      "Ġanymore": 4180,
      "aches": 4181,
      "Ġaccom": 4182,
      "Ġrented": 4183,
      "Ġstruggle": 4184,
      "ĠAND": 4185,
      "film": 4186,
      "mare": 4187,
      "she": 4188,
      "Ġwide": 4189,
      "Ġbi": 4190,
      "Ġnasty": 4191,
      "aylor": 4192,
      "ĠSar": 4193,
      "Ġarea": 4194,
      "agger": 4195,
      "ĠLittle": 4196,
      "ooks": 4197,
      "Ġsadly": 4198,
      "Ġactresses": 4199,
      "Ġdescribe": 4200,
      "AY": 4201,
      "Bl": 4202,
      "Ġeight": 4203,
      "oted": 4204,
      "Ġonto": 4205,
      "entious": 4206,
      "ĠSin": 4207,
      "ĠHit": 4208,
      "Ġnecessary": 4209,
      "Ġunderst": 4210,
      "Ġready": 4211,
      "Ġhelped": 4212,
      "Ġstreng": 4213,
      "Ġ1950": 4214,
      "board": 4215,
      "hor": 4216,
      "iac": 4217,
      "ube": 4218,
      "Ġmember": 4219,
      "ĠDespite": 4220,
      "AL": 4221,
      "alled": 4222,
      "Ġshouldn": 4223,
      "Ġputting": 4224,
      "Ġseconds": 4225,
      "ĠPhil": 4226,
      "IC": 4227,
      "Ġbottom": 4228,
      "athetic": 4229,
      "Ġhospital": 4230,
      "ĠBrian": 4231,
      "uman": 4232,
      "Ġunw": 4233,
      "Ġdesert": 4234,
      "Ġgiant": 4235,
      "Ġturning": 4236,
      "Ġinsight": 4237,
      "Ġsymbol": 4238,
      "Ġfilmmaker": 4239,
      "Ġallowed": 4240,
      "Ġafraid": 4241,
      "mes": 4242,
      "Ġmount": 4243,
      "Ġreach": 4244,
      "irgin": 4245,
      "soever": 4246,
      "Ġrelative": 4247,
      "ĠAmericans": 4248,
      "Ġstudents": 4249,
      "glas": 4250,
      "Ġindustry": 4251,
      "erk": 4252,
      "Ġthin": 4253,
      "Ġinformation": 4254,
      "oos": 4255,
      "roc": 4256,
      "Ġdeeply": 4257,
      "Ġinspired": 4258,
      "Ġcollection": 4259,
      "ashed": 4260,
      "Ġeat": 4261,
      "ĠLyn": 4262,
      "Ġunreal": 4263,
      "Ġgrow": 4264,
      "Ġnews": 4265,
      "ium": 4266,
      "rick": 4267,
      "vol": 4268,
      "requ": 4269,
      "Ġbank": 4270,
      "Ġpen": 4271,
      "Ġpath": 4272,
      "ĠBar": 4273,
      "ĠWalk": 4274,
      "Ġactions": 4275,
      "ĠRoy": 4276,
      "Ġconvers": 4277,
      "Ġwhatsoever": 4278,
      "Ġpersonality": 4279,
      "Ġwarm": 4280,
      "Ġlocation": 4281,
      "Ġbroad": 4282,
      ".'": 4283,
      "AM": 4284,
      "Ġreact": 4285,
      "ĠSpe": 4286,
      "ĠBilly": 4287,
      "ĠFord": 4288,
      "ĠNever": 4289,
      "ĠOverall": 4290,
      "ounds": 4291,
      "Ġfriendship": 4292,
      "Ġvampire": 4293,
      "ĠShakespeare": 4294,
      "Ġver": 4295,
      "Ġge": 4296,
      "Ġmoved": 4297,
      "rog": 4298,
      "ĠWin": 4299,
      "ĠEdd": 4300,
      "pective": 4301,
      "entional": 4302,
      "ĠMany": 4303,
      "Ġoccasion": 4304,
      "win": 4305,
      "zan": 4306,
      "owd": 4307,
      "Ġstation": 4308,
      "ifer": 4309,
      "Ġblock": 4310,
      "Ġdrag": 4311,
      "Ġdrugs": 4312,
      "Ġopera": 4313,
      "Ġredeeming": 4314,
      "Ġunexpected": 4315,
      "Ġclothes": 4316,
      "aded": 4317,
      "ĠApp": 4318,
      "abe": 4319,
      "Ġbuff": 4320,
      "ovies": 4321,
      "Ġtechnical": 4322,
      "Ġintroduced": 4323,
      "Ġwooden": 4324,
      "year": 4325,
      "mi": 4326,
      "illed": 4327,
      "ĠJon": 4328,
      "Ġclub": 4329,
      "Ġthanks": 4330,
      "ache": 4331,
      "Ġfinding": 4332,
      "ĠRobin": 4333,
      "Ġcontinue": 4334,
      "rors": 4335,
      "Ġtar": 4336,
      "Ġtem": 4337,
      "Ġplane": 4338,
      "Ġwonderfully": 4339,
      "Ġexplan": 4340,
      "Ġartistic": 4341,
      "Ġcommentary": 4342,
      "Ġshocking": 4343,
      "Ġmartial": 4344,
      "ek": 4345,
      "leep": 4346,
      "ĠTaylor": 4347,
      "Ġrealized": 4348,
      "ĠChinese": 4349,
      "Ġintelligence": 4350,
      "Ġresemb": 4351,
      "abr": 4352,
      "ĠToo": 4353,
      "ĠBoth": 4354,
      "ĠMore": 4355,
      "ĠWal": 4356,
      "ĠDu": 4357,
      "eman": 4358,
      "ateg": 4359,
      "ĠON": 4360,
      "Ġemploy": 4361,
      "Ġdepart": 4362,
      "ĠJackson": 4363,
      "afe": 4364,
      "hand": 4365,
      "ste": 4366,
      "ĠAc": 4367,
      "aud": 4368,
      "Ġtrust": 4369,
      "ĠMcC": 4370,
      "Ġfavourite": 4371,
      "ĠDouglas": 4372,
      "Ġenergy": 4373,
      "Ġunusual": 4374,
      "ios": 4375,
      "Ġled": 4376,
      "Ġgri": 4377,
      "ĠFox": 4378,
      "uddy": 4379,
      "Ġ12": 4380,
      "ĠBlood": 4381,
      "ĠArthur": 4382,
      "Ġsupposedly": 4383,
      "Ġdeserved": 4384,
      "Ġangry": 4385,
      "Ġphysical": 4386,
      "Ġcontrast": 4387,
      "ET": 4388,
      "Well": 4389,
      "ras": 4390,
      "Ġhat": 4391,
      "Ġscared": 4392,
      "ĠNick": 4393,
      "apped": 4394,
      "Ġworthy": 4395,
      "Ġvision": 4396,
      "ĠAnyway": 4397,
      "ropriate": 4398,
      "AC": 4399,
      "ademy": 4400,
      "Ġsell": 4401,
      "Ġrac": 4402,
      "Ġpossess": 4403,
      "ĠStephen": 4404,
      "Ġrepeated": 4405,
      "Ġstrength": 4406,
      "do": 4407,
      "Ġhint": 4408,
      "Ġholes": 4409,
      "sey": 4410,
      "ĠTheir": 4411,
      "ĠLes": 4412,
      "osen": 4413,
      "Ġtend": 4414,
      "Ġincludes": 4415,
      "Ġhotel": 4416,
      "Ġsignific": 4417,
      "Ġbrutal": 4418,
      "Americ": 4419,
      "port": 4420,
      "Ġflying": 4421,
      "Ġweap": 4422,
      "Ġsuicide": 4423,
      "Ġdeb": 4424,
      "Ġaware": 4425,
      "Ġsuperior": 4426,
      "Ġcomedic": 4427,
      "Ġremarkable": 4428,
      "vate": 4429,
      "Ġmental": 4430,
      "Ġhook": 4431,
      "Ġpra": 4432,
      "Ġder": 4433,
      "ading": 4434,
      "ipul": 4435,
      "Ġelect": 4436,
      "Ġlisten": 4437,
      "Ġaccompl": 4438,
      "Un": 4439,
      "rical": 4440,
      "Ġdying": 4441,
      "Ġugly": 4442,
      "ĠSl": 4443,
      "Ġchannel": 4444,
      "ĠDid": 4445,
      "Ġagent": 4446,
      "Ġtears": 4447,
      "ĠVH": 4448,
      "Ġhumans": 4449,
      "Ġcoun": 4450,
      "Ġpersonally": 4451,
      "Ġepic": 4452,
      "ording": 4453,
      "Ġphone": 4454,
      "Ġmemory": 4455,
      "Ġprovide": 4456,
      "kward": 4457,
      "Ġsour": 4458,
      "Ġloss": 4459,
      "irk": 4460,
      "ĠDam": 4461,
      "Ġloving": 4462,
      "Ġcompare": 4463,
      ")<": 4464,
      "De": 4465,
      "Ġdu": 4466,
      "Ġna": 4467,
      "adow": 4468,
      "Ġscare": 4469,
      "Ġdoz": 4470,
      "ĠAndy": 4471,
      "Ġspeaking": 4472,
      "ivil": 4473,
      "Ġmotiv": 4474,
      "Ġencoun": 4475,
      "Ġneighbor": 4476,
      "Ġfood": 4477,
      "Ġbene": 4478,
      "otes": 4479,
      "Ġrubb": 4480,
      "Ġprefer": 4481,
      "resses": 4482,
      "Ġremem": 4483,
      "Ġslap": 4484,
      "Ġvehic": 4485,
      "ĠOl": 4486,
      "Ġanywhere": 4487,
      "teen": 4488,
      "Ġknowledge": 4489,
      "Ġkidn": 4490,
      "Ġarts": 4491,
      "Ġpleasure": 4492,
      "yer": 4493,
      "atra": 4494,
      "Ġpacing": 4495,
      "ario": 4496,
      "Ġawkward": 4497,
      "olds": 4498,
      "Ġscientist": 4499,
      "Ġintriguing": 4500,
      "Ġunnecessary": 4501,
      "kes": 4502,
      "miss": 4503,
      "Ġthus": 4504,
      "ĠTe": 4505,
      "illa": 4506,
      "ĠWH": 4507,
      "odies": 4508,
      "Ġrarely": 4509,
      "Ġfinished": 4510,
      "ĠShow": 4511,
      "Ġreflect": 4512,
      "ĠKeaton": 4513,
      "Ġdesperate": 4514,
      "ĠCGI": 4515,
      "bian": 4516,
      "father": 4517,
      "ators": 4518,
      "Ġrelie": 4519,
      "ĠSus": 4520,
      "Ġwearing": 4521,
      "ĠJenn": 4522,
      "Ġvisit": 4523,
      "ĠRussian": 4524,
      "Ġsac": 4525,
      "enge": 4526,
      "arp": 4527,
      "edding": 4528,
      "ĠSad": 4529,
      "ĠWil": 4530,
      "plic": 4531,
      "Ġcrowd": 4532,
      "Ġinstance": 4533,
      "ugs": 4534,
      "Ġwoods": 4535,
      "Ġpilot": 4536,
      "rous": 4537,
      "ĠLau": 4538,
      "ĠBrother": 4539,
      "Ġcraft": 4540,
      "ĠDanny": 4541,
      "Ġasked": 4542,
      "wolf": 4543,
      "Ġmut": 4544,
      "cture": 4545,
      "ooper": 4546,
      "Ġsearch": 4547,
      "iro": 4548,
      "ĠLuc": 4549,
      "ĠRus": 4550,
      "ĠJr": 4551,
      "Ġ11": 4552,
      "Ġeverybody": 4553,
      "Ġwanting": 4554,
      "Ġexpert": 4555,
      "Ġreminds": 4556,
      "Ġbelong": 4557,
      "ka": 4558,
      "Ġpair": 4559,
      "Ġla": 4560,
      "Ġlay": 4561,
      "Ġdebut": 4562,
      "ĠJew": 4563,
      "ĠEr": 4564,
      "ogy": 4565,
      "Ġbland": 4566,
      "Ġhorse": 4567,
      "Ġsmile": 4568,
      "Ġholds": 4569,
      "Ġengaging": 4570,
      "ĠMorgan": 4571,
      "Ġaccurate": 4572,
      "Ġindependent": 4573,
      "UT": 4574,
      "Ġtour": 4575,
      "Ġcal": 4576,
      "ĠIN": 4577,
      "ĠBarb": 4578,
      "Ġbits": 4579,
      "Ġaccount": 4580,
      "undred": 4581,
      "Ġcapture": 4582,
      "Ġtarget": 4583,
      "Ġing": 4584,
      "Ġbirth": 4585,
      "ano": 4586,
      "Ġpet": 4587,
      "owell": 4588,
      "imal": 4589,
      "ousy": 4590,
      "ĠLife": 4591,
      "Ġunknown": 4592,
      "ĠWhite": 4593,
      "Ġperform": 4594,
      "Ġgrat": 4595,
      "Ġsurprising": 4596,
      "Ġwinning": 4597,
      "lock": 4598,
      "yes": 4599,
      "Ġbal": 4600,
      "oring": 4601,
      "ĠSince": 4602,
      "ĠLind": 4603,
      "Ġwatchable": 4604,
      "Ġplayers": 4605,
      "Ġregret": 4606,
      "Ġdeserve": 4607,
      "Ġreligious": 4608,
      "eper": 4609,
      "Ġmild": 4610,
      "esh": 4611,
      "plot": 4612,
      "terest": 4613,
      "Ġenth": 4614,
      "Ġempt": 4615,
      "Ġheads": 4616,
      "Ġteenage": 4617,
      "Ġprotect": 4618,
      "Ġcriminal": 4619,
      "Some": 4620,
      "Ġopt": 4621,
      "Ġris": 4622,
      "ourne": 4623,
      "Ġboard": 4624,
      "Ġcreating": 4625,
      "Ġcreature": 4626,
      "ĠEngland": 4627,
      "ominated": 4628,
      "ĠColumb": 4629,
      "SE": 4630,
      "mo": 4631,
      "rs": 4632,
      "orious": 4633,
      "Ġhurt": 4634,
      "ilst": 4635,
      "Ġstret": 4636,
      "Ġdeg": 4637,
      "ĠLi": 4638,
      "ĠJason": 4639,
      "Ġdesire": 4640,
      "Ġexplained": 4641,
      "Ġintellect": 4642,
      "Ġlimited": 4643,
      "rifying": 4644,
      "ĠHorror": 4645,
      "aa": 4646,
      "iance": 4647,
      "rays": 4648,
      "xual": 4649,
      "Ġcow": 4650,
      "especially": 4651,
      "Ġsuck": 4652,
      "ĠRy": 4653,
      "Ġborn": 4654,
      "Ġinterpret": 4655,
      "Ġ1970": 4656,
      "Ġmixed": 4657,
      "Any": 4658,
      "uct": 4659,
      "ication": 4660,
      "aly": 4661,
      "ĠWas": 4662,
      "ĠPac": 4663,
      "ĠJud": 4664,
      "ĠJose": 4665,
      "Ġanybody": 4666,
      "tered": 4667,
      "cient": 4668,
      "ĠZomb": 4669,
      "ĠVHS": 4670,
      "Ġbur": 4671,
      "Ġhidden": 4672,
      "Ġhundred": 4673,
      "Ġbelief": 4674,
      "Ġgotten": 4675,
      "Ġskin": 4676,
      "Ġmemories": 4677,
      "Ġcommunity": 4678,
      "ĠLynch": 4679,
      "ĠEddie": 4680,
      "Sc": 4681,
      "Ġsepar": 4682,
      "Ġchick": 4683,
      "ĠREA": 4684,
      "Ġblame": 4685,
      "Ġfloor": 4686,
      "ĠJoan": 4687,
      "Ġpretentious": 4688,
      "Ġexplos": 4689,
      "aturally": 4690,
      "ĠclichÃ©s": 4691,
      "No": 4692,
      "oom": 4693,
      "Ġted": 4694,
      "Ġcateg": 4695,
      "omen": 4696,
      "ĠAv": 4697,
      "ĠWestern": 4698,
      "ĠNaz": 4699,
      "abor": 4700,
      "Ġhumanity": 4701,
      "Ġincluded": 4702,
      "Ġconvin": 4703,
      "Ġmedia": 4704,
      "Ġuncon": 4705,
      "Ġsoldier": 4706,
      "Ġtorture": 4707,
      "ĠHitler": 4708,
      ":<": 4709,
      "nie": 4710,
      "Ġ/>-": 4711,
      "Ġchore": 4712,
      "ĠDO": 4713,
      "asts": 4714,
      "Ġcontext": 4715,
      "Ġlovers": 4716,
      "ression": 4717,
      "Ġaward": 4718,
      "ruction": 4719,
      "Ġfinest": 4720,
      "ĠJohnny": 4721,
      ".\"<": 4722,
      "ĠDeath": 4723,
      "natural": 4724,
      "Ġtur": 4725,
      "Ġfreak": 4726,
      "Ġtoward": 4727,
      "ĠSil": 4728,
      "Ġchurch": 4729,
      "Ġterribly": 4730,
      "Ġunderstanding": 4731,
      "Ġhopes": 4732,
      "ĠStreet": 4733,
      "Ġresponsible": 4734,
      "200": 4735,
      "rem": 4736,
      "Ġwond": 4737,
      "atory": 4738,
      "Ġstink": 4739,
      "Ġsoap": 4740,
      "Ġvo": 4741,
      "ĠPres": 4742,
      "soci": 4743,
      "Ġtext": 4744,
      "Ġlets": 4745,
      "Ġ1980": 4746,
      "Ġissue": 4747,
      "Ġradio": 4748,
      "Ġmagnific": 4749,
      "isa": 4750,
      "Ġcars": 4751,
      "Ġlies": 4752,
      "ĠHaving": 4753,
      "ĠPlease": 4754,
      "Ġrul": 4755,
      "Ġround": 4756,
      "Ġmanage": 4757,
      "Ġhadn": 4758,
      "Ġplayer": 4759,
      "bered": 4760,
      "looking": 4761,
      "Ġperspective": 4762,
      "Ġmonths": 4763,
      "John": 4764,
      "Ġexplanation": 4765,
      "TV": 4766,
      "upp": 4767,
      "hered": 4768,
      "reck": 4769,
      "Ġhun": 4770,
      "Ġhated": 4771,
      "ĠHall": 4772,
      "Ġsucks": 4773,
      "Ġproceed": 4774,
      "ĠKate": 4775,
      "Ġpartner": 4776,
      "Ġgrad": 4777,
      "ewis": 4778,
      "Ġcops": 4779,
      "Ġheroine": 4780,
      "ĠDaniel": 4781,
      "Ġcircum": 4782,
      "Ġconcerned": 4783,
      "Oh": 4784,
      "Ġcard": 4785,
      "star": 4786,
      "sec": 4787,
      "ĠSy": 4788,
      "ĠMi": 4789,
      "ĠHel": 4790,
      "ĠRon": 4791,
      "While": 4792,
      "Ġresults": 4793,
      "Ġreturns": 4794,
      "Ġguns": 4795,
      "vy": 4796,
      "Ġtight": 4797,
      "Ġhyp": 4798,
      "Ġnoticed": 4799,
      "ushing": 4800,
      "ĠLaw": 4801,
      "ĠLady": 4802,
      "umps": 4803,
      "Ġdesp": 4804,
      "Ġnicely": 4805,
      "Ġimagin": 4806,
      "Ġcontinues": 4807,
      "ĠEverything": 4808,
      "Ġpulled": 4809,
      "ashington": 4810,
      "cise": 4811,
      "director": 4812,
      "point": 4813,
      "Ġfield": 4814,
      "omas": 4815,
      "Ġthats": 4816,
      "entle": 4817,
      "ĠHell": 4818,
      "ante": 4819,
      "oses": 4820,
      "ĠAndrew": 4821,
      "ensional": 4822,
      "Ġgrowing": 4823,
      "Ġfights": 4824,
      "Ġopposite": 4825,
      "Ar": 4826,
      "sen": 4827,
      "ĠCam": 4828,
      "agers": 4829,
      "Ġ13": 4830,
      "pless": 4831,
      "Ġtwenty": 4832,
      "Ġfinale": 4833,
      "Ġphil": 4834,
      "Ġnumerous": 4835,
      "Ġtreated": 4836,
      "Ġdelightful": 4837,
      "Ġbehavior": 4838,
      "oons": 4839,
      "vant": 4840,
      "za": 4841,
      "Ġthous": 4842,
      "Ġhits": 4843,
      "imental": 4844,
      "Ġstock": 4845,
      "Ġcharism": 4846,
      "ĠEric": 4847,
      "Ġdeterm": 4848,
      "Ġtraditional": 4849,
      "POILERS": 4850,
      "vit": 4851,
      "entions": 4852,
      "ĠMen": 4853,
      "Ġabandon": 4854,
      "ĠGirl": 4855,
      "ĠEast": 4856,
      "Ġmanipul": 4857,
      "icked": 4858,
      "Ġarmy": 4859,
      "Ġrealism": 4860,
      "Ġremain": 4861,
      "ails": 4862,
      "there": 4863,
      "Ġresol": 4864,
      "Ġskills": 4865,
      "Ġassist": 4866,
      "Ġvillains": 4867,
      "ĠEveryone": 4868,
      "ĠSimon": 4869,
      "ĠFreddy": 4870,
      "Ġrubbish": 4871,
      "Ġ?": 4872,
      "Ġmine": 4873,
      "Ġreaction": 4874,
      "Ġforces": 4875,
      "ĠBond": 4876,
      "ĠKid": 4877,
      "othy": 4878,
      "screen": 4879,
      "Ġhumorous": 4880,
      "Ġbloody": 4881,
      "Ġconstant": 4882,
      "Ġtheatre": 4883,
      "Ġrepresent": 4884,
      "Ġsaved": 4885,
      "âĢ": 4886,
      "Ġsafe": 4887,
      "Ġfate": 4888,
      "Ġfrequ": 4889,
      "stal": 4890,
      "ĠMike": 4891,
      "ulf": 4892,
      "Ġcontri": 4893,
      "Ġanimal": 4894,
      "Ġmurdered": 4895,
      "ĠSpanish": 4896,
      "Ġbreaks": 4897,
      "Ġpriest": 4898,
      "fortable": 4899,
      "Ġgags": 4900,
      "==": 4901,
      "ned": 4902,
      "oh": 4903,
      "ilies": 4904,
      "Ġring": 4905,
      "ĠThose": 4906,
      "Ġincre": 4907,
      "ĠSpace": 4908,
      "ĠWelles": 4909,
      "Ġdangerous": 4910,
      "sion": 4911,
      "Ġic": 4912,
      "Ġdated": 4913,
      "asm": 4914,
      "icate": 4915,
      "ads": 4916,
      "ĠCass": 4917,
      "arner": 4918,
      "arently": 4919,
      "Ġbelow": 4920,
      ");": 4921,
      "rix": 4922,
      "ĠWashington": 4923,
      "iful": 4924,
      "ĠLord": 4925,
      "ueen": 4926,
      "they": 4927,
      "ivity": 4928,
      "Ġcalls": 4929,
      "Ġreviewers": 4930,
      "Ġtalents": 4931,
      "Ġlocations": 4932,
      "Ġheroes": 4933,
      "Ġregular": 4934,
      "bad": 4935,
      "ean": 4936,
      "nam": 4937,
      "isc": 4938,
      "Ġbath": 4939,
      "Ġearn": 4940,
      "sell": 4941,
      "ĠDel": 4942,
      "Ġkinda": 4943,
      "Ġversions": 4944,
      "Ġcaptured": 4945,
      "Ġunfunny": 4946,
      "Ġexistence": 4947,
      "ĠEuropean": 4948,
      "American": 4949,
      "Ġcircumst": 4950,
      "pir": 4951,
      "hent": 4952,
      "Ġsed": 4953,
      "Ġner": 4954,
      "Ġmob": 4955,
      "oore": 4956,
      "urity": 4957,
      "ĠRam": 4958,
      "ĠKong": 4959,
      "ĠVer": 4960,
      "Ġadvice": 4961,
      "Ġdealing": 4962,
      "Ġefforts": 4963,
      "Ġmachine": 4964,
      "gn": 4965,
      "mary": 4966,
      "Ġcable": 4967,
      "Ġwealth": 4968,
      "esty": 4969,
      "Ġprove": 4970,
      "Ġdisplay": 4971,
      "away": 4972,
      "Ġopens": 4973,
      "Ġdistract": 4974,
      "Ġdriving": 4975,
      "Ġloses": 4976,
      "However": 4977,
      "Ġnonsense": 4978,
      "tle": 4979,
      "Ġfict": 4980,
      "thony": 4981,
      "Ġens": 4982,
      "ups": 4983,
      "Ġcameo": 4984,
      "Ġtransl": 4985,
      "Ġmorning": 4986,
      "Ġreceived": 4987,
      "ĠBroad": 4988,
      "Ġrevealed": 4989,
      "Ġtor": 4990,
      "Ġboo": 4991,
      "Ġgames": 4992,
      "idge": 4993,
      "ĠHart": 4994,
      "ĠRain": 4995,
      "ĠFre": 4996,
      "ĠEVER": 4997,
      "ĠAlbert": 4998,
      "ĠBefore": 4999,
      "Ġconfront": 5000,
      "Ġmodel": 5001,
      "Ġordinary": 5002,
      "bur": 5003,
      "cock": 5004,
      "lim": 5005,
      "some": 5006,
      "spe": 5007,
      "Ġles": 5008,
      "ĠSid": 5009,
      "Ġunint": 5010,
      "Ġtroub": 5011,
      "Ġowner": 5012,
      "Ġcuts": 5013,
      "Ġpsychological": 5014,
      "uh": 5015,
      "ĠBet": 5016,
      "Ġallows": 5017,
      "ĠGene": 5018,
      "osaur": 5019,
      "ivered": 5020,
      "Ġincomp": 5021,
      "Ġsurreal": 5022,
      "ĠKevin": 5023,
      "hearted": 5024,
      "Ġban": 5025,
      "lle": 5026,
      "Ġpit": 5027,
      "Ġgrew": 5028,
      "ĠColl": 5029,
      "Ġshallow": 5030,
      "Ġframe": 5031,
      "Ġvul": 5032,
      "Ġoverly": 5033,
      "Ġkeeping": 5034,
      "Ġlacking": 5035,
      "Ġsteal": 5036,
      "Ġsurvive": 5037,
      "ĠLuke": 5038,
      "viron": 5039,
      "Ġhigher": 5040,
      "stein": 5041,
      "50": 5042,
      "Ġsal": 5043,
      "Ġuncom": 5044,
      "Then": 5045,
      "acc": 5046,
      "ĠWhich": 5047,
      "Ġdecade": 5048,
      "Ġoriginally": 5049,
      "Ġlearned": 5050,
      "Also": 5051,
      "iverse": 5052,
      "ĠAfrican": 5053,
      "ĠHarris": 5054,
      "ĠJesus": 5055,
      "Ġnaive": 5056,
      "ILL": 5057,
      "Ġsin": 5058,
      "Ġhall": 5059,
      "ashes": 5060,
      "ĠRom": 5061,
      "Ġtherefore": 5062,
      "Ġcourt": 5063,
      "anned": 5064,
      "???": 5065,
      "Ġforeign": 5066,
      "Ġsegment": 5067,
      "Ġphilos": 5068,
      "OL": 5069,
      "ban": 5070,
      "tr": 5071,
      "tw": 5072,
      "ugg": 5073,
      "hester": 5074,
      "Ġinh": 5075,
      "although": 5076,
      "Ġredu": 5077,
      "hern": 5078,
      "ĠJess": 5079,
      "Ġsomebody": 5080,
      "Ġorgan": 5081,
      "Ġarm": 5082,
      "Ġspeed": 5083,
      "Ġstarting": 5084,
      "ĠHoward": 5085,
      "Ġmission": 5086,
      "Ġeduc": 5087,
      "Ġmarry": 5088,
      "Ġstudy": 5089,
      "Ġpassed": 5090,
      "Ġcorrupt": 5091,
      "Ġsword": 5092,
      "Ġtypes": 5093,
      "Ġsummer": 5094,
      "alloween": 5095,
      "Ġempty": 5096,
      "Ġunconv": 5097,
      "First": 5098,
      "iser": 5099,
      "itter": 5100,
      "arc": 5101,
      "irm": 5102,
      "ĠCent": 5103,
      "Ġvan": 5104,
      "Ġproved": 5105,
      "Ġunable": 5106,
      "ruct": 5107,
      "Ġobl": 5108,
      "Ġconsist": 5109,
      "Ġleader": 5110,
      "finitely": 5111,
      "Ġgangster": 5112,
      "porary": 5113,
      "Ġgenuinely": 5114,
      "Ġcurious": 5115,
      "With": 5116,
      "don": 5117,
      "va": 5118,
      "yr": 5119,
      "Ġbat": 5120,
      "etic": 5121,
      "ĠMal": 5122,
      "ulous": 5123,
      "Ġdeals": 5124,
      "ĠJan": 5125,
      "Ġconvey": 5126,
      "ĠFranc": 5127,
      "Ġdelivered": 5128,
      "Ġwarning": 5129,
      "Ġwindow": 5130,
      "Ġofficer": 5131,
      "ĠSuperman": 5132,
      "Ġrelief": 5133,
      "mble": 5134,
      "atives": 5135,
      "Ġpress": 5136,
      "ĠIm": 5137,
      "alling": 5138,
      "Ġjunk": 5139,
      "ummer": 5140,
      "Ġblue": 5141,
      "ometimes": 5142,
      "Ġbigger": 5143,
      "Ġrelate": 5144,
      "entionally": 5145,
      "ĠBeat": 5146,
      "........": 5147,
      "reedom": 5148,
      "ĠSinatra": 5149,
      "hentic": 5150,
      "Ġfif": 5151,
      "asp": 5152,
      "ĠMaster": 5153,
      "Ġsheer": 5154,
      "ĠVal": 5155,
      "Ġprint": 5156,
      "Ġexperien": 5157,
      "Ġcaused": 5158,
      "uitous": 5159,
      "Ġbot": 5160,
      "Ġdi": 5161,
      "Ġassoci": 5162,
      "Ġenviron": 5163,
      "ĠKim": 5164,
      "Ġdisp": 5165,
      "Ġinsane": 5166,
      "oken": 5167,
      "ĠTHIS": 5168,
      "Ġsatire": 5169,
      "Ġdiscovers": 5170,
      "Ġvisuals": 5171,
      "!).": 5172,
      "Ġsake": 5173,
      "Ġwitty": 5174,
      "Ġbear": 5175,
      "usive": 5176,
      "anged": 5177,
      "Ġspeech": 5178,
      "liver": 5179,
      "Ġlaughter": 5180,
      "ordon": 5181,
      "Ġlesson": 5182,
      "Ġedited": 5183,
      "Ġsinger": 5184,
      "Ġfailure": 5185,
      "Ġdiscovered": 5186,
      "Ġscreaming": 5187,
      "Ġstereotypes": 5188,
      "Ġprotagonist": 5189,
      "Ġcomparison": 5190,
      "Ġladies": 5191,
      "ĠSanta": 5192,
      "worth": 5193,
      "Ġtun": 5194,
      "Ġsite": 5195,
      "Ġwitch": 5196,
      "Ġhur": 5197,
      "Ġseven": 5198,
      "ĠCind": 5199,
      "Ġshop": 5200,
      "iforn": 5201,
      "Ġsole": 5202,
      "Ġaltern": 5203,
      "They": 5204,
      "ĠStone": 5205,
      "Ġfamilies": 5206,
      "theless": 5207,
      "Ġbrilliantly": 5208,
      "Ġfeaturing": 5209,
      "Ġirritating": 5210,
      "Ġpark": 5211,
      "Ġinex": 5212,
      "Ġgonna": 5213,
      "Ġreun": 5214,
      "ĠCarr": 5215,
      "ĠHad": 5216,
      "unning": 5217,
      "Ġfrank": 5218,
      "Ġ14": 5219,
      "ĠBrown": 5220,
      "ĠLeon": 5221,
      "law": 5222,
      "ores": 5223,
      "Ġemer": 5224,
      "stit": 5225,
      "ĠCage": 5226,
      "ĠNorth": 5227,
      "Ġgrown": 5228,
      "luding": 5229,
      "Ġcreates": 5230,
      "Ġmarvel": 5231,
      "ugos": 5232,
      "Ġtechnology": 5233,
      "Ġsubtit": 5234,
      "Ġamateurish": 5235,
      "ĠWayne": 5236,
      "ĠAcademy": 5237,
      "Ġvehicle": 5238,
      "Ġcyn": 5239,
      "Ġlat": 5240,
      "Ġgross": 5241,
      "ĠSund": 5242,
      "Ġkiss": 5243,
      "ums": 5244,
      "ights": 5245,
      "ĠYOU": 5246,
      "Ġtrib": 5247,
      "Ġpleasant": 5248,
      "Ġcombination": 5249,
      "Ġconnection": 5250,
      "Ġstopped": 5251,
      "Ġlogic": 5252,
      "Ġremembered": 5253,
      "Even": 5254,
      "Rob": 5255,
      "ued": 5256,
      "ville": 5257,
      "whel": 5258,
      "Ġtack": 5259,
      "Ġfle": 5260,
      "Ġfal": 5261,
      "Ġcash": 5262,
      "lly": 5263,
      "Ġdry": 5264,
      "omer": 5265,
      "Ġgreen": 5266,
      "aybe": 5267,
      "chan": 5268,
      "Ġnecess": 5269,
      "ĠKenn": 5270,
      "Ġobsc": 5271,
      "cohol": 5272,
      "Ġskill": 5273,
      "Ġgrace": 5274,
      "Ġmiser": 5275,
      "Ġmajority": 5276,
      "Ġspectacular": 5277,
      "ifornia": 5278,
      "__": 5279,
      "ser": 5280,
      "Ġtape": 5281,
      "Ġlone": 5282,
      "Ġsend": 5283,
      "ĠCast": 5284,
      "ĠDor": 5285,
      "Ġfrustr": 5286,
      "ques": 5287,
      "ĠThank": 5288,
      "Ġteach": 5289,
      "Ġcompan": 5290,
      "Ġgraphic": 5291,
      "Ġtick": 5292,
      "enny": 5293,
      "ĠHay": 5294,
      "Ġsucked": 5295,
      "Ġadvert": 5296,
      "Ġplots": 5297,
      "Ġunderrated": 5298,
      "Ġdecision": 5299,
      "Ġcorny": 5300,
      "Ġparody": 5301,
      "LLY": 5302,
      "Ġreligion": 5303,
      "Ġinept": 5304,
      "Ġreferences": 5305,
      "After": 5306,
      "ba": 5307,
      "Ġfare": 5308,
      "Ġgoof": 5309,
      "ĠCinem": 5310,
      "ulation": 5311,
      "ĠRod": 5312,
      "Ġran": 5313,
      "ĠOut": 5314,
      "Ġcrappy": 5315,
      "Ġlearns": 5316,
      "Ġuncle": 5317,
      "Ġtheaters": 5318,
      "Ġconnect": 5319,
      "Ġrevolution": 5320,
      "ault": 5321,
      "dom": 5322,
      "done": 5323,
      "fit": 5324,
      "ker": 5325,
      "Ġpowers": 5326,
      "omed": 5327,
      "ĠInt": 5328,
      "Ġgory": 5329,
      "ĠMoore": 5330,
      "ĠWars": 5331,
      "Ġrefres": 5332,
      "Ġtreatment": 5333,
      "Ġdreadful": 5334,
      "ients": 5335,
      "ym": 5336,
      "ndo": 5337,
      "ĠCapt": 5338,
      "ĠDar": 5339,
      "acting": 5340,
      "ĠGar": 5341,
      "ĠEs": 5342,
      "ĠOver": 5343,
      "Ġrecall": 5344,
      "Ġmini": 5345,
      "ĠAnthony": 5346,
      "Ġentertained": 5347,
      "Ġinvolves": 5348,
      "ynam": 5349,
      "Ġauthentic": 5350,
      "Ġchalleng": 5351,
      "Ġgratuitous": 5352,
      "ĠBroadway": 5353,
      "GE": 5354,
      "Of": 5355,
      "RI": 5356,
      "nox": 5357,
      "tt": 5358,
      "Ġharsh": 5359,
      "Ġpaper": 5360,
      "ĠIT": 5361,
      "iling": 5362,
      "ama": 5363,
      "Ġscrew": 5364,
      "ĠGary": 5365,
      "erella": 5366,
      "Ġspoof": 5367,
      "Ġprinc": 5368,
      "Ġattitude": 5369,
      "----": 5370,
      "Ġbroken": 5371,
      "Ġexecuted": 5372,
      "Ġidentity": 5373,
      "ĠParker": 5374,
      "Ġblonde": 5375,
      "ĠJennifer": 5376,
      "telling": 5377,
      "Ġnet": 5378,
      "stream": 5379,
      "ĠHitch": 5380,
      "ĠWow": 5381,
      "ĠViet": 5382,
      "Ġcruel": 5383,
      "Ġthoughts": 5384,
      "ĠReally": 5385,
      "ĠMarie": 5386,
      "Ġstreets": 5387,
      "Ġseasons": 5388,
      "Ġmeeting": 5389,
      "Ġinspir": 5390,
      "Ġexpression": 5391,
      "Ġestabl": 5392,
      "Ġsympathetic": 5393,
      "Ġflashbacks": 5394,
      "II": 5395,
      "core": 5396,
      "top": 5397,
      "yal": 5398,
      "stick": 5399,
      "ilty": 5400,
      "ĠTex": 5401,
      "aming": 5402,
      "amily": 5403,
      "kend": 5404,
      "ĠDra": 5405,
      "Ġju": 5406,
      "unted": 5407,
      "ĠLong": 5408,
      "ĠRose": 5409,
      "ĠThomas": 5410,
      "Ġages": 5411,
      "ĠAsh": 5412,
      "ĠFrance": 5413,
      "Ġcolour": 5414,
      "Ġhandsome": 5415,
      "ĠJimmy": 5416,
      "Ġultimate": 5417,
      "Ġdescribed": 5418,
      "Ġmagnificent": 5419,
      "ked": 5420,
      "ule": 5421,
      "ÂĹ": 5422,
      "ĠTri": 5423,
      "Ġwel": 5424,
      "ĠWr": 5425,
      "outs": 5426,
      "ĠEll": 5427,
      "Ġemp": 5428,
      "Ġappl": 5429,
      "Ġportrays": 5430,
      "Ġexcit": 5431,
      "Ġlevels": 5432,
      "Ġasking": 5433,
      "Ġruined": 5434,
      "Ġsuffering": 5435,
      "Ġnormally": 5436,
      "Ġembarrassing": 5437,
      "ĠLouis": 5438,
      "Ġassume": 5439,
      "Re": 5440,
      "She": 5441,
      "mother": 5442,
      "nal": 5443,
      "Ġwedding": 5444,
      "ĠTime": 5445,
      "ĠHaw": 5446,
      "udic": 5447,
      "abeth": 5448,
      "Ġarch": 5449,
      "Ġappealing": 5450,
      "Ġstanding": 5451,
      "Ġinvolve": 5452,
      "Ġsyn": 5453,
      "Ġlargely": 5454,
      "IGH": 5455,
      "ĠTarzan": 5456,
      "Ġcircumstances": 5457,
      "gent": 5458,
      "ĠTO": 5459,
      "Ġreb": 5460,
      "ĠALL": 5461,
      "ĠSH": 5462,
      "ĠOkay": 5463,
      "Ġveter": 5464,
      "ls": 5465,
      "Ġbond": 5466,
      "Ġinner": 5467,
      "urs": 5468,
      "Ġchoose": 5469,
      "Ġvac": 5470,
      "ĠGordon": 5471,
      "Ġfeet": 5472,
      "ĠKu": 5473,
      "Ġpeace": 5474,
      "Ġspin": 5475,
      "Ġsports": 5476,
      "ĠAnderson": 5477,
      "Ġproud": 5478,
      "Ġproduce": 5479,
      "Ġreviewer": 5480,
      "ĠUnivers": 5481,
      "ĠMrs": 5482,
      "aturday": 5483,
      "Ġpurch": 5484,
      "class": 5485,
      "Ġunrealistic": 5486,
      "Ġcounter": 5487,
      "Ġcontrived": 5488,
      "Ġenvironment": 5489,
      "Ġrefreshing": 5490,
      "buster": 5491,
      "fl": 5492,
      "pet": 5493,
      "inis": 5494,
      "Ġfund": 5495,
      "ilogy": 5496,
      "ĠMoon": 5497,
      "apes": 5498,
      "Ġyeah": 5499,
      "Ġevidence": 5500,
      "Ġexcited": 5501,
      "Ġmonsters": 5502,
      "Ġtheatrical": 5503,
      "Ġpropag": 5504,
      "Ġpractically": 5505,
      "Ġrescue": 5506,
      "teresting": 5507,
      "ĠJoseph": 5508,
      "RA": 5509,
      "rie": 5510,
      "walk": 5511,
      "Ġpunch": 5512,
      "ari": 5513,
      "Ġeating": 5514,
      "Ġhearing": 5515,
      "ĠAre": 5516,
      "Ġseat": 5517,
      "ĠMax": 5518,
      "ĠWild": 5519,
      "usi": 5520,
      "Ġvs": 5521,
      "ĠPre": 5522,
      "ĠRos": 5523,
      "Ġneat": 5524,
      "Ġendless": 5525,
      "ĠVER": 5526,
      "Ġbelieves": 5527,
      "Ġpainfully": 5528,
      "Ġportraying": 5529,
      "ĠGrant": 5530,
      "Ġcosts": 5531,
      "Ġemotionally": 5532,
      "ĠTrek": 5533,
      "Ġconvinced": 5534,
      "Ġfictional": 5535,
      "made": 5536,
      "zo": 5537,
      "Ġdrop": 5538,
      "ether": 5539,
      "ĠMont": 5540,
      "Ġscar": 5541,
      "ĠLast": 5542,
      "ĠSean": 5543,
      "Ġlosing": 5544,
      "ĠWoody": 5545,
      "ĠAnton": 5546,
      "Ġsubstance": 5547,
      "ĠSecond": 5548,
      ",'": 5549,
      "Sp": 5550,
      "UN": 5551,
      "mat": 5552,
      "pass": 5553,
      "Ġton": 5554,
      "Ġforth": 5555,
      "ĠMiche": 5556,
      "ĠDog": 5557,
      "urns": 5558,
      "Ġappropriate": 5559,
      "Ġbuilt": 5560,
      "Ġtalks": 5561,
      "Ġteenager": 5562,
      "Ġresearch": 5563,
      "Ġmurdere": 5564,
      "erie": 5565,
      "ĠTer": 5566,
      "imate": 5567,
      "Ġancient": 5568,
      "Ġalcohol": 5569,
      "Ġrange": 5570,
      "orted": 5571,
      "Ġwhenever": 5572,
      "ĠAnne": 5573,
      "Ġcaptures": 5574,
      "Ġcares": 5575,
      "Ġcapable": 5576,
      "Ġjudge": 5577,
      "Ġexcitement": 5578,
      "ja": 5579,
      "rate": 5580,
      "taking": 5581,
      "isher": 5582,
      "ada": 5583,
      "ĠCare": 5584,
      "ĠNancy": 5585,
      "Ġmyth": 5586,
      "oster": 5587,
      "ĠChan": 5588,
      "Ġvisually": 5589,
      "198": 5590,
      "Ġlawyer": 5591,
      "anagh": 5592,
      "Ġvoices": 5593,
      "ĠFrancis": 5594,
      "Ġfame": 5595,
      "Ġfits": 5596,
      "Ġcab": 5597,
      "Ġpal": 5598,
      "Ġdressed": 5599,
      "Ġwhilst": 5600,
      "Ġstalk": 5601,
      "ĠSky": 5602,
      "ĠMil": 5603,
      "Ġsoph": 5604,
      "ume": 5605,
      "Ġunfortun": 5606,
      "Ġboat": 5607,
      "ĠTHAT": 5608,
      "Ġdepressing": 5609,
      "Ġzero": 5610,
      "Ġessentially": 5611,
      "Ġsatisfying": 5612,
      "ĠAfrica": 5613,
      "Ġroutine": 5614,
      "phy": 5615,
      "arian": 5616,
      "oting": 5617,
      "chy": 5618,
      "Ġanime": 5619,
      "roll": 5620,
      "raction": 5621,
      "ĠFull": 5622,
      "ĠGener": 5623,
      "ĠJackie": 5624,
      "ethod": 5625,
      "Ġteenagers": 5626,
      "Ġ1930": 5627,
      "Ġextraord": 5628,
      "ĠAgain": 5629,
      "):": 5630,
      "ga": 5631,
      "long": 5632,
      "ooth": 5633,
      "olic": 5634,
      "Ġconce": 5635,
      "Ġflesh": 5636,
      "Ġhorribly": 5637,
      "ĠAsian": 5638,
      "ĠBrad": 5639,
      "Ġaccents": 5640,
      "Ġsequels": 5641,
      "Ġreput": 5642,
      "Ġrefer": 5643,
      "Ġvillage": 5644,
      "Ġsteals": 5645,
      "Ġinevit": 5646,
      "Ġdepicted": 5647,
      "Ġbaseball": 5648,
      "ĠCanadian": 5649,
      "ĠRussell": 5650,
      "VE": 5651,
      "Ġpile": 5652,
      "Ġludic": 5653,
      "ĠSur": 5654,
      "Ġsear": 5655,
      "ĠHo": 5656,
      "cker": 5657,
      "ichol": 5658,
      "ĠKh": 5659,
      "angers": 5660,
      "Ġbelieved": 5661,
      "Ġgeneration": 5662,
      "Ġmatters": 5663,
      "Ġerotic": 5664,
      "Ġoccasionally": 5665,
      "mind": 5666,
      "nan": 5667,
      "Ġwid": 5668,
      "ĠWat": 5669,
      "uns": 5670,
      "ĠLook": 5671,
      "ella": 5672,
      "osexual": 5673,
      "ĠUp": 5674,
      "athan": 5675,
      "Ġfacts": 5676,
      "Ġstrongly": 5677,
      "ĠPlus": 5678,
      "Ġexploitation": 5679,
      "Ġdisgusting": 5680,
      "upt": 5681,
      "Ġhol": 5682,
      "Ġda": 5683,
      "Ġlousy": 5684,
      "Ġrevel": 5685,
      "ĠBarry": 5686,
      "ĠMatt": 5687,
      "Ġvague": 5688,
      "ĠLewis": 5689,
      "osition": 5690,
      "Ġcann": 5691,
      "ĠKarl": 5692,
      "Ġmaint": 5693,
      "Ġangles": 5694,
      "Ġcontrovers": 5695,
      "Ġcategory": 5696,
      "Ġfalse": 5697,
      "Ste": 5698,
      "ae": 5699,
      "produ": 5700,
      "Ġbre": 5701,
      "Ġbodies": 5702,
      "Ġheav": 5703,
      "Ġasleep": 5704,
      "ĠCas": 5705,
      "Ġsharp": 5706,
      "ĠWhe": 5707,
      "Ġchosen": 5708,
      "Ġvol": 5709,
      "Ġende": 5710,
      "Ġwalks": 5711,
      "ĠAnyone": 5712,
      "Ġclaims": 5713,
      "Ġlucky": 5714,
      "Ġinfluence": 5715,
      "Ġqualities": 5716,
      "ĠWilson": 5717,
      "Ġtedious": 5718,
      "Ġunfortunate": 5719,
      "Pl": 5720,
      "Ġ#": 5721,
      "rehen": 5722,
      "Ġfly": 5723,
      "Ġlower": 5724,
      "Ġreject": 5725,
      "Ġheaven": 5726,
      "etime": 5727,
      "ĠBE": 5728,
      "ĠBor": 5729,
      "ĠCle": 5730,
      "ĠLA": 5731,
      "ĠNO": 5732,
      "ĠNic": 5733,
      "Ġserves": 5734,
      "Ġassass": 5735,
      "Ġcenter": 5736,
      "199": 5737,
      "Ġmovement": 5738,
      "aura": 5739,
      "ĠAustralian": 5740,
      "ĠRyan": 5741,
      "ĠHitchcock": 5742,
      "GM": 5743,
      "Ġsaving": 5744,
      "otion": 5745,
      "ĠBon": 5746,
      "Ġking": 5747,
      "ĠPitt": 5748,
      "ĠRem": 5749,
      "Ġtrick": 5750,
      "Ġgrade": 5751,
      "Ġglass": 5752,
      "ĠClark": 5753,
      "Ġbrave": 5754,
      "Ġholding": 5755,
      "ĠDoes": 5756,
      "ĠGermany": 5757,
      "Ġruin": 5758,
      "ĠWatching": 5759,
      "Ġhyster": 5760,
      "Ġcontemporary": 5761,
      "ĠBrothers": 5762,
      "ĠBarbara": 5763,
      "Ġintellectual": 5764,
      "Ġcivil": 5765,
      "orb": 5766,
      "Ġpity": 5767,
      "Ġgig": 5768,
      "ĠTor": 5769,
      "ĠSan": 5770,
      "Ġsemi": 5771,
      "ĠPowell": 5772,
      "Ġrot": 5773,
      "Ġconsequ": 5774,
      "orting": 5775,
      "formed": 5776,
      "Ġrealizes": 5777,
      "ĠUK": 5778,
      "viously": 5779,
      "Ġsitcom": 5780,
      "Ġexcess": 5781,
      "Ġexperiences": 5782,
      "Ġreporter": 5783,
      "Ġpursu": 5784,
      "Ġobsessed": 5785,
      "ij": 5786,
      "ship": 5787,
      "itiz": 5788,
      "Ġharm": 5789,
      "ĠTit": 5790,
      "Ġrend": 5791,
      "ĠBern": 5792,
      "ĠMir": 5793,
      "cking": 5794,
      "Ġplans": 5795,
      "umph": 5796,
      "tended": 5797,
      "Ġoverlook": 5798,
      "Ġmakeup": 5799,
      "Ġoffensive": 5800,
      "ĠIsland": 5801,
      "Ġfootball": 5802,
      "Ġcostume": 5803,
      "Ġcriticism": 5804,
      "Ġrelatively": 5805,
      "Ġlesbian": 5806,
      "pent": 5807,
      "icit": 5808,
      "lection": 5809,
      "Ġanger": 5810,
      "ĠCaine": 5811,
      "Ġchose": 5812,
      "ĠDem": 5813,
      "Ġvote": 5814,
      "ĠPri": 5815,
      "Ġtruck": 5816,
      "Ġevening": 5817,
      "Ġquir": 5818,
      "Ġrival": 5819,
      "ivan": 5820,
      "Ġsupernatural": 5821,
      "Ġpresents": 5822,
      "Ġacqu": 5823,
      "Ġdistribut": 5824,
      "irds": 5825,
      "Ġtouches": 5826,
      "Ġstructure": 5827,
      "Ġbringing": 5828,
      "Ġdescript": 5829,
      "Ġweeks": 5830,
      "Ġmistakes": 5831,
      "Ġprior": 5832,
      "ĠPrince": 5833,
      "Ġsuffers": 5834,
      "ĠGrand": 5835,
      "Ġunlikely": 5836,
      "Ġinitial": 5837,
      "Ġmultiple": 5838,
      "Ne": 5839,
      "Ġ)": 5840,
      "Ġfestival": 5841,
      "Ġfreedom": 5842,
      "Ġcant": 5843,
      "uls": 5844,
      "ĠGill": 5845,
      "ĠNE": 5846,
      "Ġclue": 5847,
      "aren": 5848,
      "Ġparticip": 5849,
      "---": 5850,
      "ĠAnna": 5851,
      "Ġsurprises": 5852,
      "Ġprovided": 5853,
      "Ġpromising": 5854,
      "Ġcartoons": 5855,
      "written": 5856,
      "Ġpropaganda": 5857,
      "AA": 5858,
      "IR": 5859,
      "ait": 5860,
      "ners": 5861,
      "ani": 5862,
      "anity": 5863,
      "Ġ/>*": 5864,
      "ĠAdd": 5865,
      "ament": 5866,
      "ĠHill": 5867,
      "ĠHong": 5868,
      "Ġsho": 5869,
      "ummy": 5870,
      "odd": 5871,
      "Ġarrest": 5872,
      "Ġoverwhel": 5873,
      "beat": 5874,
      "Ġspell": 5875,
      "Ġbitter": 5876,
      "Ġskip": 5877,
      "Ġadmire": 5878,
      "Ġpromise": 5879,
      "Ġgraph": 5880,
      "ĠMurphy": 5881,
      "Ġenthusi": 5882,
      "Ġreputation": 5883,
      "Why": 5884,
      "ixt": 5885,
      "Ġbatt": 5886,
      "Ġcas": 5887,
      "Ġlink": 5888,
      "uther": 5889,
      "ston": 5890,
      "ioned": 5891,
      "rocious": 5892,
      "Ġexagger": 5893,
      "ĠLa": 5894,
      "Ġunfor": 5895,
      "elle": 5896,
      "Ġpregn": 5897,
      "Ġreminis": 5898,
      "Ġcrude": 5899,
      "Ġtraining": 5900,
      "Ġhandled": 5901,
      "ennis": 5902,
      "ENT": 5903,
      "Ġspeaks": 5904,
      "Ġcapital": 5905,
      "Ġcontinuity": 5906,
      "Ġhanging": 5907,
      "Ġdubbed": 5908,
      "cr": 5909,
      "wy": 5910,
      "Â´": 5911,
      "Ġsne": 5912,
      "anny": 5913,
      "ĠSn": 5914,
      "ĠSat": 5915,
      "ĠCat": 5916,
      "ĠFer": 5917,
      "ĠFestival": 5918,
      "ĠKill": 5919,
      "ressive": 5920,
      "Ġviewed": 5921,
      "Ġcovered": 5922,
      "Ġpolic": 5923,
      "Ġrental": 5924,
      "loved": 5925,
      "Ġlandsc": 5926,
      "Ġpreviously": 5927,
      "Ġvirtually": 5928,
      "ĠApparently": 5929,
      "chen": 5930,
      "iat": 5931,
      "Ġpaced": 5932,
      "Ġhen": 5933,
      "ĠDian": 5934,
      "ĠGet": 5935,
      "aret": 5936,
      "achel": 5937,
      "ĠStates": 5938,
      "ighter": 5939,
      "Ġkillers": 5940,
      "Ġmainstream": 5941,
      "Ġcommitted": 5942,
      "Ġfocused": 5943,
      "Ġshocked": 5944,
      "ĠPatrick": 5945,
      "ĠSadly": 5946,
      "Ġlatest": 5947,
      "ĠTexas": 5948,
      "Ġabr": 5949,
      "Ġbag": 5950,
      "inging": 5951,
      "Ġlie": 5952,
      "Ġnin": 5953,
      "ĠMOV": 5954,
      "Ġvide": 5955,
      "Ġrough": 5956,
      "ĠOliver": 5957,
      "Ġpoign": 5958,
      "ullivan": 5959,
      "icted": 5960,
      "Ġemph": 5961,
      "ĠEdward": 5962,
      "Ġforgettable": 5963,
      "Ġcombined": 5964,
      "Ġstruggling": 5965,
      "Ġrecognize": 5966,
      "Ġcloser": 5967,
      "Ġuninteresting": 5968,
      "Ġsource": 5969,
      "ugosi": 5970,
      "gie": 5971,
      "och": 5972,
      "sm": 5973,
      "Ġbound": 5974,
      "onel": 5975,
      "Ġdirty": 5976,
      "Ġeld": 5977,
      "ader": 5978,
      "Ġhey": 5979,
      "ĠSun": 5980,
      "ĠMer": 5981,
      "ĠFinally": 5982,
      "acle": 5983,
      "Ġflo": 5984,
      "ĠVinc": 5985,
      "Ġcontest": 5986,
      "Ġterm": 5987,
      "onsider": 5988,
      "Ġwalked": 5989,
      "ausible": 5990,
      "ĠRoger": 5991,
      "ĠPacino": 5992,
      "ĠVERY": 5993,
      "Le": 5994,
      "Ġtable": 5995,
      "Ġmask": 5996,
      "Ġnominated": 5997,
      "ida": 5998,
      "ĠSk": 5999,
      "ĠHope": 6000,
      "ĠHalloween": 6001,
      "Ġatrocious": 6002,
      "olen": 6003,
      "Ġrise": 6004,
      "Ġtrilogy": 6005,
      "izabeth": 6006,
      "airs": 6007,
      "umbling": 6008,
      "ĠArt": 6009,
      "Ġpolitics": 6010,
      "Ġoccasional": 6011,
      "Ġimprove": 6012,
      "Ġmassive": 6013,
      "Ġdegree": 6014,
      "hi": 6015,
      "ĠSal": 6016,
      "ĠCH": 6017,
      "ĠComp": 6018,
      "ĠPage": 6019,
      "ogether": 6020,
      "Ġarg": 6021,
      "Ġprice": 6022,
      "including": 6023,
      "Ġpaint": 6024,
      "Ġpainting": 6025,
      "Ġformat": 6026,
      "Ġcutting": 6027,
      "Ġcolors": 6028,
      "Ġfigures": 6029,
      "ĠPlan": 6030,
      "Ġnarration": 6031,
      "Ġspoilers": 6032,
      "Ġidiot": 6033,
      "Ġdollars": 6034,
      "Ġfrightening": 6035,
      "ĠColumbo": 6036,
      "Cl": 6037,
      "ION": 6038,
      "iens": 6039,
      "Ġsink": 6040,
      "Ġfix": 6041,
      "ona": 6042,
      "ashy": 6043,
      "ĠMGM": 6044,
      "ulated": 6045,
      "ĠPict": 6046,
      "Ġeverywhere": 6047,
      "Ġcris": 6048,
      "Ġclassics": 6049,
      "Ġprivate": 6050,
      "Ġcomplain": 6051,
      "Ġsuffer": 6052,
      "Ġaccidentally": 6053,
      "ĠWalter": 6054,
      "eness": 6055,
      "Ġdynam": 6056,
      "Ġgas": 6057,
      "Ġgentle": 6058,
      "ĠAst": 6059,
      "ĠSher": 6060,
      "Ġsection": 6061,
      "Ġspark": 6062,
      "Ġfactor": 6063,
      "Ġeffectively": 6064,
      "Ġcommit": 6065,
      "Ġfairy": 6066,
      ".)<": 6067,
      "Ġexecution": 6068,
      "Ġvampires": 6069,
      "Ġoffered": 6070,
      "Ġremotely": 6071,
      "Ġexperienced": 6072,
      "Ġbothered": 6073,
      "Ġfrankly": 6074,
      "\"),": 6075,
      "BI": 6076,
      "bid": 6077,
      "stone": 6078,
      "ĠTed": 6079,
      "Ġhealth": 6080,
      "ĠSE": 6081,
      "amous": 6082,
      "ĠBourne": 6083,
      "ĠHoff": 6084,
      "ĠWall": 6085,
      "ĠDrew": 6086,
      "Ġsche": 6087,
      "ĠLater": 6088,
      "ĠRoman": 6089,
      "umm": 6090,
      "ĠUs": 6091,
      "Ġriver": 6092,
      "Ġcourage": 6093,
      "Ġideal": 6094,
      "ĠUnited": 6095,
      "Ġdeaths": 6096,
      "Ġconcent": 6097,
      "shi": 6098,
      "Ġstayed": 6099,
      "Another": 6100,
      "Ġ1960": 6101,
      "ĠIrish": 6102,
      "Ġrules": 6103,
      "Fi": 6104,
      "Yes": 6105,
      "inals": 6106,
      "Ġfu": 6107,
      "Ġmethod": 6108,
      "arning": 6109,
      "eds": 6110,
      "Ġstom": 6111,
      "ĠSaturday": 6112,
      "ĠBaby": 6113,
      "ĠMuch": 6114,
      "ĠDet": 6115,
      "ems": 6116,
      "ĠFair": 6117,
      "Ġ16": 6118,
      "ĠKore": 6119,
      "Ġblow": 6120,
      "Ġawards": 6121,
      "Ġspends": 6122,
      "Ġcontract": 6123,
      "Ġincident": 6124,
      "Ġsurface": 6125,
      "Ġkinds": 6126,
      "Ġsnow": 6127,
      "Ġpsycho": 6128,
      "Ġposition": 6129,
      "ĠComm": 6130,
      "Ġstatement": 6131,
      "ĠCinderella": 6132,
      "low": 6133,
      "Ġhired": 6134,
      "Ġpage": 6135,
      "Ġhaunting": 6136,
      "ĠBros": 6137,
      "iform": 6138,
      "olph": 6139,
      "Ġprostit": 6140,
      "ĠEve": 6141,
      "ĠEvil": 6142,
      "Ġ25": 6143,
      "Ġinvent": 6144,
      "ĠBeing": 6145,
      "ĠclichÃ©d": 6146,
      "Ġtremend": 6147,
      "Ġtwisted": 6148,
      "Ġdesigned": 6149,
      "Ġsympathy": 6150,
      "ĠActually": 6151,
      "11": 6152,
      "UR": 6153,
      "dim": 6154,
      "girl": 6155,
      "noon": 6156,
      "atically": 6157,
      "ĠCamp": 6158,
      "ulp": 6159,
      "oln": 6160,
      "ĠNone": 6161,
      "Ġguard": 6162,
      "Ġperformed": 6163,
      "Ġgritty": 6164,
      "Ġcastle": 6165,
      "Ġsurf": 6166,
      "Ġcreatures": 6167,
      "Ġsorts": 6168,
      "Ġpassing": 6169,
      "ĠWithout": 6170,
      "Ġfeatured": 6171,
      "Ġfocuses": 6172,
      "Ġrequired": 6173,
      "ĠCalifornia": 6174,
      "Ġsignificant": 6175,
      "Ġdozen": 6176,
      "!),": 6177,
      "after": 6178,
      "laim": 6179,
      "Ġtill": 6180,
      "hem": 6181,
      "inated": 6182,
      "entist": 6183,
      "ĠBBC": 6184,
      "ĠCur": 6185,
      "ĠCru": 6186,
      "ĠCount": 6187,
      "ĠHa": 6188,
      "ĠNichol": 6189,
      "udes": 6190,
      "Ġdirectly": 6191,
      "Ġexplains": 6192,
      "Ġextras": 6193,
      "Ġjobs": 6194,
      "Ġconvince": 6195,
      "Ġencou": 6196,
      "Ġlegendary": 6197,
      "Ġunconvincing": 6198,
      "ĠCaptain": 6199,
      "Ġemphas": 6200,
      "bit": 6201,
      "wing": 6202,
      "Ġbore": 6203,
      "Ġnude": 6204,
      "Ġheck": 6205,
      "Ġstolen": 6206,
      "ĠMod": 6207,
      "Ġwear": 6208,
      "ola": 6209,
      "Ġdiss": 6210,
      "Ġspite": 6211,
      "Ġteens": 6212,
      "Ġgrues": 6213,
      "ramatic": 6214,
      "Ġaccording": 6215,
      "ĠJohnson": 6216,
      "belief": 6217,
      "Ġsuspenseful": 6218,
      "ĠVictoria": 6219,
      "Ġsubtitles": 6220,
      "BO": 6221,
      "ught": 6222,
      "inch": 6223,
      "Ġfet": 6224,
      "Ġcook": 6225,
      "orig": 6226,
      "Ġded": 6227,
      "ĠSometimes": 6228,
      "ura": 6229,
      "agal": 6230,
      "ĠFlor": 6231,
      "Ġintens": 6232,
      "Ġloyal": 6233,
      "Ġnostal": 6234,
      "ĠYour": 6235,
      "Ġ192": 6236,
      "Ġdownright": 6237,
      "incoln": 6238,
      "ĠDonald": 6239,
      "ungle": 6240,
      "Ġvariety": 6241,
      "Ġpulls": 6242,
      "Ġintegr": 6243,
      "Ġdinosaur": 6244,
      "Ġservice": 6245,
      "Ġdemonstr": 6246,
      "ĠSarah": 6247,
      "ĠVietnam": 6248,
      "Ġludicrous": 6249,
      "ĠHoffman": 6250,
      "Ġnostalg": 6251,
      "Ġice": 6252,
      "Ġwound": 6253,
      "Ġfond": 6254,
      "Ġthro": 6255,
      "ĠSpr": 6256,
      "Ġabuse": 6257,
      "Ġworry": 6258,
      "ĠThrough": 6259,
      "Ġupset": 6260,
      "Ġscenario": 6261,
      "plays": 6262,
      "Ġteeth": 6263,
      "weet": 6264,
      "Ġcru": 6265,
      "Ġaccomp": 6266,
      "apping": 6267,
      "Ġcaptiv": 6268,
      "Ġfigured": 6269,
      "ĠQueen": 6270,
      "Ġdevice": 6271,
      "ĠAbout": 6272,
      "Ġencounter": 6273,
      "Ġheavily": 6274,
      "Just": 6275,
      "fall": 6276,
      "mal": 6277,
      "Ġ***": 6278,
      "Ġwand": 6279,
      "Ġbesides": 6280,
      "Ġtoler": 6281,
      "arg": 6282,
      "ĠCap": 6283,
      "Ġshut": 6284,
      "ĠWonder": 6285,
      "Ġjail": 6286,
      "Ġscale": 6287,
      "Ġscares": 6288,
      "ĠLugosi": 6289,
      "ĠOff": 6290,
      "Ġade": 6291,
      "Ġguilty": 6292,
      "Ġflow": 6293,
      "Ġcontact": 6294,
      "Ġevol": 6295,
      "Ġevident": 6296,
      "Ġtrapped": 6297,
      "Ġcommand": 6298,
      "Ġdistinct": 6299,
      "Ġfavorites": 6300,
      "Ġamazed": 6301,
      "Ġswim": 6302,
      "Ġchanging": 6303,
      "Ġappreciated": 6304,
      "Although": 6305,
      "Ġdestroyed": 6306,
      "Ġinhab": 6307,
      "Do": 6308,
      "OP": 6309,
      "Ġtask": 6310,
      "Ġstays": 6311,
      "Ġliber": 6312,
      "ĠDuring": 6313,
      "Ġguest": 6314,
      "Ġviews": 6315,
      "ĠBranagh": 6316,
      "Ġbuying": 6317,
      "Ġworthwhile": 6318,
      "ĠFran": 6319,
      "ĠBeaut": 6320,
      "Ġminds": 6321,
      "Ġweekend": 6322,
      "Ġgruesome": 6323,
      "EL": 6324,
      "ease": 6325,
      "wor": 6326,
      "ya": 6327,
      "Ġwrest": 6328,
      "Ġcore": 6329,
      "add": 6330,
      "ethe": 6331,
      "eturn": 6332,
      "ĠCurt": 6333,
      "ĠWarner": 6334,
      "ĠDream": 6335,
      "Ġjeal": 6336,
      "ĠPo": 6337,
      "Ġoutrage": 6338,
      "ĠGand": 6339,
      "Ġunp": 6340,
      "ĠOb": 6341,
      "Ġsimpl": 6342,
      "Ġstrict": 6343,
      "stery": 6344,
      "Ġconfess": 6345,
      "ĠAtl": 6346,
      "Ġadvant": 6347,
      "Ġexecut": 6348,
      "Ġsensitive": 6349,
      "ĠEmma": 6350,
      "Ġstatus": 6351,
      "Ġmelodrama": 6352,
      "Ġpraise": 6353,
      "ĠAvoid": 6354,
      "Ġabandoned": 6355,
      "ĠSunday": 6356,
      "Ġnecessarily": 6357,
      "case": 6358,
      "erved": 6359,
      "Ġcust": 6360,
      "espite": 6361,
      "Ġdom": 6362,
      "ĠWor": 6363,
      "Ġdeeper": 6364,
      "ĠNat": 6365,
      "Ġblah": 6366,
      "iano": 6367,
      "Ġoriginality": 6368,
      "Ġsounded": 6369,
      "ĠDevil": 6370,
      "Ġdriven": 6371,
      "Ġtouched": 6372,
      "Ġanticip": 6373,
      "Ġreveals": 6374,
      "Ġstomach": 6375,
      "From": 6376,
      "list": 6377,
      "ali": 6378,
      "amor": 6379,
      "ĠMovies": 6380,
      "Ġscr": 6381,
      "ela": 6382,
      "ĠJay": 6383,
      "Ġuniform": 6384,
      "Ġgreater": 6385,
      "assion": 6386,
      "Ġblat": 6387,
      "Ġaccess": 6388,
      "Ġcamer": 6389,
      "ĠCarol": 6390,
      "Ġmagical": 6391,
      "Ġdelivery": 6392,
      "Ġclosing": 6393,
      "Ġanswers": 6394,
      "Ġfaithful": 6395,
      "Ġfacial": 6396,
      "Anyway": 6397,
      "\").": 6398,
      "Ġ0": 6399,
      "Ġfil": 6400,
      "Ġmature": 6401,
      "Ġhaunted": 6402,
      "Ġlibr": 6403,
      "ĠDun": 6404,
      "ĠLincoln": 6405,
      "ĠOld": 6406,
      "Ġstorytelling": 6407,
      "oyd": 6408,
      "onda": 6409,
      "ĠChina": 6410,
      "Ġsecurity": 6411,
      "ĠWend": 6412,
      "197": 6413,
      "Ġmetap": 6414,
      "ĠANY": 6415,
      "Ġjournal": 6416,
      "Ġfunnier": 6417,
      "Ġunderstood": 6418,
      "Ġwelcome": 6419,
      "Ġveteran": 6420,
      "ipped": 6421,
      "kins": 6422,
      "sky": 6423,
      "something": 6424,
      "Ġfab": 6425,
      "itious": 6426,
      "Ġpan": 6427,
      "asant": 6428,
      "Ġlift": 6429,
      "Ġmere": 6430,
      "Ġunbe": 6431,
      "ĠEach": 6432,
      "Ġseek": 6433,
      "Ġenh": 6434,
      "ĠInc": 6435,
      "Ġdecades": 6436,
      "igned": 6437,
      "Ġdepiction": 6438,
      "ĠArmy": 6439,
      "Ġrenting": 6440,
      "Ġprofound": 6441,
      "ĠHardy": 6442,
      "IGHT": 6443,
      "world": 6444,
      "Ġbab": 6445,
      "Ġgre": 6446,
      "ids": 6447,
      "ĠBog": 6448,
      "outhern": 6449,
      "Ġcomical": 6450,
      "Ġplaced": 6451,
      "ĠFar": 6452,
      "Ġwerewolf": 6453,
      "plend": 6454,
      "Ġdisbelief": 6455,
      "Ġtear": 6456,
      "Ġprime": 6457,
      "prise": 6458,
      "Ġhandle": 6459,
      "ĠMaria": 6460,
      "Ġbasis": 6461,
      "ĠCharl": 6462,
      "Ġdeliber": 6463,
      "Ġwinner": 6464,
      "Ġforest": 6465,
      "Ġsisters": 6466,
      "Ġsettings": 6467,
      "Ġ1990": 6468,
      "Ġdesperately": 6469,
      "Ġstereotypical": 6470,
      "aust": 6471,
      "apl": 6472,
      "called": 6473,
      "Ġdress": 6474,
      "rol": 6475,
      "ĠHA": 6476,
      "Ġshape": 6477,
      "Ġchuck": 6478,
      "than": 6479,
      "ĠGi": 6480,
      "iger": 6481,
      "Ġguar": 6482,
      "Ġincor": 6483,
      "reek": 6484,
      "azing": 6485,
      "ibilities": 6486,
      "Ġartists": 6487,
      "ĠReed": 6488,
      "Ġlights": 6489,
      "Ġcultural": 6490,
      "Ġmusicals": 6491,
      "Ġpaying": 6492,
      "ĠEnter": 6493,
      "Ġbreathtaking": 6494,
      "craft": 6495,
      "Ġconversation": 6496,
      "ĠPresident": 6497,
      "Ġlonely": 6498,
      "ĠEspecially": 6499,
      "Ġdescription": 6500,
      "etheless": 6501,
      "IM": 6502,
      "mates": 6503,
      "iner": 6504,
      "Ġbuddy": 6505,
      "enced": 6506,
      "ĠIre": 6507,
      "Ġnaturally": 6508,
      "aying": 6509,
      "ĠDep": 6510,
      "ĠLost": 6511,
      "ĠLisa": 6512,
      "arden": 6513,
      "ĠBrooks": 6514,
      "Ġhelping": 6515,
      "ographer": 6516,
      "Ġcaring": 6517,
      "Ġsky": 6518,
      "Ġexperiment": 6519,
      "Ġmiscast": 6520,
      "Ġfemin": 6521,
      "lover": 6522,
      "Ġcampy": 6523,
      "Ġtreasure": 6524,
      "ĠMexico": 6525,
      "Ġmurderer": 6526,
      "Ġextraordinary": 6527,
      "rehens": 6528,
      "wyck": 6529,
      "gen": 6530,
      "mond": 6531,
      "Ġtong": 6532,
      "Ġsides": 6533,
      "Ġhar": 6534,
      "uty": 6535,
      "ĠTy": 6536,
      "ĠCome": 6537,
      "Ġkung": 6538,
      "eston": 6539,
      "ĠLarry": 6540,
      "atherine": 6541,
      "Ġraised": 6542,
      "Ġcritical": 6543,
      "Ġignor": 6544,
      "Ġcrying": 6545,
      "ĠRogers": 6546,
      "Ġslapstick": 6547,
      "Ġpregnant": 6548,
      "dimensional": 6549,
      "Ġcand": 6550,
      "ils": 6551,
      "Ġash": 6552,
      "ĠBack": 6553,
      "ĠBett": 6554,
      "ĠMST": 6555,
      "illion": 6556,
      "ĠCole": 6557,
      "ĠCooper": 6558,
      "ĠWid": 6559,
      "Ġvir": 6560,
      "ĠPa": 6561,
      "ĠNed": 6562,
      "ĠKnight": 6563,
      "Ġserve": 6564,
      "ĠFriday": 6565,
      "Ġextent": 6566,
      "Ġcarried": 6567,
      "Ġlistening": 6568,
      "ĠInde": 6569,
      "ronic": 6570,
      "Ġarrives": 6571,
      "Ġcriminals": 6572,
      "Ġinternational": 6573,
      "ĠMexican": 6574,
      "ĠSusan": 6575,
      "ĠFreeman": 6576,
      "Ġinspiration": 6577,
      "Ġcous": 6578,
      "Ġcases": 6579,
      "Ġ/>(": 6580,
      "ĠBall": 6581,
      "ĠHon": 6582,
      "ĠRachel": 6583,
      "Ġcharge": 6584,
      "irected": 6585,
      "ĠVamp": 6586,
      "ucky": 6587,
      "except": 6588,
      "Ġimagery": 6589,
      "Ġexamples": 6590,
      "Ġpicks": 6591,
      "Ġcomplicated": 6592,
      "Ġsummary": 6593,
      "Ġsucceeds": 6594,
      "Ġwarned": 6595,
      "Ġdepartment": 6596,
      "Ġmildly": 6597,
      "ĠMOVIE": 6598,
      "KE": 6599,
      "Man": 6600,
      "US": 6601,
      "breaking": 6602,
      "hib": 6603,
      "Ġtiny": 6604,
      "Ġtheory": 6605,
      "rees": 6606,
      "Ġmas": 6607,
      "Ġlazy": 6608,
      "Ġnu": 6609,
      "ieu": 6610,
      "adays": 6611,
      "imm": 6612,
      "Ġyell": 6613,
      "ooge": 6614,
      "Ġanal": 6615,
      "ĠBu": 6616,
      "osity": 6617,
      "ĠChannel": 6618,
      "ĠAlt": 6619,
      "onscious": 6620,
      "Ġrights": 6621,
      "Ġrepet": 6622,
      "Ġirre": 6623,
      "ĠIndia": 6624,
      "Ġatmospher": 6625,
      "ĠElizabeth": 6626,
      "Ġchoices": 6627,
      "Ġprepared": 6628,
      "Ġinterpretation": 6629,
      "Ġquirky": 6630,
      "Ġain": 6631,
      "Ġske": 6632,
      "order": 6633,
      "Ġbeloved": 6634,
      "adget": 6635,
      "ĠMic": 6636,
      "ĠHal": 6637,
      "Ġchief": 6638,
      "ĠDa": 6639,
      "ifies": 6640,
      "Ġsuffe": 6641,
      "Ġsheriff": 6642,
      "Ġdisag": 6643,
      "Ġafternoon": 6644,
      "Ġobnox": 6645,
      "Ġnightmare": 6646,
      "ancing": 6647,
      "Ġconcert": 6648,
      "!!!!!!!!": 6649,
      "ĠJulie": 6650,
      "ĠJulia": 6651,
      "Ġcondition": 6652,
      "Ġhomosexual": 6653,
      "ĠTracy": 6654,
      "Ġproperly": 6655,
      "Ġdivor": 6656,
      "Ġweapons": 6657,
      "Ġsophistic": 6658,
      "\"?": 6659,
      "Br": 6660,
      "By": 6661,
      "IA": 6662,
      "ww": 6663,
      "Ġwins": 6664,
      "isand": 6665,
      "alph": 6666,
      "Ġshadow": 6667,
      "Ġvia": 6668,
      "ĠPerson": 6669,
      "ĠRoc": 6670,
      "Ġ17": 6671,
      "ĠKiller": 6672,
      "Ġclips": 6673,
      "Ġthrowing": 6674,
      "Ġblown": 6675,
      "ĠStud": 6676,
      "Ġinstall": 6677,
      "ĠRec": 6678,
      "coming": 6679,
      "Ġstarred": 6680,
      "Ġignore": 6681,
      "Ġsteps": 6682,
      "Ġcarrying": 6683,
      "Ġreplaced": 6684,
      "Ġjoin": 6685,
      "Ġmountain": 6686,
      "ĠSidney": 6687,
      "Ġgraphics": 6688,
      "Ġboot": 6689,
      "oration": 6690,
      "Ġnation": 6691,
      "utter": 6692,
      "ilton": 6693,
      "ĠTake": 6694,
      "Ġreward": 6695,
      "Ġsea": 6696,
      "ĠDie": 6697,
      "Ġjumps": 6698,
      "Ġvivid": 6699,
      "ĠLOV": 6700,
      "Ġunivers": 6701,
      "tending": 6702,
      "Ġpreview": 6703,
      "ĠChild": 6704,
      "atholic": 6705,
      "Ġenjoying": 6706,
      "Ġrelated": 6707,
      "Ġscreening": 6708,
      "ĠSoon": 6709,
      "ception": 6710,
      "Ġattacked": 6711,
      "ĠPhill": 6712,
      "Ġautom": 6713,
      "Ġproductions": 6714,
      "Ġmentally": 6715,
      "Ġreminiscent": 6716,
      "CT": 6717,
      "Michael": 6718,
      "zil": 6719,
      "Ġnom": 6720,
      "ĠBak": 6721,
      "Ġwears": 6722,
      "ulk": 6723,
      "Ġvi": 6724,
      "ĠNel": 6725,
      "Ġslo": 6726,
      "beit": 6727,
      "Ġcontribut": 6728,
      "Ġcrash": 6729,
      "aze": 6730,
      "Ġsubsequ": 6731,
      "Ġfriendly": 6732,
      "ibal": 6733,
      "Ġconfusion": 6734,
      "Ġhalfway": 6735,
      "Ġdeadly": 6736,
      "Ġcorpor": 6737,
      "Ġsuccessfully": 6738,
      "ĠMcG": 6739,
      "Ġdemand": 6740,
      "iko": 6741,
      "Ġintroduction": 6742,
      "Ġadventures": 6743,
      "Christ": 6744,
      "Ġuninsp": 6745,
      "Ġregarding": 6746,
      "ĠYeah": 6747,
      "Ġescapes": 6748,
      "Ġdrinking": 6749,
      "Is": 6750,
      "aver": 6751,
      "fits": 6752,
      "mate": 6753,
      "Ġbon": 6754,
      "Ġhip": 6755,
      "Ġdign": 6756,
      "Ġisol": 6757,
      "Ġnative": 6758,
      "ĠAL": 6759,
      "ĠSO": 6760,
      "ĠBesides": 6761,
      "rab": 6762,
      "ĠCub": 6763,
      "Ġvast": 6764,
      "Ġuniverse": 6765,
      "Ġenemy": 6766,
      "Ġdislike": 6767,
      "Ġraise": 6768,
      "Ġinteract": 6769,
      "Ġcauses": 6770,
      "Ġrule": 6771,
      "Ġpurely": 6772,
      "ĠMatth": 6773,
      "ĠBrando": 6774,
      "Ġembarrassed": 6775,
      "Ġessential": 6776,
      "iveness": 6777,
      "ĠHolmes": 6778,
      "Ġintensity": 6779,
      "Ġadvantage": 6780,
      "Dav": 6781,
      "hay": 6782,
      "mod": 6783,
      "Ġbreaking": 6784,
      "Ġcy": 6785,
      "Ġlaid": 6786,
      "semble": 6787,
      "oooo": 6788,
      "ira": 6789,
      "ĠCus": 6790,
      "ĠHave": 6791,
      "ĠWes": 6792,
      "Ġdogs": 6793,
      "ĠLat": 6794,
      "ĠRen": 6795,
      "umber": 6796,
      "Ġtiming": 6797,
      "Ġarr": 6798,
      "Ġargu": 6799,
      "Ġserved": 6800,
      "ĠAlice": 6801,
      "Ġcalling": 6802,
      "Ġcarries": 6803,
      "Ġportra": 6804,
      "Ġattempting": 6805,
      "Ġnovels": 6806,
      "ONE": 6807,
      "Ġratings": 6808,
      "ĠGuy": 6809,
      "OOD": 6810,
      "ĠOtherwise": 6811,
      "Ġchallenge": 6812,
      "ĠPhilip": 6813,
      "Ġracist": 6814,
      "ĠJewish": 6815,
      "Ġrisk": 6816,
      "ĠZombie": 6817,
      "Ġsinister": 6818,
      "Ġcynical": 6819,
      "CK": 6820,
      "Ġwishes": 6821,
      "Ġdub": 6822,
      "eter": 6823,
      "ĠSir": 6824,
      "ĠBac": 6825,
      "ĠMin": 6826,
      "ustrated": 6827,
      "ago": 6828,
      "ĠProdu": 6829,
      "Ġrank": 6830,
      "Ġlocked": 6831,
      "Ġadop": 6832,
      "Ġdisgu": 6833,
      "ĠVirgin": 6834,
      "ianc": 6835,
      "Ġcheese": 6836,
      "ĠShar": 6837,
      "phan": 6838,
      "Ġglimp": 6839,
      "Ġtopic": 6840,
      "Ġindie": 6841,
      "Ġcredible": 6842,
      "Ġstops": 6843,
      "ĠMean": 6844,
      "Ġspoiler": 6845,
      "ĠUSA": 6846,
      "Ġstruggles": 6847,
      "sett": 6848,
      "Ġimmense": 6849,
      "ĠStanley": 6850,
      "ĠStanwyck": 6851,
      "ĠSandler": 6852,
      "ĠBasically": 6853,
      "Ġimaginative": 6854,
      "penter": 6855,
      "Ġglimpse": 6856,
      "fun": 6857,
      "lance": 6858,
      "zel": 6859,
      "Ġsplend": 6860,
      "char": 6861,
      "ĠAp": 6862,
      "ams": 6863,
      "aste": 6864,
      "Ġcance": 6865,
      "Ġarms": 6866,
      "...\"": 6867,
      "Ġspoken": 6868,
      "Ġgrim": 6869,
      "Ġcheer": 6870,
      "Ġcoinc": 6871,
      "Ġretarded": 6872,
      "Ġgrave": 6873,
      "Ġdaughters": 6874,
      "Ġpsychiat": 6875,
      "Ġsleazy": 6876,
      "Ġcomedian": 6877,
      "Ġreference": 6878,
      "Ġpuzz": 6879,
      "Ġinitially": 6880,
      "Ġpoignant": 6881,
      "80": 6882,
      "Every": 6883,
      "vably": 6884,
      "zed": 6885,
      "Ġ**": 6886,
      "Ġbow": 6887,
      "Ġpool": 6888,
      "ĠAward": 6889,
      "ĠBurt": 6890,
      "actic": 6891,
      "Ġvirgin": 6892,
      "ouses": 6893,
      "Ġhorrific": 6894,
      "Ġhappiness": 6895,
      "ĠBeck": 6896,
      "ĠSeagal": 6897,
      "ĠArn": 6898,
      "Ã©e": 6899,
      "ification": 6900,
      "orthy": 6901,
      "lynn": 6902,
      "ĠSwed": 6903,
      "ĠMusic": 6904,
      "Ġneighborhood": 6905,
      "Ġdetermined": 6906,
      "Ġuncomfortable": 6907,
      "Ġaccompan": 6908,
      "die": 6909,
      "ration": 6910,
      "Ġtrap": 6911,
      "erior": 6912,
      "verse": 6913,
      "cellent": 6914,
      "ĠSullivan": 6915,
      "ĠMiller": 6916,
      "Ġchair": 6917,
      "ĠDennis": 6918,
      "Ġexists": 6919,
      "ĠLI": 6920,
      "Ġneck": 6921,
      "ĠFBI": 6922,
      "Ġrub": 6923,
      "Ġmanager": 6924,
      "ounding": 6925,
      "aped": 6926,
      "Ġarrog": 6927,
      "Ġrolling": 6928,
      "Ġcontain": 6929,
      "Ġdecl": 6930,
      "Ġtriumph": 6931,
      "Ġinvis": 6932,
      "umbs": 6933,
      "Ġcountries": 6934,
      "Ġdarkness": 6935,
      "Who": 6936,
      "Ġweakness": 6937,
      "Ġsentimental": 6938,
      "Ġamongst": 6939,
      "going": 6940,
      "Ġpresentation": 6941,
      "ĠStreisand": 6942,
      "Ġbalance": 6943,
      "ĠCamer": 6944,
      "Ġatmospheric": 6945,
      "Ġsuffered": 6946,
      "Bra": 6947,
      "LD": 6948,
      "Let": 6949,
      "Mar": 6950,
      "fess": 6951,
      "watch": 6952,
      "Ġtense": 6953,
      "Ġped": 6954,
      "story": 6955,
      "style": 6956,
      "ĠSol": 6957,
      "ĠSav": 6958,
      "ĠBrend": 6959,
      "ĠWOR": 6960,
      "ĠDal": 6961,
      "ĠRa": 6962,
      "Ġovercome": 6963,
      "gettable": 6964,
      "Ġenter": 6965,
      "Ġminimal": 6966,
      "Ġresist": 6967,
      "Ġrelax": 6968,
      "Ġstylish": 6969,
      "ĠTrue": 6970,
      "Ġobsession": 6971,
      "ĠLeslie": 6972,
      "ĠJessica": 6973,
      "Ġestablished": 6974,
      "utherland": 6975,
      "Ġelder": 6976,
      "Ġtongue": 6977,
      "Paul": 6978,
      "fest": 6979,
      "Ġho": 6980,
      "ĠTurn": 6981,
      "ĠSon": 6982,
      "rial": 6983,
      "Ġshark": 6984,
      "ĠDaw": 6985,
      "ĠLem": 6986,
      "ĠRick": 6987,
      "inda": 6988,
      "ĠNY": 6989,
      "udge": 6990,
      "Ġlovable": 6991,
      "ogical": 6992,
      "Ġthrows": 6993,
      "Ġcompos": 6994,
      "Ġterrifying": 6995,
      "Ġourselves": 6996,
      "Ġborder": 6997,
      "ĠDean": 6998,
      "attan": 6999,
      "Ġstupidity": 7000,
      "Ġamazingly": 7001,
      "Ġdrives": 7002,
      "Ġmagaz": 7003,
      "Ġ2000": 7004,
      "Ġbroke": 7005,
      "liners": 7006,
      "Ġinnocence": 7007,
      "Ġpupp": 7008,
      "Ġfrequently": 7009,
      "Ġgoofy": 7010,
      "Ġashamed": 7011,
      "ĠWidmark": 7012,
      "Ġobnoxious": 7013,
      "Watch": 7014,
      "can": 7015,
      "iques": 7016,
      "tes": 7017,
      "ugh": 7018,
      "Ġtorn": 7019,
      "Ġgain": 7020,
      "iments": 7021,
      "Ġwasting": 7022,
      "ĠSPOILERS": 7023,
      "roph": 7024,
      "Ġattend": 7025,
      "opath": 7026,
      "Ġlegs": 7027,
      "Ġlearning": 7028,
      "Ġtrite": 7029,
      "mentioned": 7030,
      "ĠUnder": 7031,
      "Ġperfection": 7032,
      "Ġtitles": 7033,
      "Ġdriver": 7034,
      "Ġangle": 7035,
      "Ġflawed": 7036,
      "Ġattacks": 7037,
      "Ġpersonalities": 7038,
      "Ġmiles": 7039,
      "ĠNazi": 7040,
      "Ġwealthy": 7041,
      "Ġoblig": 7042,
      "ĠNelson": 7043,
      "end": 7044,
      "vo": 7045,
      "Ġaired": 7046,
      "Ġinj": 7047,
      "Ġstunt": 7048,
      "Ġul": 7049,
      "ĠBaker": 7050,
      "ĠHome": 7051,
      "ulate": 7052,
      "estly": 7053,
      "ĠLiving": 7054,
      "ĠRun": 7055,
      "ĠRalph": 7056,
      "ĠGhost": 7057,
      "ooky": 7058,
      "ĠKurt": 7059,
      "Ġeveryday": 7060,
      "ĠChapl": 7061,
      "ĠHeaven": 7062,
      "Ġenjoyment": 7063,
      "Ġscripts": 7064,
      "ĠDefinitely": 7065,
      "Ġcameos": 7066,
      "Ġthrilling": 7067,
      "Ġirony": 7068,
      "ĠOscars": 7069,
      "Ġunfold": 7070,
      "ĠOliv": 7071,
      "Ġprincip": 7072,
      "ĠVincent": 7073,
      "jud": 7074,
      "ket": 7075,
      "Ġtempt": 7076,
      "Ġphen": 7077,
      "Ġlust": 7078,
      "Ġseve": 7079,
      "ĠMAN": 7080,
      "ĠDi": 7081,
      "ĠDrag": 7082,
      "acter": 7083,
      "Ġalright": 7084,
      "ĠGreg": 7085,
      "Ġmansion": 7086,
      "Ġhorrend": 7087,
      "Ġinco": 7088,
      "Ġconspir": 7089,
      "Ġsuperfic": 7090,
      "annon": 7091,
      "ĠMarg": 7092,
      "Ġexceptional": 7093,
      "Ġmedical": 7094,
      "Ġpatient": 7095,
      "Ġequal": 7096,
      "ĠItaly": 7097,
      "ĠMatrix": 7098,
      "Ġspiritual": 7099,
      "Ġrevolves": 7100,
      "Ġmirror": 7101,
      "ĠWWII": 7102,
      "Ġseparate": 7103,
      "Ġwidow": 7104,
      "60": 7105,
      "Fr": 7106,
      "Ġeth": 7107,
      "Ġbeach": 7108,
      "Ġstumb": 7109,
      "ety": 7110,
      "Ġhack": 7111,
      "Ġweight": 7112,
      "ĠHun": 7113,
      "Ġshines": 7114,
      "Ġchilling": 7115,
      "Ġchoos": 7116,
      "Ġplastic": 7117,
      "ĠPower": 7118,
      "awa": 7119,
      "Ġcaric": 7120,
      "Ġmindless": 7121,
      "emption": 7122,
      "Ġshorts": 7123,
      "Ġfallen": 7124,
      "ĠUnlike": 7125,
      "Ġdevelops": 7126,
      "Ġannoyed": 7127,
      "Ġparall": 7128,
      "Ġtechnique": 7129,
      "ielberg": 7130,
      "Ġsleeping": 7131,
      "ĠREALLY": 7132,
      "Arthur": 7133,
      "Ġcontroversial": 7134,
      "ĠMatthau": 7135,
      "BS": 7136,
      "Mr": 7137,
      "TER": 7138,
      "Ġtree": 7139,
      "Ġtied": 7140,
      "inate": 7141,
      "Ġsings": 7142,
      "Ġfulf": 7143,
      "inge": 7144,
      "iled": 7145,
      "oops": 7146,
      "ĠBollywood": 7147,
      "ĠBette": 7148,
      "ĠDad": 7149,
      "ements": 7150,
      "Ġexer": 7151,
      "ĠPL": 7152,
      "ĠLore": 7153,
      "ĠFle": 7154,
      "ĠGriff": 7155,
      "Ġmeat": 7156,
      "Ġmechan": 7157,
      "ĠNol": 7158,
      "Ġensemble": 7159,
      "Ġgreatly": 7160,
      "Ġbetray": 7161,
      "erek": 7162,
      "ĠChurch": 7163,
      "obb": 7164,
      "berl": 7165,
      "Ġlesser": 7166,
      "Ġhomeless": 7167,
      "Ġopened": 7168,
      "Ġcredibility": 7169,
      "Ġrefuses": 7170,
      "Ġappearances": 7171,
      "Ġsurviv": 7172,
      "Ġexpressions": 7173,
      "vira": 7174,
      "anchise": 7175,
      "Ġbroadcast": 7176,
      "ĠGeneral": 7177,
      "kind": 7178,
      "ns": 7179,
      "when": 7180,
      "Ġtune": 7181,
      "eral": 7182,
      "Ġfest": 7183,
      "Ġthick": 7184,
      "Ġhors": 7185,
      "llo": 7186,
      "Ġdude": 7187,
      "bra": 7188,
      "Ġbutt": 7189,
      "Ġnotable": 7190,
      "ĠWere": 7191,
      "ĠDin": 7192,
      "iffe": 7193,
      "aki": 7194,
      "Ġdece": 7195,
      "ĠLion": 7196,
      "ĠThings": 7197,
      "Ġprevent": 7198,
      "Ġtraum": 7199,
      "Ġconsists": 7200,
      "Ġelabor": 7201,
      "retty": 7202,
      "Ġadding": 7203,
      "comedy": 7204,
      "Ġsympath": 7205,
      "Ġinterviews": 7206,
      "Ġbelongs": 7207,
      "Ġhundreds": 7208,
      "ĠBettie": 7209,
      "ĠRochester": 7210,
      "Ad": 7211,
      "from": 7212,
      "happy": 7213,
      "mitted": 7214,
      "sch": 7215,
      "wife": 7216,
      "writ": 7217,
      "hest": 7218,
      "Ġbudd": 7219,
      "oms": 7220,
      "Ġeager": 7221,
      "ĠSomething": 7222,
      "ĠSutherland": 7223,
      "Ġsends": 7224,
      "rael": 7225,
      "ĠCandy": 7226,
      "ĠFlynn": 7227,
      "ĠThree": 7228,
      "Ġseeking": 7229,
      "Ġraw": 7230,
      "ocr": 7231,
      "Ġfinan": 7232,
      "Ġlessons": 7233,
      "Ġexpensive": 7234,
      "Ġannoun": 7235,
      "Ġadmir": 7236,
      "Ġhoped": 7237,
      "Ġaccepted": 7238,
      "Ġghosts": 7239,
      "ĠWalken": 7240,
      "ĠLucas": 7241,
      "Ġmarvelous": 7242,
      "Ġfabulous": 7243,
      "Ġunbear": 7244,
      "ĠChaplin": 7245,
      "OD": 7246,
      "wl": 7247,
      "Ġcock": 7248,
      "idents": 7249,
      "ĠHanks": 7250,
      "Ġactiv": 7251,
      "Ġcomfort": 7252,
      "ĠFoster": 7253,
      "umble": 7254,
      "Ġnose": 7255,
      "place": 7256,
      "forward": 7257,
      "Ġflu": 7258,
      "Ġbackd": 7259,
      "Ġnowadays": 7260,
      "Ġlarger": 7261,
      "Ġmetal": 7262,
      "Ġsuggests": 7263,
      "conom": 7264,
      "ĠProbably": 7265,
      "Ġneighb": 7266,
      "Ġsegments": 7267,
      "ĠPolice": 7268,
      "Ġdubbing": 7269,
      "Ġperformers": 7270,
      "Ġturkey": 7271,
      "Ġassistant": 7272,
      "Ġbattles": 7273,
      "Ġadequ": 7274,
      "cut": 7275,
      "hew": 7276,
      "inci": 7277,
      "Ġhole": 7278,
      "lee": 7279,
      "Ġeerie": 7280,
      "Ġstates": 7281,
      "Ġstorm": 7282,
      "ĠHy": 7283,
      "ifying": 7284,
      "ĠFay": 7285,
      "ĠFamily": 7286,
      "aude": 7287,
      "Ġenorm": 7288,
      "Ġperpet": 7289,
      "acre": 7290,
      "eremy": 7291,
      "Ġspots": 7292,
      "ĠIntern": 7293,
      "Ġremo": 7294,
      "Ġtrial": 7295,
      "Ġdialogs": 7296,
      "Ġeleg": 7297,
      "ĠClaire": 7298,
      "Ġguessing": 7299,
      "Ġthrillers": 7300,
      "Ġdrown": 7301,
      "Ġoccup": 7302,
      "Ġmeaningful": 7303,
      "Ġphysically": 7304,
      "Ġafford": 7305,
      "Ġconcerns": 7306,
      "Ġreactions": 7307,
      "Ġhooked": 7308,
      "fire": 7309,
      "gun": 7310,
      "loyd": 7311,
      "only": 7312,
      "Ġtow": 7313,
      "asion": 7314,
      "Ġlur": 7315,
      "Ġnational": 7316,
      "seud": 7317,
      "Ġstiff": 7318,
      "ooby": 7319,
      "ĠBuck": 7320,
      "ĠBAD": 7321,
      "Ġchases": 7322,
      "Ġaliens": 7323,
      "ĠRep": 7324,
      "Ġrhy": 7325,
      "avor": 7326,
      "Ġspy": 7327,
      "ĠVeg": 7328,
      "Ġhappily": 7329,
      "Ġpointed": 7330,
      "Ġnewsp": 7331,
      "Ġsmooth": 7332,
      "rett": 7333,
      "Ġletting": 7334,
      "Ġrestaur": 7335,
      "ĠScar": 7336,
      "Ġdragged": 7337,
      "ĠCarpenter": 7338,
      "ĠBritain": 7339,
      "ĠRoberts": 7340,
      "Ġambig": 7341,
      "horror": 7342,
      "Ġweapon": 7343,
      "Ġcharisma": 7344,
      "ĠUniversal": 7345,
      "Good": 7346,
      "his": 7347,
      "hold": 7348,
      "yre": 7349,
      "Ġtax": 7350,
      "rell": 7351,
      "Ġmont": 7352,
      "ito": 7353,
      "ora": 7354,
      "Ġhiding": 7355,
      "Ġshy": 7356,
      "Ġcha": 7357,
      "ĠDE": 7358,
      "elve": 7359,
      "ĠRee": 7360,
      "ĠRaj": 7361,
      "ĠGoth": 7362,
      "ĠGlover": 7363,
      "ĠEN": 7364,
      "ĠOur": 7365,
      "ĠKen": 7366,
      "Ġguilt": 7367,
      "Ġincons": 7368,
      "ograph": 7369,
      "Ġpresum": 7370,
      "ĠReg": 7371,
      "Ġinnov": 7372,
      "Ġstriking": 7373,
      "ĠGrace": 7374,
      "ĠSchool": 7375,
      "ĠIII": 7376,
      "Ġfolk": 7377,
      "Ġdinner": 7378,
      "Ġaston": 7379,
      "Ġgripping": 7380,
      "Ġingred": 7381,
      "ĠMiike": 7382,
      "ĠEastwood": 7383,
      "ĠMichelle": 7384,
      "?),": 7385,
      "?).": 7386,
      "ELL": 7387,
      "hh": 7388,
      "len": 7389,
      "ype": 7390,
      "Ġafore": 7391,
      "ingu": 7392,
      "ico": 7393,
      "Ġbeating": 7394,
      "Ġreli": 7395,
      "urse": 7396,
      "uristic": 7397,
      "ĠMann": 7398,
      "Ġnoted": 7399,
      "unn": 7400,
      "quis": 7401,
      "Ġmyst": 7402,
      "ogan": 7403,
      "Ġunderground": 7404,
      "ĠAlong": 7405,
      "Ġscreenwriter": 7406,
      "gging": 7407,
      "ĠBlair": 7408,
      "iamond": 7409,
      "Ġswitch": 7410,
      "ĠSomeone": 7411,
      "Ġsolve": 7412,
      "Ġstunts": 7413,
      "Ġrobot": 7414,
      "Ġcolorful": 7415,
      "Ġprotagonists": 7416,
      "ĠAndrews": 7417,
      "Ġthousands": 7418,
      "Ġtribute": 7419,
      "Ġdaily": 7420,
      "Ġunforgettable": 7421,
      "ĠObviously": 7422,
      "Ġportrait": 7423,
      "hard": 7424,
      "mit": 7425,
      "rep": 7426,
      "atisf": 7427,
      "eni": 7428,
      "Ġhill": 7429,
      "Ġtoile": 7430,
      "Ġdump": 7431,
      "Ġdomin": 7432,
      "lear": 7433,
      "adows": 7434,
      "ĠAud": 7435,
      "amie": 7436,
      "ĠCow": 7437,
      "Ġfranchise": 7438,
      "Ġplague": 7439,
      "ĠPoint": 7440,
      "ĠJac": 7441,
      "Ġrat": 7442,
      "Ġrushed": 7443,
      "redict": 7444,
      "acked": 7445,
      "icker": 7446,
      "Ġknife": 7447,
      "Ġqueen": 7448,
      "Ġpoet": 7449,
      "erty": 7450,
      "Ġagg": 7451,
      "Ġentry": 7452,
      "Ġripped": 7453,
      "ocal": 7454,
      "Ġcovers": 7455,
      "ographic": 7456,
      "ĠFriend": 7457,
      "Ġdramas": 7458,
      "Ġsket": 7459,
      "ĠSpielberg": 7460,
      "ologist": 7461,
      "Ġinfamous": 7462,
      "Ġironic": 7463,
      "ANT": 7464,
      "Ġsexuality": 7465,
      "Ġconnected": 7466,
      "Ġrepeat": 7467,
      "Ġspecific": 7468,
      "ĠMuslim": 7469,
      "Ġracism": 7470,
      "Ġcrafted": 7471,
      "Ġtroubled": 7472,
      "ĠKarloff": 7473,
      "ĠCusack": 7474,
      "Ġincoherent": 7475,
      "Ġhorses": 7476,
      "Director": 7477,
      "ipping": 7478,
      "ila": 7479,
      "ĠHeston": 7480,
      "Ġjungle": 7481,
      "Ġunre": 7482,
      "ĠEnd": 7483,
      "Ġtricks": 7484,
      "Ġspread": 7485,
      "Ġ24": 7486,
      "ĠDev": 7487,
      "ĠReyn": 7488,
      "ĠClass": 7489,
      "ĠClub": 7490,
      "ĠIsrael": 7491,
      "Ġdevil": 7492,
      "ambo": 7493,
      "ambling": 7494,
      "afia": 7495,
      "ĠNightmare": 7496,
      "rified": 7497,
      "Ġachieved": 7498,
      "Ġidiotic": 7499,
      "ĠBurton": 7500,
      "Ġsearching": 7501,
      "Ġsplendid": 7502,
      "ĠArnold": 7503,
      "30": 7504,
      "BLE": 7505,
      "cies": 7506,
      "dated": 7507,
      "Ġsaves": 7508,
      "Ġoil": 7509,
      "Ġfra": 7510,
      "Ġfish": 7511,
      "Ġfirm": 7512,
      "orc": 7513,
      "oni": 7514,
      "onse": 7515,
      "Ġtoss": 7516,
      "Ġpseud": 7517,
      "Ġinfect": 7518,
      "Ġlying": 7519,
      "Ġgather": 7520,
      "Ġguts": 7521,
      "Ġeconom": 7522,
      "ctions": 7523,
      "Ġstated": 7524,
      "Ġupper": 7525,
      "ĠBach": 7526,
      "ĠConsider": 7527,
      "ĠHot": 7528,
      "ĠWater": 7529,
      "Ġjerk": 7530,
      "Ġplant": 7531,
      "Ġvent": 7532,
      "ĠLand": 7533,
      "ĠLaura": 7534,
      "udson": 7535,
      "ellar": 7536,
      "ĠKrist": 7537,
      "ĠKirk": 7538,
      "plots": 7539,
      "ishment": 7540,
      "Ġproof": 7541,
      "Ġcarefully": 7542,
      "Ġcrack": 7543,
      "Ġdealt": 7544,
      "uclear": 7545,
      "Ġsentiment": 7546,
      "Ġchecking": 7547,
      "Ġlimit": 7548,
      "ĠActing": 7549,
      "Ġ1940": 7550,
      "Ġsurrounding": 7551,
      "ĠDawson": 7552,
      "13": 7553,
      "UL": 7554,
      "den": 7555,
      "hoe": 7556,
      "rich": 7557,
      "such": 7558,
      "vest": 7559,
      "Ġwanna": 7560,
      "Ġcere": 7561,
      "asingly": 7562,
      "ĠMid": 7563,
      "Ġwebs": 7564,
      "cket": 7565,
      "ĠLake": 7566,
      "ĠLloyd": 7567,
      "ĠFu": 7568,
      "ĠFire": 7569,
      "Ġune": 7570,
      "ogue": 7571,
      "ĠVon": 7572,
      "ĠBrid": 7573,
      "ĠBrook": 7574,
      "Ġexplicit": 7575,
      "ointed": 7576,
      "Ġeasier": 7577,
      "Ġcountless": 7578,
      "Ġtransfer": 7579,
      "Ġcomplaint": 7580,
      "ĠCheck": 7581,
      "rifice": 7582,
      "Ġ:)": 7583,
      "Ġessence": 7584,
      "Ġurban": 7585,
      "Ġdisappear": 7586,
      "ĠPlanet": 7587,
      "ĠAstaire": 7588,
      "ĠCurtis": 7589,
      "Ġvirus": 7590,
      "Ġdisagree": 7591,
      "Tw": 7592,
      "hs": 7593,
      "nes": 7594,
      "Ġfired": 7595,
      "atures": 7596,
      "brick": 7597,
      "imum": 7598,
      "ĠAge": 7599,
      "ĠMom": 7600,
      "ĠMild": 7601,
      "ĠDerek": 7602,
      "Ġkicks": 7603,
      "aka": 7604,
      "aky": 7605,
      "Ġalt": 7606,
      "ĠPort": 7607,
      "ĠFather": 7608,
      "ĠFalk": 7609,
      "Ġintention": 7610,
      "ĠGRE": 7611,
      "inder": 7612,
      "Ġgoal": 7613,
      "....<": 7614,
      "Ġpreach": 7615,
      "thew": 7616,
      "existent": 7617,
      "ĠReal": 7618,
      "Ġmessages": 7619,
      "Ġpleased": 7620,
      "Ġclosely": 7621,
      "oilers": 7622,
      "Ġhonor": 7623,
      "Ġshoots": 7624,
      "Ġ2006": 7625,
      "Ġstrangely": 7626,
      "EAD": 7627,
      "Ġmillions": 7628,
      "Ġofficial": 7629,
      "Ġcontinued": 7630,
      "Ġsuspects": 7631,
      "minute": 7632,
      "Ġsplit": 7633,
      "Ġburst": 7634,
      "ĠHelen": 7635,
      "Ġvulner": 7636,
      "Ġinevitable": 7637,
      "Ġabrupt": 7638,
      "David": 7639,
      "ĠMeanwhile": 7640,
      ",,": 7641,
      "book": 7642,
      "fact": 7643,
      "hill": 7644,
      "hey": 7645,
      "Ġwreck": 7646,
      "orrow": 7647,
      "Ġthread": 7648,
      "arter": 7649,
      "ĠIra": 7650,
      "Ġgal": 7651,
      "allo": 7652,
      "ĠBL": 7653,
      "ĠBook": 7654,
      "ĠCry": 7655,
      "ĠLos": 7656,
      "ĠLane": 7657,
      "Ġramp": 7658,
      "ĠGabr": 7659,
      "plete": 7660,
      "Ġaged": 7661,
      "Ġworkers": 7662,
      "ĠChuck": 7663,
      "Ġperforming": 7664,
      "Ġattraction": 7665,
      "Ġresour": 7666,
      "why": 7667,
      "ĠShep": 7668,
      "Ġexplore": 7669,
      "Ġelev": 7670,
      "Ġadvance": 7671,
      "Ġbrilliance": 7672,
      "ĠGeor": 7673,
      "Ġtechniques": 7674,
      "ĠLucy": 7675,
      "Ġboredom": 7676,
      "Ġkidnapped": 7677,
      "Ġstretch": 7678,
      "accur": 7679,
      "Ġcousin": 7680,
      "Ġultra": 7681,
      "Ġsuperficial": 7682,
      "Ġexercise": 7683,
      "OK": 7684,
      "iently": 7685,
      "Ġtag": 7686,
      "Ġsons": 7687,
      "Ġwave": 7688,
      "Ġfianc": 7689,
      "esc": 7690,
      "Ġetern": 7691,
      "ĠTem": 7692,
      "idel": 7693,
      "ĠAT": 7694,
      "Ġsevent": 7695,
      "ĠMA": 7696,
      "ĠMass": 7697,
      "Ġnotch": 7698,
      "ĠCel": 7699,
      "ĠCook": 7700,
      "ĠCatholic": 7701,
      "anting": 7702,
      "ĠRand": 7703,
      "udos": 7704,
      "Ġfeed": 7705,
      "ĠKaz": 7706,
      "mann": 7707,
      "Ġposter": 7708,
      "Ġprecise": 7709,
      "Ġtender": 7710,
      "Ġspending": 7711,
      "Ġgrows": 7712,
      "ords": 7713,
      "Ġcreation": 7714,
      "Ġcreators": 7715,
      "......": 7716,
      "ierce": 7717,
      "Ġdrags": 7718,
      "Ġthrills": 7719,
      "Ġimportantly": 7720,
      "ĠDoctor": 7721,
      "chell": 7722,
      "Ġdancer": 7723,
      "spector": 7724,
      "Ġprofession": 7725,
      "Ġwalls": 7726,
      "Ġdropped": 7727,
      "Ġsurrounded": 7728,
      "Ġassociated": 7729,
      "Ġvacation": 7730,
      "Ġendearing": 7731,
      "Ġtremendous": 7732,
      "Ġhorrendous": 7733,
      "70": 7734,
      "tte": 7735,
      "via": 7736,
      "Ġthirty": 7737,
      "ĠAir": 7738,
      "ĠWould": 7739,
      "ifting": 7740,
      "acters": 7741,
      "Ġallowing": 7742,
      "Ġalike": 7743,
      "ĠRuth": 7744,
      "ĠFel": 7745,
      "Ġfears": 7746,
      "Ġshower": 7747,
      "Ġcrimes": 7748,
      "issy": 7749,
      "Ġterrit": 7750,
      "Ġappearing": 7751,
      "Ġbucks": 7752,
      "Ġconsum": 7753,
      "Ġinstantly": 7754,
      "Ġdetract": 7755,
      "Ġbasement": 7756,
      "Ġhopefully": 7757,
      "Ġimportance": 7758,
      "Ġnonetheless": 7759,
      "Ġ2001": 7760,
      "Ġfourth": 7761,
      "Ġprogress": 7762,
      "ĠSeriously": 7763,
      "ĠIran": 7764,
      "Ġrepresents": 7765,
      "Ġcompetent": 7766,
      "Ġoccurs": 7767,
      "ĠScience": 7768,
      "Ġphotographer": 7769,
      "Ġfortune": 7770,
      "Ġincreasingly": 7771,
      "ĠCinema": 7772,
      "ĠTitanic": 7773,
      "ĠSatan": 7774,
      "Ġcrisis": 7775,
      "original": 7776,
      "Ġlibrary": 7777,
      "Ġinvisible": 7778,
      "ĠReynolds": 7779,
      "Per": 7780,
      "Will": 7781,
      "rd": 7782,
      "Ġtons": 7783,
      "Ġwicked": 7784,
      "Ġmes": 7785,
      "Ġcave": 7786,
      "Ġinaccur": 7787,
      "ĠImp": 7788,
      "entin": 7789,
      "Ġhes": 7790,
      "ĠSuch": 7791,
      "ĠMU": 7792,
      "antis": 7793,
      "agin": 7794,
      "ĠRoll": 7795,
      "ĠNavy": 7796,
      "odes": 7797,
      "Ġquote": 7798,
      "Ġrealise": 7799,
      "Ġenters": 7800,
      "Ġrain": 7801,
      "Ġchildish": 7802,
      "Ġworthless": 7803,
      "Ġpresident": 7804,
      "Ġrelevant": 7805,
      "Ġuseless": 7806,
      "ĠClint": 7807,
      "Ġstronger": 7808,
      "ĠElvis": 7809,
      "Ġadapted": 7810,
      "Ġhomage": 7811,
      "Ġrequires": 7812,
      "Ġthousand": 7813,
      "Ġtorment": 7814,
      "ĠCameron": 7815,
      "Ġphenomen": 7816,
      "El": 7817,
      "Tr": 7818,
      "bal": 7819,
      "cont": 7820,
      "ez": 7821,
      "pieces": 7822,
      "woman": 7823,
      "Ġwann": 7824,
      "Ġfaced": 7825,
      "Ġhitting": 7826,
      "Ġdust": 7827,
      "Ġnuts": 7828,
      "alo": 7829,
      "ĠTen": 7830,
      "Ġmoon": 7831,
      "Ġstood": 7832,
      "ĠAcc": 7833,
      "ĠSorry": 7834,
      "ĠBurns": 7835,
      "ĠHug": 7836,
      "ĠWitch": 7837,
      "ĠWoman": 7838,
      "Ġjack": 7839,
      "usions": 7840,
      "agan": 7841,
      "ĠLam": 7842,
      "ĠRing": 7843,
      "ĠFin": 7844,
      "Ġruth": 7845,
      "osing": 7846,
      "ortal": 7847,
      "Ġunple": 7848,
      "igan": 7849,
      "ĠKane": 7850,
      "ĠAndre": 7851,
      "ĠWhatever": 7852,
      "Ġattached": 7853,
      "Ġbelieving": 7854,
      "Ġsuburb": 7855,
      "Ġfarm": 7856,
      "Ġelsewhere": 7857,
      "Ġattempted": 7858,
      "Ġlacked": 7859,
      "Ġconclud": 7860,
      "pses": 7861,
      "Ġselfish": 7862,
      "unky": 7863,
      "ĠNeed": 7864,
      "Ġacceptable": 7865,
      "Ġmadness": 7866,
      "Ġrobber": 7867,
      "Ġidentify": 7868,
      "Ġmedium": 7869,
      "Ġpacked": 7870,
      "itizen": 7871,
      "Ġoverlooked": 7872,
      "Ġvideos": 7873,
      "ĠBakshi": 7874,
      "Maybe": 7875,
      "iation": 7876,
      "iber": 7877,
      "lon": 7878,
      "ped": 7879,
      "too": 7880,
      "Ġwra": 7881,
      "Ġbik": 7882,
      "Ġcarn": 7883,
      "icing": 7884,
      "utch": 7885,
      "ĠTur": 7886,
      "ĠMother": 7887,
      "ĠHudson": 7888,
      "ushes": 7889,
      "Ġalb": 7890,
      "ĠPG": 7891,
      "ĠRub": 7892,
      "ĠRitter": 7893,
      "ĠGive": 7894,
      "quel": 7895,
      "ĠThink": 7896,
      "Ġclues": 7897,
      "Ġimit": 7898,
      "obi": 7899,
      "Ġbridge": 7900,
      "ructed": 7901,
      "Ġstranger": 7902,
      "kshay": 7903,
      "ĠBlue": 7904,
      "ixon": 7905,
      "AND": 7906,
      "urious": 7907,
      "Ġprojects": 7908,
      "Ġattracted": 7909,
      "Ġraped": 7910,
      "ĠBobby": 7911,
      "handed": 7912,
      "Ġaccomplished": 7913,
      "Ġcowboy": 7914,
      "Ġcharismatic": 7915,
      "Ġreunion": 7916,
      "ĠLeonard": 7917,
      "Ġnetwork": 7918,
      "Ġrevelation": 7919,
      "Ġthroat": 7920,
      "Ġaforementioned": 7921,
      "Con": 7922,
      "Tit": 7923,
      "kick": 7924,
      "Ġought": 7925,
      "nda": 7926,
      "Ġfitting": 7927,
      "Ġbold": 7928,
      "itchell": 7929,
      "Ġdire": 7930,
      "ĠIce": 7931,
      "oto": 7932,
      "ĠBus": 7933,
      "race": 7934,
      "ĠCre": 7935,
      "ĠWind": 7936,
      "acted": 7937,
      "Ġdepe": 7938,
      "Ġintentions": 7939,
      "ĠJake": 7940,
      "ĠGen": 7941,
      "Ġtimeless": 7942,
      "obe": 7943,
      "Ġflight": 7944,
      "Ġkillings": 7945,
      "ibl": 7946,
      "Ġaddict": 7947,
      "Ġletter": 7948,
      "Ġrestra": 7949,
      "Ġstyl": 7950,
      "Ġcorner": 7951,
      "Ġmistaken": 7952,
      "Ġinspiring": 7953,
      "Ġredemption": 7954,
      "Ġestate": 7955,
      "Ġinvestigation": 7956,
      "Ġphotographed": 7957,
      "Ġindividuals": 7958,
      "ĠSecret": 7959,
      "ĠCanada": 7960,
      "ĠAustralia": 7961,
      "Ġinexplic": 7962,
      "Ġcabin": 7963,
      "Ġbreasts": 7964,
      "Ġconsequences": 7965,
      "works": 7966,
      "AIN": 7967,
      "Gr": 7968,
      "Jack": 7969,
      "cil": 7970,
      "ux": 7971,
      "Ġwake": 7972,
      "isions": 7973,
      "Ġbust": 7974,
      "Ġpushed": 7975,
      "Ġdare": 7976,
      "ĠId": 7977,
      "Ġgift": 7978,
      "Ġnuclear": 7979,
      "ala": 7980,
      "ĠAz": 7981,
      "roy": 7982,
      "urai": 7983,
      "ĠCox": 7984,
      "Ġchasing": 7985,
      "agn": 7986,
      "igo": 7987,
      "elli": 7988,
      "Ġprec": 7989,
      "Ġgrou": 7990,
      "riller": 7991,
      "Ġinsist": 7992,
      "Ġartific": 7993,
      "isms": 7994,
      "Ġhearts": 7995,
      "ĠSpir": 7996,
      "ĠSpike": 7997,
      "Ġgenerous": 7998,
      "Ġriding": 7999,
      "Ġbusy": 8000,
      "Ġdocumentaries": 8001,
      "Ġpulling": 8002,
      "Ġpleasantly": 8003,
      "ĠConn": 8004,
      "Ġstrip": 8005,
      "ĠComedy": 8006,
      "ĠGolden": 8007,
      "Ġinsulting": 8008,
      "Ġcuriosity": 8009,
      "Ġmotivation": 8010,
      "Ġwondered": 8011,
      "Ġphilosoph": 8012,
      "Ġfifteen": 8013,
      "ĠDorothy": 8014,
      "ĠFrancisco": 8015,
      "ĠIndeed": 8016,
      "Ġinstallment": 8017,
      "Ġunpleasant": 8018,
      "gain": 8019,
      "hattan": 8020,
      "iors": 8021,
      "pse": 8022,
      "ran": 8023,
      "sl": 8024,
      "aris": 8025,
      "Ġgee": 8026,
      "stop": 8027,
      "entric": 8028,
      "ĠAlf": 8029,
      "rig": 8030,
      "ĠMach": 8031,
      "ĠDom": 8032,
      "Ġjew": 8033,
      "ĠLum": 8034,
      "ĠGal": 8035,
      "ĠEva": 8036,
      "Ġwatches": 8037,
      "erto": 8038,
      "new": 8039,
      "Ġrocks": 8040,
      "Ġcharacterization": 8041,
      "ertainly": 8042,
      "Ġfactory": 8043,
      "Ġdirectorial": 8044,
      "Ġpersona": 8045,
      "icularly": 8046,
      "ĠShaw": 8047,
      "Ġabsorb": 8048,
      "Ġdarker": 8049,
      "Ġadmitted": 8050,
      "Ġtechnically": 8051,
      "Ġdestruction": 8052,
      "Ġslightest": 8053,
      "Ġresponse": 8054,
      "Ġprofessor": 8055,
      "Ġdraws": 8056,
      "Ġscientists": 8057,
      "Ġhype": 8058,
      "ĠCraven": 8059,
      "Ġmelodramatic": 8060,
      "ĠNEVER": 8061,
      "ĠKorean": 8062,
      "Ġjealous": 8063,
      "rehensible": 8064,
      "Ġsophisticated": 8065,
      "Ġtoilet": 8066,
      "'.<": 8067,
      "En": 8068,
      "lines": 8069,
      "nic": 8070,
      "itchen": 8071,
      "ata": 8072,
      "Ġpush": 8073,
      "icop": 8074,
      "ĠBol": 8075,
      "ĠMitch": 8076,
      "ĠCont": 8077,
      "Ġchap": 8078,
      "ĠPoor": 8079,
      "think": 8080,
      "ĠJer": 8081,
      "ĠEst": 8082,
      "ĠKap": 8083,
      "ĠKath": 8084,
      "anski": 8085,
      "Ġgrasp": 8086,
      "ĠAlmost": 8087,
      "Ġsexually": 8088,
      "Ġsuperhero": 8089,
      "ĠScooby": 8090,
      "ĠUncle": 8091,
      "veloped": 8092,
      "Ġconvol": 8093,
      "ĠCarter": 8094,
      "Ġlisted": 8095,
      "ĠPlay": 8096,
      "Ġloser": 8097,
      "Ġlabor": 8098,
      "Ġbeaten": 8099,
      "Ġachievement": 8100,
      "Ġsacrifice": 8101,
      "====": 8102,
      "Ġholiday": 8103,
      "Ġexaggerated": 8104,
      "ĠPersonally": 8105,
      "writers": 8106,
      "ĠMildred": 8107,
      "cula": 8108,
      "yc": 8109,
      "Ġsail": 8110,
      "Ġfrag": 8111,
      "Ġmaid": 8112,
      "ingers": 8113,
      "Ġpig": 8114,
      "Ġnut": 8115,
      "Ġbeast": 8116,
      "ĠAh": 8117,
      "rior": 8118,
      "ĠBoll": 8119,
      "ĠCould": 8120,
      "ĠCatherine": 8121,
      "Ġcomics": 8122,
      "Ġworried": 8123,
      "Ġconven": 8124,
      "ables": 8125,
      "Ġdisease": 8126,
      "Ġbeings": 8127,
      "Ġsubplot": 8128,
      "Ġstrang": 8129,
      "Ġaccused": 8130,
      "Ġfarce": 8131,
      "Ġhandful": 8132,
      "ĠArm": 8133,
      "ĠCarrey": 8134,
      "ĠGrade": 8135,
      "ĠElvira": 8136,
      "Ġflawless": 8137,
      "Ġstrike": 8138,
      "ventually": 8139,
      "Ġjudg": 8140,
      "Ġdollar": 8141,
      "Ġreplace": 8142,
      "Unfortunately": 8143,
      "ĠLaurel": 8144,
      "Ġwonders": 8145,
      "Ġresolution": 8146,
      "âĢĻ": 8147,
      "Ġreduced": 8148,
      "Ġargument": 8149,
      "ĠPicture": 8150,
      "Ġrepetitive": 8151,
      "Ġsloppy": 8152,
      "Despite": 8153,
      "Ex": 8154,
      "ds": 8155,
      "hour": 8156,
      "rase": 8157,
      "uity": 8158,
      "video": 8159,
      "Ġsam": 8160,
      "Ġsag": 8161,
      "Ġwrap": 8162,
      "Ġcared": 8163,
      "oric": 8164,
      "Ġhood": 8165,
      "Ġtool": 8166,
      "also": 8167,
      "Ġreached": 8168,
      "ado": 8169,
      "ĠSally": 8170,
      "keys": 8171,
      "Ġselect": 8172,
      "ĠMupp": 8173,
      "raw": 8174,
      "Ġshout": 8175,
      "Ġexch": 8176,
      "Ġvicious": 8177,
      "ĠPur": 8178,
      "istically": 8179,
      "ĠNet": 8180,
      "Ġunsett": 8181,
      "ĠEX": 8182,
      "Ġnoble": 8183,
      "Ġoverdone": 8184,
      "type": 8185,
      "obal": 8186,
      "anging": 8187,
      "Ġslim": 8188,
      "ĠUltim": 8189,
      "Ġcompassion": 8190,
      "Ġdiff": 8191,
      "Ġmenacing": 8192,
      "Ġassault": 8193,
      "ĠDavies": 8194,
      "shine": 8195,
      "Ġstealing": 8196,
      "Ġillustr": 8197,
      "Ġplanning": 8198,
      "Ġengine": 8199,
      "Ġsuperbly": 8200,
      "bsolute": 8201,
      "Ġbleak": 8202,
      "Ġaimed": 8203,
      "Ġencounters": 8204,
      "ĠBeatty": 8205,
      "Ġlandscape": 8206,
      "Ġstrictly": 8207,
      "Ġuninspired": 8208,
      "Ġdignity": 8209,
      "hoeven": 8210,
      "Finally": 8211,
      "bidden": 8212,
      "corn": 8213,
      "van": 8214,
      "Ġ=": 8215,
      "inent": 8216,
      "isation": 8217,
      "Ġcandy": 8218,
      "Ġhung": 8219,
      "Ġhunting": 8220,
      "Ġpin": 8221,
      "Ġdict": 8222,
      "Ġdentist": 8223,
      "Ġnine": 8224,
      "Ġnail": 8225,
      "stars": 8226,
      "iere": 8227,
      "Ġheight": 8228,
      "seen": 8229,
      "ĠSU": 8230,
      "ĠBart": 8231,
      "ĠMa": 8232,
      "ĠMade": 8233,
      "Ġareas": 8234,
      "Ġchamp": 8235,
      "agine": 8236,
      "estic": 8237,
      "Ġoutcome": 8238,
      "ĠJosh": 8239,
      "ĠGrey": 8240,
      "ĠEver": 8241,
      "Ġprev": 8242,
      "because": 8243,
      "Ġreasonably": 8244,
      "Ġborrow": 8245,
      "Ġtalked": 8246,
      "Ġeditor": 8247,
      "ĠScr": 8248,
      "ĠRobb": 8249,
      "Ġmorality": 8250,
      "Ġopposed": 8251,
      "Ġstruck": 8252,
      "Ġangel": 8253,
      "ĠPrinc": 8254,
      "Ġrevealing": 8255,
      "Ġsecretary": 8256,
      "Ġobser": 8257,
      "Ġignored": 8258,
      "Ġbriefly": 8259,
      "ĠPalma": 8260,
      "Ġcommercials": 8261,
      "Ġunintentionally": 8262,
      "Ġincompet": 8263,
      "Ġobscure": 8264,
      "Ġmiserably": 8265,
      "Ġticket": 8266,
      "ĠBrosnan": 8267,
      "Ġelderly": 8268,
      "ĠGriffith": 8269,
      "Ġrestaurant": 8270,
      "Ġconvoluted": 8271,
      "HING": 8272,
      "Where": 8273,
      "bell": 8274,
      "paced": 8275,
      "uate": 8276,
      "Ġcorn": 8277,
      "oned": 8278,
      "Ġhipp": 8279,
      "Ġpa": 8280,
      "Ġgut": 8281,
      "Ġgif": 8282,
      "otal": 8283,
      "verted": 8284,
      "imated": 8285,
      "sex": 8286,
      "Ġstone": 8287,
      "iders": 8288,
      "ĠABC": 8289,
      "ĠMas": 8290,
      "terday": 8291,
      "Ġsuits": 8292,
      "Ġwhoever": 8293,
      "Ġvenge": 8294,
      "ophy": 8295,
      "Ġnep": 8296,
      "ĠJeremy": 8297,
      "uments": 8298,
      "Ġtrade": 8299,
      "ĠKay": 8300,
      "eps": 8301,
      "Ġspooky": 8302,
      "Ġtea": 8303,
      "Ġremaining": 8304,
      "Ġconserv": 8305,
      "grade": 8306,
      "oiler": 8307,
      "Ġdevast": 8308,
      "ĠFilms": 8309,
      "Ġlifetime": 8310,
      "Ġdiscussion": 8311,
      "ĠDuke": 8312,
      "Ġrepeatedly": 8313,
      "Ġbathroom": 8314,
      "ĠVerhoeven": 8315,
      "Robert": 8316,
      "ĠAltman": 8317,
      "Ġsubsequent": 8318,
      "Ġelaborate": 8319,
      "Here": 8320,
      "Se": 8321,
      "See": 8322,
      "SPOILERS": 8323,
      "box": 8324,
      "cul": 8325,
      "dri": 8326,
      "got": 8327,
      "mail": 8328,
      "rer": 8329,
      "ato": 8330,
      "Ġcried": 8331,
      "Ġhunt": 8332,
      "Ġdre": 8333,
      "Ġinher": 8334,
      "Ġsticks": 8335,
      "ĠMet": 8336,
      "ĠHank": 8337,
      "ĠDri": 8338,
      "Ġabilities": 8339,
      "ĠPu": 8340,
      "ĠFour": 8341,
      "ĠFisher": 8342,
      "igr": 8343,
      "plo": 8344,
      "Ġprecious": 8345,
      "Ġdisplays": 8346,
      "Ġblank": 8347,
      "ĠHeart": 8348,
      "Ġ21": 8349,
      "Ġembr": 8350,
      "ortunately": 8351,
      "Ġdistant": 8352,
      "Ġdefinite": 8353,
      "Ġfailing": 8354,
      "onym": 8355,
      "Ġdrivel": 8356,
      "Ġdemands": 8357,
      "Ġpatri": 8358,
      "Ġmovements": 8359,
      "Ġmarks": 8360,
      "Ġengaged": 8361,
      "Ġforgive": 8362,
      "ĠMorris": 8363,
      "Ġgrandmother": 8364,
      "ĠGoldberg": 8365,
      "ĠSeries": 8366,
      "Ġreceive": 8367,
      "Donald": 8368,
      "Ġelectric": 8369,
      "Ġingen": 8370,
      "Ġsedu": 8371,
      "ĠKubrick": 8372,
      "Ġhysterical": 8373,
      "Ġpsychiatrist": 8374,
      "ĠHunter": 8375,
      "CE": 8376,
      "Dan": 8377,
      "Rich": 8378,
      "Tom": 8379,
      "gers": 8380,
      "tain": 8381,
      "Ġ_": 8382,
      "Ġsize": 8383,
      "erning": 8384,
      "Ġhire": 8385,
      "aning": 8386,
      "icol": 8387,
      "Ġgar": 8388,
      "Ġbeer": 8389,
      "Ġbefriend": 8390,
      "Ġmock": 8391,
      "Ġasse": 8392,
      "urance": 8393,
      "ĠMill": 8394,
      "ĠHas": 8395,
      "Ġshall": 8396,
      "Ġchain": 8397,
      "Ġchances": 8398,
      "ĠDomin": 8399,
      "Ġexhib": 8400,
      "olves": 8401,
      "ĠPan": 8402,
      "ĠPretty": 8403,
      "ĠRome": 8404,
      "ĠReturn": 8405,
      "ĠGun": 8406,
      "ĠNorm": 8407,
      "aws": 8408,
      "Ġblast": 8409,
      "ccentric": 8410,
      "wered": 8411,
      "ĠJoey": 8412,
      "Ġappalling": 8413,
      "Ġscripted": 8414,
      "Ġburied": 8415,
      "Ġhelicop": 8416,
      "ahl": 8417,
      "Ġmisses": 8418,
      "ĠScot": 8419,
      "ĠSeason": 8420,
      "Ġproviding": 8421,
      "Ġbrand": 8422,
      "194": 8423,
      "Ġpicking": 8424,
      "ĠPeck": 8425,
      "Ġreturning": 8426,
      "Ġreturned": 8427,
      "Ġclimb": 8428,
      "Ġstrikes": 8429,
      "Ġrequire": 8430,
      "Ġimproved": 8431,
      "Ġwesterns": 8432,
      "Ġaffected": 8433,
      "Ġintrigued": 8434,
      "Ġlogical": 8435,
      "ĠNevertheless": 8436,
      "Ġchoreography": 8437,
      "Ġinvolvement": 8438,
      "Ġinhabit": 8439,
      "Like": 8440,
      "Pe": 8441,
      "fight": 8442,
      "iar": 8443,
      "rink": 8444,
      "town": 8445,
      "Ġ..": 8446,
      "Ġfoul": 8447,
      "Ġgimm": 8448,
      "Ġnause": 8449,
      "aled": 8450,
      "ilted": 8451,
      "Ġstead": 8452,
      "ĠAle": 8453,
      "ĠSC": 8454,
      "ĠSaw": 8455,
      "ĠMitchell": 8456,
      "ulci": 8457,
      "agney": 8458,
      "ĠPam": 8459,
      "ĠLily": 8460,
      "ĠFarre": 8461,
      "ĠGil": 8462,
      "ĠThanks": 8463,
      "Ġnoise": 8464,
      "izard": 8465,
      "Ġhorrid": 8466,
      "Ġsettle": 8467,
      "Ġreluct": 8468,
      "ERE": 8469,
      "cover": 8470,
      "ĠMystery": 8471,
      "Ġtales": 8472,
      "ĠManhattan": 8473,
      "Ġdevoted": 8474,
      "Ġobserv": 8475,
      "Ġscreams": 8476,
      "Ġblend": 8477,
      "Ġambitious": 8478,
      "related": 8479,
      "Ġfatal": 8480,
      "ĠAlexander": 8481,
      "ĠHamilton": 8482,
      "Ġcompetition": 8483,
      "Ġdefend": 8484,
      "Ġunwatch": 8485,
      "Ġduo": 8486,
      "ĠSilver": 8487,
      "Ġgradually": 8488,
      "ĠRomero": 8489,
      "Ġoverwhelming": 8490,
      "Ġcaptivating": 8491,
      "ĠIreland": 8492,
      "Ġmagazine": 8493,
      "ketball": 8494,
      "Ġunbearable": 8495,
      "ĠGothic": 8496,
      "Ġterritory": 8497,
      "\";": 8498,
      "ho": 8499,
      "lers": 8500,
      "ni": 8501,
      "Ġ;": 8502,
      "Ġsaf": 8503,
      "Ġsales": 8504,
      "Ġbill": 8505,
      "itar": 8506,
      "itches": 8507,
      "Ġcul": 8508,
      "Ġthrew": 8509,
      "ician": 8510,
      "ĠTodd": 8511,
      "verty": 8512,
      "ione": 8513,
      "Ġnotorious": 8514,
      "ĠCost": 8515,
      "ĠHan": 8516,
      "emark": 8517,
      "Ġextended": 8518,
      "ĠRes": 8519,
      "ĠRather": 8520,
      "ĠRoth": 8521,
      "Ġconve": 8522,
      "ptic": 8523,
      "ĠOz": 8524,
      "eller": 8525,
      "Ġargue": 8526,
      "Ġsport": 8527,
      "ipes": 8528,
      "weight": 8529,
      "Ġstring": 8530,
      "nery": 8531,
      "oviet": 8532,
      "ĠBlake": 8533,
      "Ġsadness": 8534,
      "Ġcollabor": 8535,
      "196": 8536,
      "ĠNext": 8537,
      "Ġcombat": 8538,
      "Still": 8539,
      "Ġescaped": 8540,
      "Ġburned": 8541,
      "ĠJesse": 8542,
      "minded": 8543,
      "Ġarrested": 8544,
      "ĠFlorida": 8545,
      "ĠFranco": 8546,
      "Ġconspiracy": 8547,
      "Ġnewspaper": 8548,
      "Ġgroups": 8549,
      "OST": 8550,
      "SS": 8551,
      "makers": 8552,
      "Ġack": 8553,
      "enes": 8554,
      "Ġlake": 8555,
      "ications": 8556,
      "Ġasp": 8557,
      "cend": 8558,
      "ĠSN": 8559,
      "ĠMars": 8560,
      "ĠCagney": 8561,
      "ĠHop": 8562,
      "Ġfrustrated": 8563,
      "Ġrow": 8564,
      "ortion": 8565,
      "Ġload": 8566,
      "Ġpoverty": 8567,
      "Ġroot": 8568,
      "aware": 8569,
      "Ġrelent": 8570,
      "Ġreasonable": 8571,
      "Ġliking": 8572,
      "Ġfancy": 8573,
      "Ġdistance": 8574,
      "oubted": 8575,
      "Ġpopulation": 8576,
      "Ġiron": 8577,
      "Ġantics": 8578,
      "ĠIndians": 8579,
      "Ġilleg": 8580,
      "Ġnarrator": 8581,
      "Ġproducing": 8582,
      "********": 8583,
      "udden": 8584,
      "Ġrespond": 8585,
      "ĠWoods": 8586,
      "Ġrecognized": 8587,
      "Ġrapid": 8588,
      "Ġarrive": 8589,
      "Ġbullets": 8590,
      "Ġinvestigate": 8591,
      "ĠBerg": 8592,
      "ffee": 8593,
      "opsis": 8594,
      "Ġsymbolism": 8595,
      "Ġresembles": 8596,
      "Ġdynamic": 8597,
      "ĠTurner": 8598,
      "Ġingredients": 8599,
      "redictable": 8600,
      "Ġwebsite": 8601,
      "ĠFelix": 8602,
      "Ġacknow": 8603,
      "Most": 8604,
      "jointed": 8605,
      "la": 8606,
      "wen": 8607,
      "ĠâĢ": 8608,
      "Ġtires": 8609,
      "Ġwack": 8610,
      "Ġmaker": 8611,
      "Ġhates": 8612,
      "Ġtoy": 8613,
      "Ġpiano": 8614,
      "Ġinform": 8615,
      "Ġ/>'": 8616,
      "ido": 8617,
      "ĠSab": 8618,
      "ĠMiles": 8619,
      "Ġnotes": 8620,
      "Ġnotably": 8621,
      "ĠCher": 8622,
      "ĠHind": 8623,
      "ĠRiver": 8624,
      "ĠGadget": 8625,
      "Ġuneven": 8626,
      "ĠEyre": 8627,
      "ablish": 8628,
      "Ġpretend": 8629,
      "Ġpartly": 8630,
      "Ġhorrors": 8631,
      "Ġrive": 8632,
      "atingly": 8633,
      "Ġgenres": 8634,
      "Ġchest": 8635,
      "lik": 8636,
      "Ġgotta": 8637,
      "ographed": 8638,
      "Ġportion": 8639,
      "lands": 8640,
      "Ġ45": 8641,
      "Ġmisunder": 8642,
      "195": 8643,
      "Ġfuturistic": 8644,
      "Ġbuilds": 8645,
      "Ġdetailed": 8646,
      "Ġoddly": 8647,
      "Star": 8648,
      "Ġunbelievably": 8649,
      "OME": 8650,
      "warming": 8651,
      "Ġconversations": 8652,
      "Ġblockbuster": 8653,
      "ĠNazis": 8654,
      "Ġcardboard": 8655,
      "ĠCentury": 8656,
      "ĠKennedy": 8657,
      "Ġjournalist": 8658,
      "ĠDragon": 8659,
      "ĠBrooklyn": 8660,
      "jo": 8661,
      "maybe": 8662,
      "oir": 8663,
      "ti": 8664,
      "uated": 8665,
      "Ġtame": 8666,
      "Ġward": 8667,
      "Ġfox": 8668,
      "oral": 8669,
      "oner": 8670,
      "Ġpsy": 8671,
      "Ġdaring": 8672,
      "Ġech": 8673,
      "Ġnerv": 8674,
      "stage": 8675,
      "Ġbears": 8676,
      "Ġstaff": 8677,
      "idy": 8678,
      "idal": 8679,
      "ĠSummer": 8680,
      "rier": 8681,
      "ĠCIA": 8682,
      "ĠHomer": 8683,
      "ĠDirect": 8684,
      "Ġabys": 8685,
      "aks": 8686,
      "Ġalbeit": 8687,
      "Ġdear": 8688,
      "ĠLine": 8689,
      "ĠRow": 8690,
      "Ġintent": 8691,
      "ĠGinger": 8692,
      "Ġmaniac": 8693,
      "plane": 8694,
      "Ġclown": 8695,
      "Ġaging": 8696,
      "Ġoffering": 8697,
      "Ġfunction": 8698,
      "Ġblows": 8699,
      "Ġimperson": 8700,
      "Ġhumili": 8701,
      "Ġenjoys": 8702,
      "Ġacclaim": 8703,
      "Ġdifferences": 8704,
      "Ġabsence": 8705,
      "ERS": 8706,
      "Ġglory": 8707,
      "ĠRevol": 8708,
      "Ġheaded": 8709,
      "Ġimagined": 8710,
      "Ġstyles": 8711,
      "Ġtransp": 8712,
      "Ġdemons": 8713,
      "Ġsatir": 8714,
      "Ġsteam": 8715,
      "ĠPerry": 8716,
      "Ġunfair": 8717,
      "Ġexisted": 8718,
      "Ġspoiled": 8719,
      "Ġmeaningless": 8720,
      "ĠExcellent": 8721,
      "Char": 8722,
      "Ġscientific": 8723,
      "Ġidiots": 8724,
      "ĠCorb": 8725,
      "Ġinternet": 8726,
      "Ġorders": 8727,
      "ĠCastle": 8728,
      "Ġmetaphor": 8729,
      "Ġruthless": 8730,
      "Ġunwatchable": 8731,
      "Am": 8732,
      "Act": 8733,
      "ORE": 8734,
      "conscious": 8735,
      "gate": 8736,
      "lest": 8737,
      "pin": 8738,
      "ses": 8739,
      "say": 8740,
      "uable": 8741,
      "Ġsarc": 8742,
      "Ġpatter": 8743,
      "ĠIan": 8744,
      "Ġego": 8745,
      "Ġeccentric": 8746,
      "uloid": 8747,
      "estyle": 8748,
      "ĠRings": 8749,
      "ĠFore": 8750,
      "ĠFulci": 8751,
      "Ġintr": 8752,
      "Ġranks": 8753,
      "ĠNov": 8754,
      "Ġleague": 8755,
      "ogg": 8756,
      "Ġoverrated": 8757,
      "Ġpoison": 8758,
      "angel": 8759,
      "ĠStars": 8760,
      "ocative": 8761,
      "Ġsmoke": 8762,
      "Ġharder": 8763,
      "Ġexposed": 8764,
      "Ġtitled": 8765,
      "ĠWells": 8766,
      "Ġsadistic": 8767,
      "????": 8768,
      "Ġmurderous": 8769,
      "mares": 8770,
      "Ġsubjects": 8771,
      "ĠNeil": 8772,
      "Ġtrend": 8773,
      "ĠMatthew": 8774,
      "ĠJuliet": 8775,
      "Ġneglect": 8776,
      "Ġtortured": 8777,
      "Ġlabel": 8778,
      "Ġoccurred": 8779,
      "Ġthreatening": 8780,
      "Ġresemblance": 8781,
      "ĠTechn": 8782,
      "Ġproceedings": 8783,
      "Ġdistracting": 8784,
      "Ġvulgar": 8785,
      "Ġjuven": 8786,
      "Ġoutrageous": 8787,
      "Ġdeliberately": 8788,
      "Ġadequate": 8789,
      "Ġpseudo": 8790,
      "Ġmesmer": 8791,
      "!.": 8792,
      "Int": 8793,
      "iable": 8794,
      "zen": 8795,
      "Ã¨": 8796,
      "Ġbott": 8797,
      "enstein": 8798,
      "Ġpitch": 8799,
      "ĠAkshay": 8800,
      "ĠBull": 8801,
      "ĠMun": 8802,
      "ĠMort": 8803,
      "Ġnotion": 8804,
      "ĠHung": 8805,
      "Ġkitchen": 8806,
      "ĠFonda": 8807,
      "Ġwheel": 8808,
      "ĠNice": 8809,
      "ĠEv": 8810,
      "ĠEle": 8811,
      "ookie": 8812,
      "Ġcliff": 8813,
      "...)": 8814,
      "Ġimpe": 8815,
      "Ġamuse": 8816,
      "obic": 8817,
      "ĠVo": 8818,
      "ĠInspector": 8819,
      "ionship": 8820,
      "Ġslick": 8821,
      "Ġslave": 8822,
      "Ġapolog": 8823,
      "Ġresur": 8824,
      "Ġrelies": 8825,
      "Ġworlds": 8826,
      "ĠBrady": 8827,
      "Ġkidding": 8828,
      "Ġexplored": 8829,
      "Ġsadd": 8830,
      "Ġpopcorn": 8831,
      "Ġtypically": 8832,
      "Ġridiculously": 8833,
      "Ġnearby": 8834,
      "Ġunfolds": 8835,
      "Ġtrademark": 8836,
      "Ġmachines": 8837,
      "Ġsouls": 8838,
      "Ġjumping": 8839,
      "Ġaffection": 8840,
      "Ġdefeat": 8841,
      "Ġimplausible": 8842,
      "Ġhideous": 8843,
      "ixture": 8844,
      "ĠWallace": 8845,
      "Ġscheme": 8846,
      "ĠLOVE": 8847,
      "Ġfinancial": 8848,
      "Ġwannabe": 8849,
      "Ġunsettling": 8850,
      "Richard": 8851,
      "Ge": 8852,
      "des": 8853,
      "foot": 8854,
      "rim": 8855,
      "itudes": 8856,
      "aser": 8857,
      "omn": 8858,
      "ĠIron": 8859,
      "Ġgro": 8860,
      "otte": 8861,
      "Ġbew": 8862,
      "ĠTry": 8863,
      "ayed": 8864,
      "Ġstro": 8865,
      "ĠSoviet": 8866,
      "Ġanx": 8867,
      "ĠBush": 8868,
      "ĠMake": 8869,
      "ĠCold": 8870,
      "ĠHBO": 8871,
      "Ġshine": 8872,
      "ularly": 8873,
      "ĠDown": 8874,
      "ĠDoc": 8875,
      "ĠFool": 8876,
      "ĠFOR": 8877,
      "ĠJu": 8878,
      "abs": 8879,
      "ĠKat": 8880,
      "ĠKaren": 8881,
      "pled": 8882,
      "Ġclic": 8883,
      "never": 8884,
      "Ġdisjointed": 8885,
      "eping": 8886,
      "izable": 8887,
      "ĠStiller": 8888,
      "Ġcringe": 8889,
      "ĠShah": 8890,
      "Ġcoach": 8891,
      "Ġcoffee": 8892,
      "ĠZero": 8893,
      "Ġstudios": 8894,
      "Ġpasses": 8895,
      "Ġtransport": 8896,
      "ĠMcL": 8897,
      "Ġprede": 8898,
      "193": 8899,
      "Ġmotor": 8900,
      "Ġswear": 8901,
      "ĠWarren": 8902,
      "!!!!!": 8903,
      "ARD": 8904,
      "chest": 8905,
      "Ġdancers": 8906,
      "Ġerrors": 8907,
      "ĠHamlet": 8908,
      "Ġdigital": 8909,
      "ĠYears": 8910,
      "Ġurge": 8911,
      "ĠHighly": 8912,
      "ĠAngeles": 8913,
      "Ġcurrently": 8914,
      "ĠNorman": 8915,
      "Ġhighlights": 8916,
      "Black": 8917,
      "Ġsacrific": 8918,
      "Ġhunter": 8919,
      "ĠEVERY": 8920,
      "ĠKenneth": 8921,
      "____": 8922,
      "Ġcannibal": 8923,
      "Ġbackdrop": 8924,
      "Ġnephew": 8925,
      "HA": 8926,
      "gal": 8927,
      "love": 8928,
      "vation": 8929,
      "Ġmixture": 8930,
      "itled": 8931,
      "Ġcig": 8932,
      "Ġlit": 8933,
      "Ġreh": 8934,
      "ĠSop": 8935,
      "rah": 8936,
      "ĠHick": 8937,
      "Ġsham": 8938,
      "Ġshadows": 8939,
      "ifically": 8940,
      "Ġje": 8941,
      "agues": 8942,
      "ĠPot": 8943,
      "ĠPick": 8944,
      "Ġprops": 8945,
      "Ġshelf": 8946,
      "abh": 8947,
      "ĠKum": 8948,
      "ourt": 8949,
      "ayson": 8950,
      "Ġadoles": 8951,
      "Ġcharacteristic": 8952,
      "ĠVideo": 8953,
      "Ġafterwards": 8954,
      "cience": 8955,
      "Ġrecon": 8956,
      "white": 8957,
      "Ġinsert": 8958,
      "ĠSha": 8959,
      "Ġcareers": 8960,
      "Ġglamor": 8961,
      "Ġpossibility": 8962,
      "ĠUnless": 8963,
      "Ġsmaller": 8964,
      "Ġconcerning": 8965,
      "Ġpsychotic": 8966,
      "Ġweakest": 8967,
      "Ġ2005": 8968,
      "gypt": 8969,
      "Ġtrees": 8970,
      "ĠNOTHING": 8971,
      "Ġcatches": 8972,
      "Ġdesperation": 8973,
      "Ġintrigue": 8974,
      "Ġexploit": 8975,
      "Ġpractice": 8976,
      "Ġclothing": 8977,
      "ĠDenzel": 8978,
      "Ġlifestyle": 8979,
      "Ġhatred": 8980,
      "Ġbirthday": 8981,
      "Ġexplosions": 8982,
      "Ġphilosophy": 8983,
      "Ġconsistently": 8984,
      "series": 8985,
      "ulsive": 8986,
      "Ġfilth": 8987,
      "Ġastonishing": 8988,
      "oubtedly": 8989,
      "rad": 8990,
      "heim": 8991,
      "Ġwest": 8992,
      "Ġfart": 8993,
      "Ġbes": 8994,
      "Ġbanned": 8995,
      "atched": 8996,
      "Ġthumbs": 8997,
      "ĠIng": 8998,
      "ĠTimes": 8999,
      "adine": 9000,
      "ĠAW": 9001,
      "ĠSoph": 9002,
      "emies": 9003,
      "Ġdoors": 9004,
      "Ġdoomed": 9005,
      "Ġcomfortable": 9006,
      "Ġplat": 9007,
      "thriller": 9008,
      "ĠLive": 9009,
      "ĠFurther": 9010,
      "Ġrural": 9011,
      "ĠGund": 9012,
      "aux": 9013,
      "abel": 9014,
      "peror": 9015,
      "ruci": 9016,
      "Ġdecisions": 9017,
      "ossibly": 9018,
      "Ġhanded": 9019,
      "Ġlasted": 9020,
      "gger": 9021,
      "phant": 9022,
      "Ġindul": 9023,
      "Ġconventional": 9024,
      "ĠDanes": 9025,
      "Ġstaying": 9026,
      "ysis": 9027,
      "Ġodds": 9028,
      "Ġbackgrounds": 9029,
      "Ġsatisfied": 9030,
      "ĠAnnie": 9031,
      "Ġunsatisf": 9032,
      "Ġdrunken": 9033,
      "Ġgolden": 9034,
      "plicity": 9035,
      "Ġstinker": 9036,
      "yrics": 9037,
      "Ġsynopsis": 9038,
      "ĠWhether": 9039,
      "Ġcameras": 9040,
      "ifferent": 9041,
      "Ġbuddies": 9042,
      "Ġremoved": 9043,
      "ĠConsidering": 9044,
      "12": 9045,
      "Other": 9046,
      "ees": 9047,
      "ipe": 9048,
      "water": 9049,
      "Ġsand": 9050,
      "Ġsits": 9051,
      "Ġbin": 9052,
      "Ġthugs": 9053,
      "Ġinane": 9054,
      "Ġbeats": 9055,
      "Ġstaged": 9056,
      "ooges": 9057,
      "ĠArab": 9058,
      "ĠSing": 9059,
      "ĠSong": 9060,
      "ĠSold": 9061,
      "Ġselling": 9062,
      "ĠHolly": 9063,
      "ĠDave": 9064,
      "Ġalas": 9065,
      "ĠPie": 9066,
      "ĠFX": 9067,
      "Ġoutfit": 9068,
      "Ġmeasure": 9069,
      "ĠNiro": 9070,
      "Ġshel": 9071,
      "aph": 9072,
      "assy": 9073,
      "Ġawe": 9074,
      "ĠStall": 9075,
      "ĠUN": 9076,
      "Ġclasses": 9077,
      "incingly": 9078,
      "Ġdevoid": 9079,
      "Ġcountryside": 9080,
      "ĠPrice": 9081,
      "Ġavoided": 9082,
      "Ġdamage": 9083,
      "ĠQuite": 9084,
      "Ġdrawing": 9085,
      "ĠMadonna": 9086,
      "Ġofficers": 9087,
      "Ġsucceeded": 9088,
      "ukh": 9089,
      "Ġmerit": 9090,
      "Ġdrops": 9091,
      "Ġdescribes": 9092,
      "ĠPolanski": 9093,
      "Ġhighest": 9094,
      "ĠWalker": 9095,
      "Ġexplosion": 9096,
      "ĠLawrence": 9097,
      "ĠNicholson": 9098,
      "Ġencoura": 9099,
      "ĠGandhi": 9100,
      "Ġblatant": 9101,
      "ĠOlivier": 9102,
      "Ġmontage": 9103,
      "ĠGREAT": 9104,
      "Ġpredecess": 9105,
      "Or": 9106,
      "hil": 9107,
      "rict": 9108,
      "Ġsill": 9109,
      "Ġtopless": 9110,
      "icient": 9111,
      "ieve": 9112,
      "Ġwhim": 9113,
      "Ġforty": 9114,
      "ĠApart": 9115,
      "ĠBell": 9116,
      "ĠMol": 9117,
      "Ġweb": 9118,
      "ĠCD": 9119,
      "ĠCode": 9120,
      "Ġshoes": 9121,
      "Ġexotic": 9122,
      "ĠPy": 9123,
      "ĠRoss": 9124,
      "ĠFall": 9125,
      "ĠField": 9126,
      "umsy": 9127,
      "ĠThing": 9128,
      "acies": 9129,
      "Ġprejud": 9130,
      "ĠCham": 9131,
      "obs": 9132,
      "Ġchess": 9133,
      "Ġsmoking": 9134,
      "Ġconsistent": 9135,
      "fined": 9136,
      "Ġinterrupt": 9137,
      "Ġacid": 9138,
      "Ġexcruci": 9139,
      "Ġuseful": 9140,
      "ĠMarc": 9141,
      "Ġgrab": 9142,
      "Ġforms": 9143,
      "Ġcaptain": 9144,
      "Ġpsychopath": 9145,
      "ATE": 9146,
      "Ġ2004": 9147,
      "ONG": 9148,
      "Ġpolitically": 9149,
      "ĠTommy": 9150,
      "Ġcausing": 9151,
      "Ġexplaining": 9152,
      "Ġkicked": 9153,
      "Ġprimary": 9154,
      "Ġcelluloid": 9155,
      "Ġtemper": 9156,
      "mission": 9157,
      "Ġsolely": 9158,
      "Ġmiserable": 9159,
      "Ġfrustration": 9160,
      "Ġcompanion": 9161,
      "ĠRemember": 9162,
      "Ġprostitute": 9163,
      "Ġsurfing": 9164,
      "Ġdedicated": 9165,
      "Ġscratch": 9166,
      "Ġcandid": 9167,
      "Ġinnovative": 9168,
      "ĠKapoor": 9169,
      "ĠPrincess": 9170,
      "\"...": 9171,
      "')": 9172,
      "Em": 9173,
      "fle": 9174,
      "great": 9175,
      "Ġtall": 9176,
      "Ġwis": 9177,
      "Ġmic": 9178,
      "Ġmall": 9179,
      "Ġmouse": 9180,
      "Ġcup": 9181,
      "Ġcroc": 9182,
      "Ġpubl": 9183,
      "Ġdazz": 9184,
      "Ġlyrics": 9185,
      "ican": 9186,
      "Ġease": 9187,
      "ilarly": 9188,
      "Ġstabb": 9189,
      "ĠAbr": 9190,
      "cean": 9191,
      "ĠMY": 9192,
      "ĠMarsh": 9193,
      "Ġshirt": 9194,
      "ĠWAS": 9195,
      "Ġjazz": 9196,
      "antee": 9197,
      "ĠPen": 9198,
      "ĠLow": 9199,
      "ĠRambo": 9200,
      "Ġgoodness": 9201,
      "odge": 9202,
      "Ġendure": 9203,
      "Ġdisli": 9204,
      "Ġbless": 9205,
      "Ġfluff": 9206,
      "ĠHey": 9207,
      "Ġwhereas": 9208,
      "ĠStra": 9209,
      "Ġperformer": 9210,
      "Ġcomposed": 9211,
      "Ġnewly": 9212,
      "Ġaudio": 9213,
      "Ġinstant": 9214,
      "Ġcoherent": 9215,
      "Ġsenseless": 9216,
      "ommended": 9217,
      "Ġinteraction": 9218,
      "Ġhopeless": 9219,
      "Ġheroic": 9220,
      "umentary": 9221,
      "Ġsidekick": 9222,
      "Ġsentence": 9223,
      "Ġutil": 9224,
      "Ġintroduces": 9225,
      "Ġwinds": 9226,
      "Ġdisturbed": 9227,
      "ĠTimothy": 9228,
      "ĠExcept": 9229,
      "ĠStreep": 9230,
      "Ġcontrad": 9231,
      "Ġtravels": 9232,
      "Ġbullet": 9233,
      "Ġinfluenced": 9234,
[...]
