{
  "version": "1.0",
  "truncation": null,
  "padding": null,
  "added_tokens": [
    {
      "id": 0,
      "content": "<s>",
      "single_word": false,
      "lstrip": false,
      "rstrip": false,
      "normalized": false,
      "special": true
    },
    {
      "id": 1,
      "content": "</s>",
      "single_word": false,
      "lstrip": false,
      "rstrip": false,
      "normalized": false,
      "special": true
    },
    {
      "id": 2,
      "content": "<blank>",
      "single_word": false,
      "lstrip": false,
      "rstrip": false,
      "normalized": false,
      "special": true
    },
    {
      "id": 3,
      "content": "<unk>",
      "single_word": false,
      "lstrip": false,
      "rstrip": false,
      "normalized": false,
      "special": true
    },
    {
      "id": 4,
      "content": "</w>",
      "single_word": false,
      "lstrip": false,
      "rstrip": false,
      "normalized": false,
      "special": true
    }
  ],
  "normalizer": null,
  "pre_tokenizer": {
    "type": "ByteLevel",
    "add_prefix_space": true,
    "trim_offsets": true,
    "use_regex": true
  },
  "post_processor": {
    "type": "ByteLevel",
    "add_prefix_space": true,
    "trim_offsets": true,
    "use_regex": true
  },
  "decoder": {
    "type": "ByteLevel",
    "add_prefix_space": true,
    "trim_offsets": true,
    "use_regex": true
  },
  "model": {
    "type": "BPE",
    "dropout": null,
    "unk_token": "<unk>",
    "continuing_subword_prefix": null,
    "end_of_word_suffix": null,
    "fuse_unk": false,
    "byte_fallback": false,
    "ignore_merges": false,
    "vocab": {
      "<s>": 0,
      "</s>": 1,
      "<blank>": 2,
      "<unk>": 3,
      "</w>": 4,
      "!": 5,
      "\"": 6,
      "%": 7,
      "'": 8,
      "(": 9,
      ")": 10,
      ",": 11,
      "-": 12,
      ".": 13,
      "/": 14,
      "0": 15,
      "1": 16,
      "2": 17,
      "3": 18,
      "4": 19,
      "5": 20,
      "6": 21,
      "7": 22,
      "8": 23,
      "9": 24,
      ":": 25,
      ";": 26,
      "?": 27,
      "A": 28,
      "B": 29,
      "C": 30,
      "D": 31,
      "E": 32,
      "F": 33,
      "G": 34,
      "H": 35,
      "I": 36,
      "J": 37,
      "K": 38,
      "L": 39,
      "M": 40,
      "N": 41,
      "O": 42,
      "P": 43,
      "Q": 44,
      "R": 45,
      "S": 46,
      "T": 47,
      "U": 48,
      "V": 49,
      "W": 50,
      "X": 51,
      "Y": 52,
      "Z": 53,
      "[": 54,
      "]": 55,
      "a": 56,
      "b": 57,
      "c": 58,
      "d": 59,
      "e": 60,
      "f": 61,
      "g": 62,
      "h": 63,
      "i": 64,
      "j": 65,
      "k": 66,
      "l": 67,
      "m": 68,
      "n": 69,
      "o": 70,
      "p": 71,
      "q": 72,
      "r": 73,
      "s": 74,
      "t": 75,
      "u": 76,
      "v": 77,
      "w": 78,
      "x": 79,
      "y": 80,
      "z": 81,
      "¡": 82,
      "¤": 83,
      "©": 84,
      "¯": 85,
      "³": 86,
      "º": 87,
      "¼": 88,
      "Â": 89,
      "Ã": 90,
      "Ġ": 91,
      "Ń": 92,
      "Ġt": 93,
      "Ġth": 94,
      "Ġa": 95,
      "re": 96,
      "on": 97,
      "in": 98,
      "Ġthe": 99,
      "en": 100,
      "is": 101,
      "Ġo": 102,
      "at": 103,
      "Ġw": 104,
      "er": 105,
      "Ġs": 106,
      "ion": 107,
      "it": 108,
      "Ġp": 109,
      "es": 110,
      "or": 111,
      "Ġto": 112,
      "Ġof": 113,
      "Ġc": 114,
      "nd": 115,
      "Ġin": 116,
      "Ġb": 117,
      "al": 118,
      "ent": 119,
      "ou": 120,
      "Ġf": 121,
      "ed": 122,
      "ar": 123,
      "Ġre": 124,
      "Ġm": 125,
      "an": 126,
      "Ġand": 127,
      "om": 128,
      "ic": 129,
      "Ġd": 130,
      "ing": 131,
      "ro": 132,
      "Ġh": 133,
      "ve": 134,
      "le": 135,
      "Ġbe": 136,
      "as": 137,
      "Ġis": 138,
      "Ġn": 139,
      "ct": 140,
      "ly": 141,
      "ment": 142,
      "ĠI": 143,
      "Ġe": 144,
      "id": 145,
      "Ġwh": 146,
      "us": 147,
      "Ġon": 148,
      "Ġthat": 149,
      "pe": 150,
      "ort": 151,
      "ĠC": 152,
      "ur": 153,
      "Ġfor": 154,
      "Ġl": 155,
      "ation": 156,
      "ot": 157,
      "ll": 158,
      "omm": 159,
      "Ġwe": 160,
      "port": 161,
      "ĠT": 162,
      "ĠM": 163,
      "Ġg": 164,
      "Ġthis": 165,
      "ld": 166,
      "im": 167,
      "Ġpro": 168,
      "ce": 169,
      "res": 170,
      "ĠTh": 171,
      "Ġas": 172,
      "Ġde": 173,
      "ut": 174,
      "ĠP": 175,
      "Ġst": 176,
      "ke": 177,
      "ĠComm": 178,
      "Ġcon": 179,
      "ate": 180,
      "ould": 181,
      "Ġare": 182,
      "Ġha": 183,
      "se": 184,
      "sion": 185,
      "Ġit": 186,
      "ra": 187,
      "Ġpo": 188,
      "ul": 189,
      "ĠE": 190,
      "Ġreg": 191,
      "ich": 192,
      "ay": 193,
      "Ġwhich": 194,
      "ver": 195,
      "ission": 196,
      "ith": 197,
      "ĠCommission": 198,
      "Ġnot": 199,
      "et": 200,
      "ies": 201,
      "Ġhave": 202,
      "ci": 203,
      "st": 204,
      "Ġwith": 205,
      "ch": 206,
      "ive": 207,
      "ĠS": 208,
      "ow": 209,
      "ter": 210,
      "Ġcom": 211,
      "lo": 212,
      "ect": 213,
      "ions": 214,
      "ĠMr": 215,
      "un": 216,
      "Ġy": 217,
      "ad": 218,
      "Ġsh": 219,
      "Ġex": 220,
      "li": 221,
      "ble": 222,
      "qu": 223,
      "ĠThe": 224,
      "Ġsu": 225,
      "ess": 226,
      "ir": 227,
      "uro": 228,
      "Ġan": 229,
      "ri": 230,
      "em": 231,
      "ust": 232,
      "urope": 233,
      "ĠEurope": 234,
      "ill": 235,
      "Ġby": 236,
      "ĠW": 237,
      "ity": 238,
      "ore": 239,
      "gh": 240,
      "Ġal": 241,
      "lic": 242,
      "od": 243,
      "Ġwould": 244,
      "Ġne": 245,
      "iv": 246,
      "Ġhas": 247,
      "ĠA": 248,
      "art": 249,
      "Ġso": 250,
      "Ġim": 251,
      "end": 252,
      "th": 253,
      "und": 254,
      "ident": 255,
      "if": 256,
      "Ġv": 257,
      "Ġyou": 258,
      "ere": 259,
      "so": 260,
      "ure": 261,
      "ee": 262,
      "ber": 263,
      "resident": 264,
      "ain": 265,
      "ĠF": 266,
      "est": 267,
      "ans": 268,
      "ple": 269,
      "Ġreport": 270,
      "ant": 271,
      "ru": 272,
      "Ġwill": 273,
      "ĠPresident": 274,
      "Ġta": 275,
      "ĠEuropean": 276,
      "il": 277,
      "Ġat": 278,
      "Ġthere": 279,
      "ition": 280,
      "Ġli": 281,
      "Ġad": 282,
      "Ġam": 283,
      "Ġbeen": 284,
      "99": 285,
      "am": 286,
      "ament": 287,
      "Ġpart": 288,
      "ard": 289,
      "cial": 290,
      "po": 291,
      "Ġle": 292,
      "Ġen": 293,
      "Ġor": 294,
      "ments": 295,
      "con": 296,
      "pet": 297,
      "ural": 298,
      "Ġshould": 299,
      "Ġlike": 300,
      "arli": 301,
      "Ġalso": 302,
      "Ġour": 303,
      "Ġall": 304,
      "nt": 305,
      "pt": 306,
      "pport": 307,
      "Ġr": 308,
      "arliament": 309,
      "ject": 310,
      "ous": 311,
      "Ġ1": 312,
      "Ġdo": 313,
      "ff": 314,
      "Ġac": 315,
      "ers": 316,
      "ĠSt": 317,
      "pp": 318,
      "rans": 319,
      "Ġdis": 320,
      "ire": 321,
      "um": 322,
      "Ġus": 323,
      "Ġcompet": 324,
      "Ġpolic": 325,
      "el": 326,
      "Ġun": 327,
      "Ġag": 328,
      "Ġaid": 329,
      "and": 330,
      "itt": 331,
      "Ġint": 332,
      "ally": 333,
      "rou": 334,
      "ates": 335,
      "ĠParliament": 336,
      "ĠWe": 337,
      "ruct": 338,
      "ĠG": 339,
      "Ġma": 340,
      "icul": 341,
      "velo": 342,
      "Ġregions": 343,
      "velop": 344,
      "Ġ-": 345,
      "all": 346,
      "ge": 347,
      "Ġmore": 348,
      "Ġconc": 349,
      "ĠU": 350,
      "Ġwor": 351,
      "our": 352,
      "ance": 353,
      "ember": 354,
      "Ġtrans": 355,
      "Ġfa": 356,
      "Ġme": 357,
      "Ġgo": 358,
      "very": 359,
      "ght": 360,
      "Ġbut": 361,
      "Ġres": 362,
      "conom": 363,
      "ional": 364,
      "ĠUn": 365,
      "Ġdevelop": 366,
      "Ġthese": 367,
      "Ġmust": 368,
      "gra": 369,
      "rom": 370,
      "ue": 371,
      "eri": 372,
      "ary": 373,
      "bject": 374,
      "Ġj": 375,
      "ern": 376,
      "Ġsa": 377,
      "Ġspe": 378,
      "Ġco": 379,
      "Ġcan": 380,
      "ount": 381,
      "ĠThis": 382,
      "Ġpolicy": 383,
      "able": 384,
      "int": 385,
      "Ġqu": 386,
      "ist": 387,
      "ĠUnion": 388,
      "Ġapp": 389,
      "Ġeconom": 390,
      "plo": 391,
      "ĠMember": 392,
      "Ġamend": 393,
      "Ġacc": 394,
      "ĠH": 395,
      "Ġcomm": 396,
      "Ġcompetition": 397,
      "mm": 398,
      "si": 399,
      "Ġra": 400,
      "Ġmy": 401,
      "Ġtheir": 402,
      "ities": 403,
      "ast": 404,
      "pos": 405,
      "ploy": 406,
      "reat": 407,
      "Ġprogra": 408,
      "Ġstate": 409,
      "Ġprogramm": 410,
      "aus": 411,
      "ĠIt": 412,
      "Ġimport": 413,
      "cess": 414,
      "per": 415,
      "Ġinc": 416,
      "Ġpos": 417,
      "ac": 418,
      "her": 419,
      "sid": 420,
      "Ġtim": 421,
      "Ġgu": 422,
      "ety": 423,
      "Ġparticul": 424,
      "roup": 425,
      "Ġwork": 426,
      "Ġdevelopment": 427,
      "Ġparticular": 428,
      "ew": 429,
      "Ġvery": 430,
      "Ġwas": 431,
      "Ġse": 432,
      "Ġfrom": 433,
      "Ġone": 434,
      "ations": 435,
      "Ġcont": 436,
      "ĠR": 437,
      "Ġab": 438,
      "Ġpl": 439,
      "Ġmar": 440,
      "ittee": 441,
      "du": 442,
      "Ġthey": 443,
      "Ġbec": 444,
      "ĠIn": 445,
      "ause": 446,
      "day": 447,
      "resent": 448,
      "Ġpoint": 449,
      "Ġregional": 450,
      "unds": 451,
      "ployment": 452,
      "Ġtime": 453,
      "00": 454,
      "are": 455,
      "ated": 456,
      "Ġind": 457,
      "Ġeff": 458,
      "Ġdeb": 459,
      "ives": 460,
      "ructural": 461,
      "Ġguid": 462,
      "up": 463,
      "Ġthan": 464,
      "ines": 465,
      "Ġrequ": 466,
      "Ġexp": 467,
      "Ġsocial": 468,
      "ab": 469,
      "ear": 470,
      "ish": 471,
      "ome": 472,
      "Ġbet": 473,
      "ase": 474,
      "ote": 475,
      "ket": 476,
      "Ġneed": 477,
      "ĠStates": 478,
      "Ġtransport": 479,
      "Ġgood": 480,
      "Ġsaf": 481,
      "fore": 482,
      "ĠB": 483,
      "erm": 484,
      "Ġiss": 485,
      "Ġmarket": 486,
      "cis": 487,
      "ol": 488,
      "out": 489,
      "Ġpropos": 490,
      "Ġregard": 491,
      "Ġguidel": 492,
      "Ġro": 493,
      "Ġup": 494,
      "Ġout": 495,
      "ention": 496,
      "Ġonly": 497,
      "Ġits": 498,
      "Ġconcern": 499,
      "Ġguidelines": 500,
      "ud": 501,
      "Ġif": 502,
      "ind": 503,
      "Ġch": 504,
      "Ġmat": 505,
      "Ġem": 506,
      "ĠCommissioner": 507,
      "ĠGroup": 508,
      "Ġsafety": 509,
      "Ġpre": 510,
      "Ġbecause": 511,
      "een": 512,
      "Ġwhat": 513,
      "hes": 514,
      "wn": 515,
      "ween": 516,
      "ĠO": 517,
      "Ġpri": 518,
      "Ġwho": 519,
      "irst": 520,
      "irect": 521,
      "Ġmake": 522,
      "Ġbetween": 523,
      "ost": 524,
      "tain": 525,
      "Ġcount": 526,
      "Ġrem": 527,
      "Ġnew": 528,
      "iven": 529,
      "Ġeconomic": 530,
      "Ġdebate": 531,
      "ak": 532,
      "ved": 533,
      "Ġact": 534,
      "Ġmon": 535,
      "Ġlo": 536,
      "Ġareas": 537,
      "Ġimportant": 538,
      "Ġmatter": 539,
      "Ġcountr": 540,
      "ever": 541,
      "vis": 542,
      "Ġ2": 543,
      "Ġway": 544,
      "Ġperi": 545,
      "ord": 546,
      "Ġhow": 547,
      "Ġwhen": 548,
      "Ġtak": 549,
      "Ġtake": 550,
      "hesion": 551,
      "ces": 552,
      "cus": 553,
      "ree": 554,
      "Ġobject": 555,
      "ative": 556,
      "ang": 557,
      "Ġdirect": 558,
      "Ġconsid": 559,
      "ther": 560,
      "999": 561,
      "Ġinto": 562,
      "Ġappro": 563,
      "sible": 564,
      "for": 565,
      "fic": 566,
      "fere": 567,
      "Ġpresent": 568,
      "Ġwere": 569,
      "ult": 570,
      "unity": 571,
      "Ġjust": 572,
      "Ġparticularly": 573,
      "ced": 574,
      "eve": 575,
      "ures": 576,
      "ite": 577,
      "Ġinter": 578,
      "Ġrel": 579,
      "Ġno": 580,
      "Ġwhere": 581,
      "ational": 582,
      "ĠMrs": 583,
      "Ġissue": 584,
      "ap": 585,
      "eo": 586,
      "eur": 587,
      "ving": 588,
      "Ġk": 589,
      "Ġte": 590,
      "ong": 591,
      "isation": 592,
      "Ġfirst": 593,
      "ical": 594,
      "ress": 595,
      "Ġimp": 596,
      "Ġleg": 597,
      "Ġperiod": 598,
      "pon": 599,
      "Ġthem": 600,
      "Ġman": 601,
      "Ġdra": 602,
      "Ġask": 603,
      "Ġwithin": 604,
      "Ġcomp": 605,
      "ade": 606,
      "Ġexam": 607,
      "Ġsupport": 608,
      "ĠFunds": 609,
      "Ġfact": 610,
      "Ġamendments": 611,
      "Ġproposal": 612,
      "cy": 613,
      "ub": 614,
      "one": 615,
      "Ġsay": 616,
      "Ġinv": 617,
      "Ġnow": 618,
      "Ġsuch": 619,
      "Ġany": 620,
      "Ġens": 621,
      "Ġabout": 622,
      "ms": 623,
      "xt": 624,
      "ĠD": 625,
      "Ġent": 626,
      "Ġund": 627,
      "Ġsect": 628,
      "Ġbeing": 629,
      "Ġev": 630,
      "Ġvi": 631,
      "ack": 632,
      "Ġprior": 633,
      "Ġcountries": 634,
      "Ġconsider": 635,
      "eg": 636,
      "rate": 637,
      "way": 638,
      "ens": 639,
      "erous": 640,
      "Ġpr": 641,
      "Ġcle": 642,
      "Ġbeli": 643,
      "Ġgreat": 644,
      "cept": 645,
      "sel": 646,
      "Ġregul": 647,
      "Ġyear": 648,
      "Ġvote": 649,
      "eople": 650,
      "der": 651,
      "ely": 652,
      "ful": 653,
      "ip": 654,
      "lud": 655,
      "now": 656,
      "uation": 657,
      "wo": 658,
      "ertain": 659,
      "Ġtoday": 660,
      "ĠSo": 661,
      "Ġshall": 662,
      "Ġsub": 663,
      "Ġyour": 664,
      "Ġclear": 665,
      "ag": 666,
      "ach": 667,
      "opt": 668,
      "ink": 669,
      "ise": 670,
      "Ġown": 671,
      "Ġother": 672,
      "iti": 673,
      "Ġpeople": 674,
      "Ġrec": 675,
      "Ġdang": 676,
      "ĠCommittee": 677,
      "ether": 678,
      "Ġatt": 679,
      "Ġtherefore": 680,
      "Ġorder": 681,
      "ĠStructural": 682,
      "Ġrespon": 683,
      "Ġincre": 684,
      "Ġgoods": 685,
      "Ġsector": 686,
      "Ġdangerous": 687,
      "ence": 688,
      "Ġop": 689,
      "Ġopport": 690,
      "Ġsit": 691,
      "Ġsee": 692,
      "Ġsome": 693,
      "ough": 694,
      "Ġmade": 695,
      "ide": 696,
      "Ġwell": 697,
      "ĠMad": 698,
      "eel": 699,
      "Ġadopt": 700,
      "pporteur": 701,
      "Ġdiscus": 702,
      "Ġrapporteur": 703,
      "Ġeffect": 704,
      "Ġrequire": 705,
      "Ġemployment": 706,
      "Ġtaken": 707,
      "ublic": 708,
      "Ġbelieve": 709,
      "ĠMadam": 710,
      "age": 711,
      "ious": 712,
      "ĠL": 713,
      "Ġtwo": 714,
      "ren": 715,
      "Ġob": 716,
      "erv": 717,
      "Ġtoo": 718,
      "Ġnational": 719,
      "pect": 720,
      "cific": 721,
      "ĠWh": 722,
      "ards": 723,
      "Ġrural": 724,
      "Ġobjectives": 725,
      "Ġensure": 726,
      "Ġsituation": 727,
      "ial": 728,
      "inci": 729,
      "ating": 730,
      "Ġcertain": 731,
      "Ġfar": 732,
      "vel": 733,
      "Ġprov": 734,
      "Ġass": 735,
      "ĠEU": 736,
      "Ġagain": 737,
      "Ġjo": 738,
      "Ġspecific": 739,
      "Ġcommittee": 740,
      "Ġprogrammes": 741,
      "feren": 742,
      "Ġimpro": 743,
      "ks": 744,
      "mon": 745,
      "ose": 746,
      "ry": 747,
      "ince": 748,
      "Ġthen": 749,
      "ouse": 750,
      "Ġmost": 751,
      "Ġhi": 752,
      "ased": 753,
      "Ġla": 754,
      "Ġdecis": 755,
      "ĠThere": 756,
      "plement": 757,
      "ility": 758,
      "Ġlevel": 759,
      "ĠHouse": 760,
      "Ġprogramme": 761,
      "duct": 762,
      "abl": 763,
      "Ġunder": 764,
      "Ġprinci": 765,
      "ĠSocial": 766,
      "fer": 767,
      "land": 768,
      "Ġri": 769,
      "Ġable": 770,
      "read": 771,
      "Ġfo": 772,
      "Ġdif": 773,
      "Ġho": 774,
      "Ġhis": 775,
      "Ġhad": 776,
      "ĠAs": 777,
      "Ġimplement": 778,
      "Ġadd": 779,
      "ame": 780,
      "icult": 781,
      "Ġquest": 782,
      "Ġpossible": 783,
      "form": 784,
      "Ġknow": 785,
      "Ġinvol": 786,
      "1999": 787,
      "lus": 788,
      "ine": 789,
      "Ġsi": 790,
      "Ġsp": 791,
      "Ġsince": 792,
      "itions": 793,
      "Ġcre": 794,
      "Ġcase": 795,
      "edter": 796,
      "Ġmention": 797,
      "row": 798,
      "roedter": 799,
      "ason": 800,
      "Ġproble": 801,
      "Ġstand": 802,
      "Ġstructural": 803,
      "Ġstrate": 804,
      "ules": 805,
      "chroedter": 806,
      "ĠSchroedter": 807,
      "rib": 808,
      "Ġnecess": 809,
      "Ġ199": 810,
      "Ġspeak": 811,
      "Ġaccount": 812,
      "Ġroad": 813,
      "Ġconcerned": 814,
      "Ġview": 815,
      "Ġjob": 816,
      "Ġhigh": 817,
      "Ġright": 818,
      "Ġstrateg": 819,
      "ep": 820,
      "rit": 821,
      "Ġur": 822,
      "Ġke": 823,
      "Ġthose": 824,
      "Ġover": 825,
      "Ġpublic": 826,
      "Ġfin": 827,
      "ici": 828,
      "Ġnum": 829,
      "ĠCo": 830,
      "llow": 831,
      "Ġgen": 832,
      "Ġgiven": 833,
      "imum": 834,
      "Ġstill": 835,
      "ĠCommunity": 836,
      "Ġunem": 837,
      "Ġagree": 838,
      "Ġdirective": 839,
      "gn": 840,
      "ight": 841,
      "pare": 842,
      "uch": 843,
      "ves": 844,
      "ĠN": 845,
      "iness": 846,
      "itive": 847,
      "Ġcour": 848,
      "Ġinst": 849,
      "Ġbus": 850,
      "alf": 851,
      "ality": 852,
      "ently": 853,
      "Ġfund": 854,
      "Ġrep": 855,
      "Ġreason": 856,
      "Ġhe": 857,
      "Ġhar": 858,
      "Ġbeh": 859,
      "ĠCon": 860,
      "eth": 861,
      "ific": 862,
      "Ġrules": 863,
      "Ġdoes": 864,
      "Ġuse": 865,
      "Ġcohesion": 866,
      "Ġamendment": 867,
      "Ġhowever": 868,
      "Ġlaw": 869,
      "Ġnumber": 870,
      "Ġunemployment": 871,
      "Ġbusiness": 872,
      "'s": 873,
      "ie": 874,
      "led": 875,
      "ĠJ": 876,
      "Ġterm": 877,
      "Ġthink": 878,
      "Ġwish": 879,
      "Ġsame": 880,
      "entr": 881,
      "Ġmuch": 882,
      "Ġher": 883,
      "uring": 884,
      "Ġdec": 885,
      "pose": 886,
      "Ġmeas": 887,
      "Ġinclud": 888,
      "ĠReg": 889,
      "Ġthank": 890,
      "Ġrequest": 891,
      "Ġrole": 892,
      "ways": 893,
      "Ġdiscuss": 894,
      "ference": 895,
      "ribut": 896,
      "act": 897,
      "ail": 898,
      "lut": 899,
      "pri": 900,
      "ual": 901,
      "isl": 902,
      "ised": 903,
      "Ġwant": 904,
      "Ġpur": 905,
      "Ġcap": 906,
      "oun": 907,
      "Ġfunds": 908,
      "Ġevery": 909,
      "Ġlast": 910,
      "oth": 911,
      "Ġext": 912,
      "establ": 913,
      "Ġaccept": 914,
      "Ġpolicies": 915,
      "Ġconclus": 916,
      "Ġaccord": 917,
      "Ġimportance": 918,
      "Ġindust": 919,
      "Ġ200": 920,
      "Ġlegisl": 921,
      "Ġexample": 922,
      "Ġeven": 923,
      "Ġadopted": 924,
      "Ġprinciple": 925,
      "Ġnecessary": 926,
      "ĠCohesion": 927,
      "establish": 928,
      "ace": 929,
      "air": 930,
      "ef": 931,
      "eed": 932,
      "jor": 933,
      "not": 934,
      "ok": 935,
      "ricult": 936,
      "ting": 937,
      "ues": 938,
      "Ġ(": 939,
      "ĠK": 940,
      "red": 941,
      "ination": 942,
      "Ġboth": 943,
      "Ġfut": 944,
      "Ġmin": 945,
      "ann": 946,
      "Ġonce": 947,
      "Ġform": 948,
      "Ġcond": 949,
      "cil": 950,
      "Ġalread": 951,
      "ĠFund": 952,
      "Ġlet": 953,
      "Ġmajor": 954,
      "Ġresult": 955,
      "Ġquite": 956,
      "ĠObject": 957,
      "iveness": 958,
      "Ġmany": 959,
      "Ġquestion": 960,
      "Ġcourse": 961,
      "Ġharmon": 962,
      "Ġmeasures": 963,
      "Ġfuture": 964,
      "Ġalready": 965,
      "tic": 966,
      "Ġend": 967,
      "Ġestablish": 968,
      "ising": 969,
      "ator": 970,
      "Ġsom": 971,
      "Ġper": 972,
      "Ġcall": 973,
      "Ġbas": 974,
      "Ġdes": 975,
      "Ġhere": 976,
      "aster": 977,
      "Ġwhether": 978,
      "ĠCoun": 979,
      "Ġlack": 980,
      "ĠTreat": 981,
      "Ġproced": 982,
      "ĠPo": 983,
      "vern": 984,
      "ode": 985,
      "cond": 986,
      "Ġdist": 987,
      "ĠHow": 988,
      "Ġprev": 989,
      "Ġappropri": 990,
      "Ġrequirements": 991,
      "Ġproblems": 992,
      "Ġgener": 993,
      "ĠCouncil": 994,
      "au": 995,
      "bility": 996,
      "cing": 997,
      "fter": 998,
      "he": 999,
      "ile": 1000,
      "ne": 1001,
      "pl": 1002,
      "Ġ8": 1003,
      "Ġtra": 1004,
      "ater": 1005,
      "Ġsim": 1006,
      "Ġset": 1007,
      "ital": 1008,
      "Ġpers": 1009,
      "Ġcl": 1010,
      "Ġcode": 1011,
      "Ġfe": 1012,
      "Ġmay": 1013,
      "Ġmod": 1014,
      "ank": 1015,
      "ice": 1016,
      "Ġdone": 1017,
      "Ġwhy": 1018,
      "Ġlong": 1019,
      "Ġdeal": 1020,
      "Ġsteel": 1021,
      "Ġcons": 1022,
      "ately": 1023,
      "Ġarea": 1024,
      "own": 1025,
      "Ġvar": 1026,
      "ĠFin": 1027,
      "Ġadvis": 1028,
      "Ġ1999": 1029,
      "ources": 1030,
      "Ġtranspare": 1031,
      "Ġcannot": 1032,
      "Ġeconomy": 1033,
      "Ġcommon": 1034,
      "Ġposition": 1035,
      "Ġcontin": 1036,
      "selves": 1037,
      "Ġregulations": 1038,
      "Ġopportunity": 1039,
      "Ġrepresent": 1040,
      "Ġbehalf": 1041,
      "entral": 1042,
      "ĠObjective": 1043,
      "go": 1044,
      "hip": 1045,
      "ph": 1046,
      "par": 1047,
      "rat": 1048,
      "ring": 1049,
      "rtic": 1050,
      "ten": 1051,
      "wards": 1052,
      "zens": 1053,
      "Ġach": 1054,
      "erg": 1055,
      "itut": 1056,
      "Ġcrit": 1057,
      "arge": 1058,
      "Ġrefer": 1059,
      "Ġhel": 1060,
      "Ġequ": 1061,
      "Ġless": 1062,
      "Ġgive": 1063,
      "Ġprocess": 1064,
      "uth": 1065,
      "Ġitem": 1066,
      "ract": 1067,
      "Ġcomments": 1068,
      "Ġfail": 1069,
      "Ġplace": 1070,
      "duce": 1071,
      "Ġeffort": 1072,
      "Ġexpress": 1073,
      "ĠBut": 1074,
      "Ġloc": 1075,
      "Ġlook": 1076,
      "Ġcompan": 1077,
      "itizens": 1078,
      "ĠSocialist": 1079,
      "Ġjobs": 1080,
      "Ġfinan": 1081,
      "ĠHowever": 1082,
      "Ġhelp": 1083,
      "CO": 1084,
      "ck": 1085,
      "ncy": 1086,
      "och": 1087,
      "opo": 1088,
      "Ġthrou": 1089,
      "Ġar": 1090,
      "Ġav": 1091,
      "Ġafter": 1092,
      "Ġauth": 1093,
      "ises": 1094,
      "Ġsust": 1095,
      "Ġseri": 1096,
      "Ġserv": 1097,
      "Ġput": 1098,
      "Ġtowards": 1099,
      "Ġoften": 1100,
      "Ġcur": 1101,
      "Ġclo": 1102,
      "Ġcitizens": 1103,
      "Ġiniti": 1104,
      "Ġfind": 1105,
      "ings": 1106,
      "lex": 1107,
      "ĠIf": 1108,
      "Ġproject": 1109,
      "Ġproduct": 1110,
      "Ġdem": 1111,
      "Ġhand": 1112,
      "Ġcome": 1113,
      "Ġsuc": 1114,
      "Ġsubject": 1115,
      "Ġnext": 1116,
      "ĠArtic": 1117,
      "enda": 1118,
      "Ġtax": 1119,
      "Ġadm": 1120,
      "cially": 1121,
      "ously": 1122,
      "Ġcompetit": 1123,
      "Ġfav": 1124,
      "Ġrail": 1125,
      "Ġsecond": 1126,
      "Ġremote": 1127,
      "Ġmonopo": 1128,
      "Ġintern": 1129,
      "Ġenter": 1130,
      "Ġpriority": 1131,
      "self": 1132,
      "Ġattention": 1133,
      "Ġprovid": 1134,
      "Ġhope": 1135,
      "Ġstrategic": 1136,
      "ĠKoch": 1137,
      "Ġconditions": 1138,
      "ĠTreaty": 1139,
      "Ġvarious": 1140,
      "ĠFinally": 1141,
      "Ġthrough": 1142,
      "Ġauthor": 1143,
      "Ġsustain": 1144,
      "01": 1145,
      "eres": 1146,
      "gin": 1147,
      "lies": 1148,
      "men": 1149,
      "sed": 1150,
      "ually": 1151,
      "Ġes": 1152,
      "ret": 1153,
      "ism": 1154,
      "ese": 1155,
      "Ġcor": 1156,
      "ential": 1157,
      "Ġfew": 1158,
      "Ġread": 1159,
      "ict": 1160,
      "ices": 1161,
      "lect": 1162,
      "Ġbefore": 1163,
      "ass": 1164,
      "ases": 1165,
      "ĠTrans": 1166,
      "ĠThat": 1167,
      "ĠThese": 1168,
      "vers": 1169,
      "etary": 1170,
      "log": 1171,
      "iving": 1172,
      "Ġvot": 1173,
      "ered": 1174,
      "solut": 1175,
      "Ġrat": 1176,
      "Ġagricult": 1177,
      "Ġagenda": 1178,
      "itting": 1179,
      "Ġintro": 1180,
      "Ġinteres": 1181,
      "ructure": 1182,
      "Ġmeans": 1183,
      "peration": 1184,
      "Ġworking": 1185,
      "Ġseem": 1186,
      "ared": 1187,
      "Ġindic": 1188,
      "Ġexpl": 1189,
      "Ġregarding": 1190,
      "Ġdraf": 1191,
      "ĠDe": 1192,
      "Ġconsideration": 1193,
      "Ġyears": 1194,
      "Ġopen": 1195,
      "Ġopportun": 1196,
      "Ġimprove": 1197,
      "Ġfollow": 1198,
      "Ġmentioned": 1199,
      "Ġterms": 1200,
      "ĠRegional": 1201,
      "Ġaccordance": 1202,
      "Ġindustry": 1203,
      "Ġ2000": 1204,
      "Ġappropriate": 1205,
      "Ġtransparency": 1206,
      "Ġcompetitiveness": 1207,
      "Ġsustainable": 1208,
      "equ": 1209,
      "ges": 1210,
      "ild": 1211,
      "lit": 1212,
      "oc": 1213,
      "su": 1214,
      "ward": 1215,
      "Ġess": 1216,
      "Ġty": 1217,
      "inist": 1218,
      "Ġsc": 1219,
      "Ġsm": 1220,
      "Ġsitting": 1221,
      "Ġple": 1222,
      "Ġpract": 1223,
      "ession": 1224,
      "Ġcould": 1225,
      "Ġcases": 1226,
      "Ġinform": 1227,
      "aly": 1228,
      "entle": 1229,
      "Ġfur": 1230,
      "Ġfive": 1231,
      "Ġfeel": 1232,
      "Ġflex": 1233,
      "arch": 1234,
      "arity": 1235,
      "asing": 1236,
      "Ġisland": 1237,
      "Ġnat": 1238,
      "Ġeach": 1239,
      "pecially": 1240,
      "orth": 1241,
      "ĠMon": 1242,
      "Ġget": 1243,
      "Ġgroup": 1244,
      "Ġgrow": 1245,
      "Ġgentle": 1246,
      "Ġproper": 1247,
      "Ġdet": 1248,
      "Ġconst": 1249,
      "Ġpow": 1250,
      "Ġpolit": 1251,
      "ither": 1252,
      "chn": 1253,
      "ĠSe": 1254,
      "adies": 1255,
      "iron": 1256,
      "licy": 1257,
      "ĠAff": 1258,
      "Ġadv": 1259,
      "ffici": 1260,
      "Ġdisaster": 1261,
      "Ġused": 1262,
      "Ġresources": 1263,
      "006": 1264,
      "erman": 1265,
      "Ġissues": 1266,
      "Ġprecis": 1267,
      "Ġaction": 1268,
      "Ġmonth": 1269,
      "Ġtechn": 1270,
      "Ġdraw": 1271,
      "Ġpriorities": 1272,
      "Ġgreater": 1273,
      "Ġincrease": 1274,
      "Ġsectors": 1275,
      "Ġopin": 1276,
      "Ġobs": 1277,
      "Ġcertainly": 1278,
      "Ġprovide": 1279,
      "Ġimplementation": 1280,
      "Ġ1998": 1281,
      "Ġfundament": 1282,
      "ĠConference": 1283,
      "ething": 1284,
      "airs": 1285,
      "Ġsomething": 1286,
      "Ġprocedure": 1287,
      "ĠPolicy": 1288,
      "Ġperson": 1289,
      "Ġlocal": 1290,
      "Ġcompanies": 1291,
      "Ġdemand": 1292,
      "Ġsuccess": 1293,
      "Ġadminist": 1294,
      "Ġfavour": 1295,
      "Ġespecially": 1296,
      "Ġrather": 1297,
      "Ġopportunities": 1298,
      "Ġflexi": 1299,
      "Ġgentlemen": 1300,
      "ĠAffairs": 1301,
      "Ġadministr": 1302,
      "bled": 1303,
      "cc": 1304,
      "ech": 1305,
      "gg": 1306,
      "gether": 1307,
      "ig": 1308,
      "ied": 1309,
      "ium": 1310,
      "mor": 1311,
      "olog": 1312,
      "uild": 1313,
      "vate": 1314,
      "viron": 1315,
      "ĠY": 1316,
      "Ġide": 1317,
      "Ġthus": 1318,
      "Ġthough": 1319,
      "Ġwater": 1320,
      "Ġsy": 1321,
      "ited": 1322,
      "Ġprom": 1323,
      "Ġtomor": 1324,
      "Ġoff": 1325,
      "Ġcar": 1326,
      "Ġinf": 1327,
      "Ġben": 1328,
      "Ġback": 1329,
      "ales": 1330,
      "ound": 1331,
      "Ġmain": 1332,
      "ange": 1333,
      "Ġdid": 1334,
      "Ġday": 1335,
      "Ġdown": 1336,
      "Ġhear": 1337,
      "Ġladies": 1338,
      "ĠMy": 1339,
      "ĠMin": 1340,
      "Ġgr": 1341,
      "utes": 1342,
      "ĠPart": 1343,
      "Ġcong": 1344,
      "sequ": 1345,
      "ĠEv": 1346,
      "ĠEconom": 1347,
      "veral": 1348,
      "ection": 1349,
      "unic": 1350,
      "ĠWales": 1351,
      "Ġalways": 1352,
      "Ġsoci": 1353,
      "thing": 1354,
      "ĠFor": 1355,
      "Ġreports": 1356,
      "Ġtabled": 1357,
      "Ġleast": 1358,
      "Ġenfor": 1359,
      "Ġourselves": 1360,
      "Ġdispar": 1361,
      "Ġrespect": 1362,
      "Ġcoo": 1363,
      "ĠMembers": 1364,
      "Ġseveral": 1365,
      "Ġcontribut": 1366,
      "Ġplann": 1367,
      "Ġindeed": 1368,
      "Ġproposed": 1369,
      "Ġupon": 1370,
      "Ġconcerning": 1371,
      "Ġprivate": 1372,
      "Ġactiv": 1373,
      "Ġpresented": 1374,
      "Ġtext": 1375,
      "Ġsubsid": 1376,
      "Ġclearly": 1377,
      "Ġassess": 1378,
      "Ġassist": 1379,
      "Ġdecision": 1380,
      "Ġdecisions": 1381,
      "Ġsix": 1382,
      "Ġsign": 1383,
      "Ġcreation": 1384,
      "Ġstandards": 1385,
      "Ġkey": 1386,
      "Ġinstitut": 1387,
      "Ġharmonisation": 1388,
      "Ġprevious": 1389,
      "Ġmodern": 1390,
      "Ġadvisers": 1391,
      "Ġmonopolies": 1392,
      "Ġinternal": 1393,
      "ĠTransport": 1394,
      "Ġpolitical": 1395,
      "Ġprecisely": 1396,
      "Ġfundamental": 1397,
      "vironment": 1398,
      "Ġtomorrow": 1399,
      "ĠParty": 1400,
      "ĠEconomic": 1401,
      "2006": 1402,
      "EN": 1403,
      "com": 1404,
      "fort": 1405,
      "ily": 1406,
      "ty": 1407,
      "ted": 1408,
      "ĠV": 1409,
      "Ġap": 1410,
      "reed": 1411,
      "ining": 1412,
      "ency": 1413,
      "Ġopt": 1414,
      "atives": 1415,
      "ory": 1416,
      "Ġtogether": 1417,
      "Ġbal": 1418,
      "Ġrese": 1419,
      "Ġmight": 1420,
      "Ġduring": 1421,
      "ĠInd": 1422,
      "Ġlink": 1423,
      "llent": 1424,
      "Ġwee": 1425,
      "imate": 1426,
      "Ġpropose": 1427,
      "ceed": 1428,
      "cellent": 1429,
      "Ġdef": 1430,
      "Ġdel": 1431,
      "ĠPro": 1432,
      "Ġstates": 1433,
      "Ġitself": 1434,
      "ulate": 1435,
      "Ġcomple": 1436,
      "Ġyes": 1437,
      "Ġyet": 1438,
      "Ġshe": 1439,
      "Ġexist": 1440,
      "Ġexcellent": 1441,
      "light": 1442,
      "ĠThey": 1443,
      "Ġanaly": 1444,
      "ivid": 1445,
      "ĠAm": 1446,
      "ify": 1447,
      "Ġval": 1448,
      "Ġenvironment": 1449,
      "ership": 1450,
      "itted": 1451,
      "ĠGerman": 1452,
      "allen": 1453,
      "Ġmeet": 1454,
      "Ġgovern": 1455,
      "Ġsaid": 1456,
      "Ġcoord": 1457,
      "Ġquality": 1458,
      "Ġprogramming": 1459,
      "Ġcontain": 1460,
      "ĠRe": 1461,
      "Ġpointed": 1462,
      "Ġeffici": 1463,
      "ably": 1464,
      "Ġneeds": 1465,
      "Ġregards": 1466,
      "Ġchallen": 1467,
      "Ġwhole": 1468,
      "vision": 1469,
      "ferent": 1470,
      "Ġkind": 1471,
      "Ġtell": 1472,
      "Ġperiodic": 1473,
      "egr": 1474,
      "Ġresponsible": 1475,
      "Ġincreasing": 1476,
      "Ġobli": 1477,
      "Ġspecifically": 1478,
      "duction": 1479,
      "Ġdifferent": 1480,
      "Ġaddition": 1481,
      "Ġinvolve": 1482,
      "Ġcreate": 1483,
      "Ġincluding": 1484,
      "Ġdiscussing": 1485,
      "Ġcapital": 1486,
      "Ġconclusion": 1487,
      "Ġconclusions": 1488,
      "Ġbasis": 1489,
      "Ġgeneral": 1490,
      "ples": 1491,
      "Ġtraining": 1492,
      "Ġsimp": 1493,
      "Ġcontinue": 1494,
      "ergy": 1495,
      "Ġefforts": 1496,
      "ĠSocialists": 1497,
      "Ġserious": 1498,
      "Ġservices": 1499,
      "ĠArticle": 1500,
      "Ġauthorities": 1501,
      "Ġsmall": 1502,
      "Ġfurther": 1503,
      "Ġmonths": 1504,
      "Ġopinion": 1505,
      "ĠMinutes": 1506,
      "Ġgrant": 1507,
      "Ġcongrat": 1508,
      "Ġsociety": 1509,
      "Ġdisparities": 1510,
      "Ġcooperation": 1511,
      "fortun": 1512,
      "Ġresearch": 1513,
      "Ġcoordination": 1514,
      "come": 1515,
      "eb": 1516,
      "ext": 1517,
      "ged": 1518,
      "get": 1519,
      "gth": 1520,
      "here": 1521,
      "ivers": 1522,
      "ner": 1523,
      "ness": 1524,
      "pr": 1525,
      "rast": 1526,
      "ts": 1527,
      "uc": 1528,
      "vi": 1529,
      "Ġ9": 1530,
      "Ġed": 1531,
      "Ġter": 1532,
      "Ġaim": 1533,
      "Ġaff": 1534,
      "rent": 1535,
      "ath": 1536,
      "Ġparliament": 1537,
      "Ġpast": 1538,
      "Ġbro": 1539,
      "Ġbri": 1540,
      "Ġbring": 1541,
      "Ġbuild": 1542,
      "alth": 1543,
      "oura": 1544,
      "Ġfie": 1545,
      "arily": 1546,
      "Ġref": 1547,
      "Ġren": 1548,
      "Ġreal": 1549,
      "Ġreduction": 1550,
      "Ġmind": 1551,
      "ances": 1552,
      "ically": 1553,
      "Ġel": 1554,
      "Ġeither": 1555,
      "ĠCEN": 1556,
      "urs": 1557,
      "Ġforce": 1558,
      "Ġforward": 1559,
      "Ġstart": 1560,
      "Ġconf": 1561,
      "Ġhapp": 1562,
      "ulation": 1563,
      "stand": 1564,
      "Ġcomes": 1565,
      "Ġexc": 1566,
      "Ġsuper": 1567,
      "Ġsuffici": 1568,
      "Ġsugg": 1569,
      "empt": 1570,
      "ĠAnd": 1571,
      "Ġpartn": 1572,
      "Ġris": 1573,
      "round": 1574,
      "Ġmak": 1575,
      "Ġconclud": 1576,
      "Ġword": 1577,
      "Ġmean": 1578,
      "Ġspeech": 1579,
      "Ġcost": 1580,
      "Ġeconomies": 1581,
      "Ġpositive": 1582,
      "Ġabsolut": 1583,
      "Ġplay": 1584,
      "Ġpoints": 1585,
      "Ġindivid": 1586,
      "Ġexperi": 1587,
      "ĠOn": 1588,
      "ĠOur": 1589,
      "Ġremain": 1590,
      "Ġactually": 1591,
      "Ġcountry": 1592,
      "Ġobjective": 1593,
      "Ġapproved": 1594,
      "Ġinterv": 1595,
      "Ġlegal": 1596,
      "Ġevent": 1597,
      "Ġregulation": 1598,
      "Ġsubst": 1599,
      "Ġresponsi": 1600,
      "Ġincreased": 1601,
      "Ġdiscussion": 1602,
      "Ġeffective": 1603,
      "Ġagainst": 1604,
      "Ġlevels": 1605,
      "Ġfocus": 1606,
      "Ġinvolved": 1607,
      "Ġlegislative": 1608,
      "Ġminimum": 1609,
      "ators": 1610,
      "Ġcurrent": 1611,
      "Ġenterpr": 1612,
      "Ġprovided": 1613,
      "010": 1614,
      "Ġessential": 1615,
      "Ġinformation": 1616,
      "Ġnatural": 1617,
      "Ġdetail": 1618,
      "Ġidea": 1619,
      "Ġinfrast": 1620,
      "Ġenforce": 1621,
      "Ġplanning": 1622,
      "Ġsubsidi": 1623,
      "Ġsixth": 1624,
      "Ġbalance": 1625,
      "Ġdelay": 1626,
      "Ġcongratulate": 1627,
      "fortunately": 1628,
      "Ġbrief": 1629,
      "Ġfield": 1630,
      "Ġsuggest": 1631,
      "Ġenterprises": 1632,
      ")]": 1633,
      "21": 1634,
      "EC": 1635,
      "aper": 1636,
      "ban": 1637,
      "cu": 1638,
      "di": 1639,
      "ey": 1640,
      "ieve": 1641,
      "lle": 1642,
      "less": 1643,
      "large": 1644,
      "og": 1645,
      "ove": 1646,
      "pren": 1647,
      "rong": 1648,
      "session": 1649,
      "vant": 1650,
      "Ġ[": 1651,
      "Ġthree": 1652,
      "rem": 1653,
      "repren": 1654,
      "ined": 1655,
      "ening": 1656,
      "enary": 1657,
      "Ġoper": 1658,
      "Ġocc": 1659,
      "Ġwom": 1660,
      "Ġsch": 1661,
      "its": 1662,
      "Ġtot": 1663,
      "Ġbo": 1664,
      "Ġbure": 1665,
      "entions": 1666,
      "oub": 1667,
      "Ġfour": 1668,
      "arn": 1669,
      "Ġred": 1670,
      "Ġrest": 1671,
      "Ġreform": 1672,
      "ompet": 1673,
      "Ġdue": 1674,
      "Ġbear": 1675,
      "Ġelect": 1676,
      "ĠCompet": 1677,
      "Ġlow": 1678,
      "Ġlarge": 1679,
      "other": 1680,
      "Ġweak": 1681,
      "ĠTo": 1682,
      "ĠTour": 1683,
      "Ġprot": 1684,
      "Ġproceed": 1685,
      "ĠThank": 1686,
      "ĠThurs": 1687,
      "Ġdemon": 1688,
      "Ġstren": 1689,
      "Ġpoor": 1690,
      "tern": 1691,
      "terday": 1692,
      "Ġcomment": 1693,
      "Ġshort": 1694,
      "Ġshow": 1695,
      "Ġexpect": 1696,
      "Ġanother": 1697,
      "Ġneg": 1698,
      "ĠAt": 1699,
      "ĠAll": 1700,
      "though": 1701,
      "ĠFirst": 1702,
      "ĠFeb": 1703,
      "ruary": 1704,
      "ĠPresidents": 1705,
      "Ġlight": 1706,
      "Ġlead": 1707,
      "Ġenough": 1708,
      "Ġenlarge": 1709,
      "Ġdocu": 1710,
      "Ġintegr": 1711,
      "Ġgoing": 1712,
      "Ġspecial": 1713,
      "Ġcolle": 1714,
      "Ġapplic": 1715,
      "Ġcommunic": 1716,
      "Ġstatement": 1717,
      "Ġseen": 1718,
      "Ġplenary": 1719,
      "Ġbecome": 1720,
      "ability": 1721,
      "Ġbetter": 1722,
      "ĠBy": 1723,
      "Ġmarkets": 1724,
      "Ġremind": 1725,
      "Ġmatters": 1726,
      "Ġrelative": 1727,
      "Ġlegit": 1728,
      "Ġexamination": 1729,
      "Ġproposals": 1730,
      "Ġinvest": 1731,
      "Ġentrepren": 1732,
      "Ġsubm": 1733,
      "Ġimproved": 1734,
      "Ġhold": 1735,
      "Ġroads": 1736,
      "Ġhighlight": 1737,
      "Ġurg": 1738,
      "Ġurban": 1739,
      "Ġagreements": 1740,
      "Ġdecl": 1741,
      "Ġextent": 1742,
      "Ġlegislation": 1743,
      "Ġmajority": 1744,
      "auc": 1745,
      "Ġfellow": 1746,
      "Ġachie": 1747,
      "Ġachieve": 1748,
      "Ġprojects": 1749,
      "Ġexplan": 1750,
      "Ġpleased": 1751,
      "Ġislands": 1752,
      "ĠMonetary": 1753,
      "Ġgroups": 1754,
      "Ġpower": 1755,
      "Ġflexibility": 1756,
      "ĠYou": 1757,
      "Ġbenef": 1758,
      "Ġmodernisation": 1759,
      "Ġappe": 1760,
      "Ġoptimum": 1761,
      "Ġyesterday": 1762,
      "Ġchallenges": 1763,
      "Ġsimply": 1764,
      "Ġgranted": 1765,
      "Ġeduc": 1766,
      "Ġparliamentary": 1767,
      "Ġrenew": 1768,
      "Ġpartnership": 1769,
      "Ġindividual": 1770,
      "Ġsubsidiarity": 1771,
      "Ġwomen": 1772,
      "Ġbureauc": 1773,
      "ĠCompetition": 1774,
      "ĠTourism": 1775,
      "ĠThursday": 1776,
      "Ġdemonst": 1777,
      "Ġstrength": 1778,
      "ĠFebruary": 1779,
      "Ġenlargement": 1780,
      "Ġentrepreneur": 1781,
      "DP": 1782,
      "bal": 1783,
      "cut": 1784,
      "ding": 1785,
      "ficult": 1786,
      "iations": 1787,
      "low": 1788,
      "mber": 1789,
      "ng": 1790,
      "oid": 1791,
      "por": 1792,
      "pite": 1793,
      "pulation": 1794,
      "rid": 1795,
      "sp": 1796,
      "til": 1797,
      "uary": 1798,
      "ximum": 1799,
      "Ġ\"": 1800,
      "Ġtru": 1801,
      "Ġtreat": 1802,
      "Ġthing": 1803,
      "rect": 1804,
      "ense": 1805,
      "ister": 1806,
      "Ġoth": 1807,
      "Ġperm": 1808,
      "ors": 1809,
      "orks": 1810,
      "Ġtool": 1811,
      "Ġoffic": 1812,
      "Ġcreat": 1813,
      "Ġcause": 1814,
      "Ġcentral": 1815,
      "Ġinland": 1816,
      "Ġinequ": 1817,
      "Ġbod": 1818,
      "ought": 1819,
      "arant": 1820,
      "Ġret": 1821,
      "Ġreject": 1822,
      "Ġreally": 1823,
      "Ġmult": 1824,
      "anim": 1825,
      "anuary": 1826,
      "Ġdivers": 1827,
      "Ġhum": 1828,
      "Ġnorth": 1829,
      "Ġlat": 1830,
      "Ġlif": 1831,
      "Ġliving": 1832,
      "ommend": 1833,
      "Ġprovis": 1834,
      "Ġaspect": 1835,
      "Ġdeg": 1836,
      "Ġdep": 1837,
      "Ġhaving": 1838,
      "Ġregret": 1839,
      "stem": 1840,
      "Ġwithout": 1841,
      "term": 1842,
      "ected": 1843,
      "unn": 1844,
      "Ġexcept": 1845,
      "ustri": 1846,
      "ĠAl": 1847,
      "ĠAustri": 1848,
      "Ġsolut": 1849,
      "therm": 1850,
      "Ġamong": 1851,
      "Ġenergy": 1852,
      "Ġallow": 1853,
      "Ġ15": 1854,
      "ĠState": 1855,
      "ired": 1856,
      "Ġcompetitive": 1857,
      "els": 1858,
      "Ġunne": 1859,
      "Ġuntil": 1860,
      "Ġunanim": 1861,
      "Ġagreed": 1862,
      "ittle": 1863,
      "Ġintend": 1864,
      "ĠGo": 1865,
      "ĠGDP": 1866,
      "Ġmaximum": 1867,
      "velopment": 1868,
      "Ġface": 1869,
      "graph": 1870,
      "Ġapply": 1871,
      "Ġaccident": 1872,
      "Ġraise": 1873,
      "posed": 1874,
      "Ġcontent": 1875,
      "Ġcontro": 1876,
      "Ġcontext": 1877,
      "Ġplans": 1878,
      "duced": 1879,
      "Ġneeded": 1880,
      "Ġtransported": 1881,
      "ĠBere": 1882,
      "Ġchang": 1883,
      "Ġchange": 1884,
      "Ġemploy": 1885,
      "Ġemph": 1886,
      "Ġmoney": 1887,
      "Ġtakes": 1888,
      "Ġdirection": 1889,
      "Ġfirstly": 1890,
      "Ġmanner": 1891,
      "Ġsupported": 1892,
      "ensive": 1893,
      "fully": 1894,
      "aged": 1895,
      "ague": 1896,
      "Ġrecommend": 1897,
      "Ġrespond": 1898,
      "Ġeffects": 1899,
      "ĠLet": 1900,
      "rench": 1901,
      "ĠWhy": 1902,
      "ĠWhat": 1903,
      "ferences": 1904,
      "ĠTherefore": 1905,
      "Ġdifficult": 1906,
      "Ġdifferences": 1907,
      "Ġimplementing": 1908,
      "Ġaddress": 1909,
      "Ġquestions": 1910,
      "Ġspir": 1911,
      "Ġproblem": 1912,
      "Ġspeaking": 1913,
      "Ġspeakers": 1914,
      "Ġstrategy": 1915,
      "Ġkeep": 1916,
      "ification": 1917,
      "ĠJanuary": 1918,
      "Ġdecentral": 1919,
      "Ġdiscussed": 1920,
      "ailable": 1921,
      "Ġpurpose": 1922,
      "Ġpursu": 1923,
      "Ġeverything": 1924,
      "Ġextrem": 1925,
      "vernment": 1926,
      "Ġdistribut": 1927,
      "Ġcritic": 1928,
      "Ġreferred": 1929,
      "Ġfinancial": 1930,
      "COS": 1931,
      "Ġavoid": 1932,
      "Ġclose": 1933,
      "Ġcorrect": 1934,
      "Ġready": 1935,
      "Ġagriculture": 1936,
      "Ġagricultural": 1937,
      "Ġintroduce": 1938,
      "Ġdraft": 1939,
      "Ġgrowth": 1940,
      "Ġtechnolog": 1941,
      "Ġobserv": 1942,
      "Ġsystem": 1943,
      "sequently": 1944,
      "ĠEvans": 1945,
      "Ġsignific": 1946,
      "Ġinstitutions": 1947,
      "ĠIndeed": 1948,
      "Ġweek": 1949,
      "ĠProdi": 1950,
      "ĠGermany": 1951,
      "Ġgovernments": 1952,
      "Ġinvolvement": 1953,
      "Ġbroad": 1954,
      "Ġexperience": 1955,
      "Ġintervention": 1956,
      "Ġinfrastructure": 1957,
      "Ġenforcement": 1958,
      "Ġbriefly": 1959,
      "Ġboost": 1960,
      "ĠFirstly": 1961,
      "Ġcommunication": 1962,
      "Ġdeclared": 1963,
      "Ġothers": 1964,
      "Ġlife": 1965,
      "Ġprovisions": 1966,
      "thermore": 1967,
      "Ġunnecess": 1968,
      "Ġemphas": 1969,
      "Ġextremely": 1970,
      "PE": 1971,
      "apt": 1972,
      "bil": 1973,
      "coura": 1974,
      "de": 1975,
      "fy": 1976,
      "fect": 1977,
      "gan": 1978,
      "ially": 1979,
      "know": 1980,
      "les": 1981,
      "mew": 1982,
      "nes": 1983,
      "nual": 1984,
      "pan": 1985,
      "pher": 1986,
      "ron": 1987,
      "rict": 1988,
      "ss": 1989,
      "sw": 1990,
      "sis": 1991,
      "te": 1992,
      "ti": 1993,
      "ull": 1994,
      "ven": 1995,
      "works": 1996,
      "year": 1997,
      "zed": 1998,
      "Ġ5": 1999,
      "Ġthings": 2000,
      "Ġthought": 2001,
      "Ġaw": 2002,
      "reh": 2003,
      "onck": 2004,
      "ata": 2005,
      "atis": 2006,
      "ert": 2007,
      "eric": 2008,
      "erve": 2009,
      "ercis": 2010,
      "erved": 2011,
      "Ġsing": 2012,
      "iter": 2013,
      "iting": 2014,
      "itment": 2015,
      "Ġph": 2016,
      "Ġpar": 2017,
      "Ġpress": 2018,
      "Ġpass": 2019,
      "ork": 2020,
      "orm": 2021,
      "Ġcr": 2022,
      "Ġcaus": 2023,
      "Ġcare": 2024,
      "Ġfall": 2025,
      "ednes": 2026,
      "Ġrele": 2027,
      "Ġrece": 2028,
      "Ġreach": 2029,
      "Ġreference": 2030,
      "Ġrevi": 2031,
      "Ġmed": 2032,
      "Ġmess": 2033,
      "Ġmill": 2034,
      "Ġmember": 2035,
      "Ġmeth": 2036,
      "Ġdate": 2037,
      "Ġdam": 2038,
      "Ġdata": 2039,
      "Ġhim": 2040,
      "Ġhard": 2041,
      "Ġhalf": 2042,
      "Ġbegin": 2043,
      "ash": 2044,
      "asi": 2045,
      "Ġnon": 2046,
      "Ġever": 2047,
      "idence": 2048,
      "Ġwhile": 2049,
      "urn": 2050,
      "Ġlim": 2051,
      "Ġline": 2052,
      "Ġlittle": 2053,
      "otiations": 2054,
      "Ġwel": 2055,
      "Ġground": 2056,
      "Ġprob": 2057,
      "ression": 2058,
      "ĠPaper": 2059,
      "ĠPPE": 2060,
      "Ġstage": 2061,
      "Ġstep": 2062,
      "Ġstructure": 2063,
      "Ġconn": 2064,
      "Ġconver": 2065,
      "racy": 2066,
      "ramew": 2067,
      "Ġpopulation": 2068,
      "ulf": 2069,
      "verty": 2070,
      "Ġnote": 2071,
      "Ġcomb": 2072,
      "unct": 2073,
      "Ġship": 2074,
      "Ġexercis": 2075,
      "lied": 2076,
      "Ġsupp": 2077,
      "ird": 2078,
      "Ġansw": 2079,
      "ĠWog": 2080,
      "ĠWednes": 2081,
      "Ġalone": 2082,
      "Ġalthough": 2083,
      "Ġnever": 2084,
      "ĠAg": 2085,
      "ified": 2086,
      "Ġvon": 2087,
      "Ġyoung": 2088,
      "beral": 2089,
      "ĠFrench": 2090,
      "Ġadapt": 2091,
      "Ġenable": 2092,
      "Ġencoura": 2093,
      "Ġorgan": 2094,
      "Ġrich": 2095,
      "Ġdoing": 2096,
      "Ġusing": 2097,
      "eless": 2098,
      "Ġunfortunately": 2099,
      "ructive": 2100,
      "Ġworld": 2101,
      "eria": 2102,
      "Ġapplied": 2103,
      "Ġcommitment": 2104,
      "poses": 2105,
      "Ġpositions": 2106,
      "aced": 2107,
      "Ġguarant": 2108,
      "ducing": 2109,
      "Ġdebated": 2110,
      "cision": 2111,
      "Ġconcerns": 2112,
      "taining": 2113,
      "Ġremember": 2114,
      "Ġways": 2115,
      "Ġtaking": 2116,
      "Ġdirectives": 2117,
      "Ġapproach": 2118,
      "Ġpresentation": 2119,
      "Ġrelation": 2120,
      "Ġrelated": 2121,
      "Ġthemselves": 2122,
      "Ġasked": 2123,
      "Ġsaying": 2124,
      "Ġconsiderable": 2125,
      "Ġreco": 2126,
      "Ġresponse": 2127,
      "Ġadopting": 2128,
      "Ġeffectiveness": 2129,
      "rency": 2130,
      "ĠWhen": 2131,
      "ĠWhite": 2132,
      "Ġimproving": 2133,
      "Ġunderstand": 2134,
      "Ġprinciples": 2135,
      "Ġinvolving": 2136,
      "Ġspent": 2137,
      "Ġhighly": 2138,
      "Ġurge": 2139,
      "Ġgenu": 2140,
      "Ġfunding": 2141,
      "Ġreasons": 2142,
      "Ġreasonable": 2143,
      "Ġbusinesses": 2144,
      "ĠJonck": 2145,
      "Ġinclude": 2146,
      "Ġpurposes": 2147,
      "Ġaccepted": 2148,
      "Ġharmonising": 2149,
      "Ġestablishing": 2150,
      "Ġestablishment": 2151,
      "atory": 2152,
      "Ġperfect": 2153,
      "Ġdespite": 2154,
      "Ġprevent": 2155,
      "Ġgenerally": 2156,
      "heer": 2157,
      "Ġlonger": 2158,
      "Ġconsum": 2159,
      "Ġconsist": 2160,
      "Ġcontinu": 2161,
      "Ġrepresentatives": 2162,
      "Ġcriteria": 2163,
      "Ġequal": 2164,
      "Ġfailure": 2165,
      "Ġexpressed": 2166,
      "COM": 2167,
      "Ġavailable": 2168,
      "Ġcurrency": 2169,
      "Ġclosed": 2170,
      "Ġinitiative": 2171,
      "Ġvotes": 2172,
      "Ġvoted": 2173,
      "Ġinterest": 2174,
      "Ġseems": 2175,
      "Ġexplain": 2176,
      "ĠDevelopment": 2177,
      "Ġtype": 2178,
      "Ġpractical": 2179,
      "Ġdisasters": 2180,
      "Ġtechnical": 2181,
      "Ġadministration": 2182,
      "Ġwaterways": 2183,
      "Ġpromot": 2184,
      "Ġcarry": 2185,
      "Ġactivity": 2186,
      "Ġactivities": 2187,
      "Ġexisting": 2188,
      "ĠAmeric": 2189,
      "Ġmeeting": 2190,
      "Ġaffected": 2191,
      "Ġsupervis": 2192,
      "Ġconclude": 2193,
      "Ġwords": 2194,
      "Ġabsolutely": 2195,
      "Ġresponsibility": 2196,
      "Ġoccas": 2197,
      "Ġnegotiations": 2198,
      "Ġdocument": 2199,
      "Ġintegrated": 2200,
      "Ġlegitimate": 2201,
      "Ġsubmitted": 2202,
      "Ġbureaucracy": 2203,
      "Ġstrengthen": 2204,
      "Ġdiversity": 2205,
      "Ġhuman": 2206,
      "Ġnorthern": 2207,
      "ĠAustria": 2208,
      "Ġunanimously": 2209,
      "Ġintended": 2210,
      "ĠBerend": 2211,
      "Ġchanges": 2212,
      "Ġspirit": 2213,
      "pheral": 2214,
      "Ġsingle": 2215,
      "Ġrelevant": 2216,
      "Ġreview": 2217,
      "Ġmethod": 2218,
      "Ġsupply": 2219,
      "ĠWogau": 2220,
      "ĠWednesday": 2221,
      "ĠJonckheer": 2222,
      "20": 2223,
      "DE": 2224,
      "II": 2225,
      "President": 2226,
      "Qu": 2227,
      "The": 2228,
      "av": 2229,
      "aci": 2230,
      "bar": 2231,
      "bur": 2232,
      "cum": 2233,
      "dra": 2234,
      "dep": 2235,
      "dict": 2236,
      "ex": 2237,
      "ecut": 2238,
      "fact": 2239,
      "gress": 2240,
      "gence": 2241,
      "hing": 2242,
      "hap": 2243,
      "ires": 2244,
      "iberal": 2245,
      "ked": 2246,
      "kay": 2247,
      "la": 2248,
      "med": 2249,
      "mployment": 2250,
      "nium": 2251,
      "ope": 2252,
      "ores": 2253,
      "over": 2254,
      "pes": 2255,
      "pid": 2256,
      "rance": 2257,
      "to": 2258,
      "ug": 2259,
      "uis": 2260,
      "ught": 2261,
      "¤n": 2262,
      "³n": 2263,
      "Ã¤n": 2264,
      "Ã³n": 2265,
      "Ġ3": 2266,
      "Ġz": 2267,
      "ĠQu": 2268,
      "Ġtem": 2269,
      "Ġtunn": 2270,
      "Ġaver": 2271,
      "Ġair": 2272,
      "rees": 2273,
      "reci": 2274,
      "ension": 2275,
      "ences": 2276,
      "ennium": 2277,
      "Ġori": 2278,
      "atic": 2279,
      "atus": 2280,
      "ature": 2281,
      "atures": 2282,
      "Ġworth": 2283,
      "Ġsources": 2284,
      "Ġsense": 2285,
      "Ġpay": 2286,
      "Ġpath": 2287,
      "orms": 2288,
      "orpor": 2289,
      "Ġoffer": 2290,
      "Ġcat": 2291,
      "Ġcir": 2292,
      "Ġban": 2293,
      "Ġbad": 2294,
      "Ġbest": 2295,
      "Ġbrou": 2296,
      "Ġbase": 2297,
      "Ġbased": 2298,
      "alities": 2299,
      "alaci": 2300,
      "Ġfig": 2301,
      "Ġfull": 2302,
      "Ġframew": 2303,
      "arÃ³n": 2304,
      "Ġrein": 2305,
      "Ġrepe": 2306,
      "Ġreduce": 2307,
      "Ġresolut": 2308,
      "Ġmis": 2309,
      "Ġmid": 2310,
      "anced": 2311,
      "icip": 2312,
      "Ġdread": 2313,
      "Ġdoub": 2314,
      "Ġnet": 2315,
      "Ġnam": 2316,
      "Ġear": 2317,
      "Ġeuro": 2318,
      "Ġongo": 2319,
      "ĠCres": 2320,
      "urthermore": 2321,
      "Ġforget": 2322,
      "Ġlate": 2323,
      "Ġlive": 2324,
      "Ġlist": 2325,
      "Ġwealth": 2326,
      "ĠMost": 2327,
      "Ġgra": 2328,
      "Ġglo": 2329,
      "Ġgiving": 2330,
      "imin": 2331,
      "Ġprof": 2332,
      "Ġproduce": 2333,
      "Ġprogress": 2334,
      "cember": 2335,
      "respon": 2336,
      "ute": 2337,
      "ĠPublic": 2338,
      "ĠPalaci": 2339,
      "Ġstated": 2340,
      "Ġstud": 2341,
      "Ġstress": 2342,
      "Ġstatus": 2343,
      "Ġstorms": 2344,
      "raint": 2345,
      "Ġpoverty": 2346,
      "ĠEC": 2347,
      "ĠEaster": 2348,
      "ĠEmployment": 2349,
      "Ġregister": 2350,
      "Ġnothing": 2351,
      "stances": 2352,
      "Ġwithdra": 2353,
      "ĠSri": 2354,
      "Ġshown": 2355,
      "Ġexecut": 2356,
      "quis": 2357,
      "irm": 2358,
      "Ġannual": 2359,
      "rial": 2360,
      "emes": 2361,
      "ĠWith": 2362,
      "ived": 2363,
      "ivity": 2364,
      "Ġsoon": 2365,
      "ending": 2366,
      "Ġvast": 2367,
      "sol": 2368,
      "ĠFurthermore": 2369,
      "Ġamount": 2370,
      "Ġparticip": 2371,
      "Ġlearn": 2372,
      "Ġoral": 2373,
      "Ġ12": 2374,
      "Ġ18": 2375,
      "Ġunable": 2376,
      "ructures": 2377,
      "ructuring": 2378,
      "Ġmagn": 2379,
      "Ġtransit": 2380,
      "ĠUnited": 2381,
      "Ġsave": 2382,
      "Ġcold": 2383,
      "Ġquar": 2384,
      "Ġappreci": 2385,
      "sized": 2386,
      "Ġraised": 2387,
      "Ġrapid": 2388,
      "astro": 2389,
      "Ġincorpor": 2390,
      "Ġpossi": 2391,
      "ĠRap": 2392,
      "Ġplaced": 2393,
      "ĠIntern": 2394,
      "Ġdebating": 2395,
      "ished": 2396,
      "ĠBarÃ³n": 2397,
      "Ġchann": 2398,
      "Ġembar": 2399,
      "Ġprepare": 2400,
      "irective": 2401,
      "aken": 2402,
      "Ġperipheral": 2403,
      "Ġrelates": 2404,
      "Ġrelations": 2405,
      "Ġrelating": 2406,
      "Ġtele": 2407,
      "Ġdrawn": 2408,
      "Ġsupporting": 2409,
      "Ġfacts": 2410,
      "Ġanything": 2411,
      "Ġensuring": 2412,
      "ĠDirective": 2413,
      "aging": 2414,
      "Ġrecent": 2415,
      "Ġrecord": 2416,
      "Ġrecently": 2417,
      "Ġrequired": 2418,
      "ĠLank": 2419,
      "Ġdecisive": 2420,
      "Ġundert": 2421,
      "Ġstandard": 2422,
      "Ġnecessarily": 2423,
      "Ġ1997": 2424,
      "Ġfinal": 2425,
      "Ġagreement": 2426,
      "ĠNo": 2427,
      "Ġinstru": 2428,
      "Ġbehind": 2429,
      "ĠConsequently": 2430,
      "ledge": 2431,
      "Ġwishes": 2432,
      "Ġincluded": 2433,
      "Ġrequested": 2434,
      "Ġcapac": 2435,
      "Ġaccording": 2436,
      "Ġindustrial": 2437,
      "riculture": 2438,
      "Ġminute": 2439,
      "Ġletter": 2440,
      "Ġresults": 2441,
      "Ġendor": 2442,
      "Ġestablished": 2443,
      "Ġcalled": 2444,
      "Ġbasic": 2445,
      "Ġprocedures": 2446,
      "Ġconsult": 2447,
      "Ġlesson": 2448,
      "Ġfinancing": 2449,
      "Ġseriously": 2450,
      "Ġinitiatives": 2451,
      "Ġproduction": 2452,
      "ĠArticles": 2453,
      "Ġrailways": 2454,
      "ginal": 2455,
      "Ġreading": 2456,
      "Ġinteresting": 2457,
      "Ġindicators": 2458,
      "Ġdrafting": 2459,
      "ĠDecember": 2460,
      "Ġopenness": 2461,
      "Ġtypes": 2462,
      "Ġpractice": 2463,
      "Ġgrowing": 2464,
      "Ġproperly": 2465,
      "Ġpowers": 2466,
      "Ġadvance": 2467,
      "Ġobserved": 2468,
      "Ġpersonal": 2469,
      "Ġadministrative": 2470,
      "Ġpromote": 2471,
      "ĠEven": 2472,
      "Ġassistance": 2473,
      "ĠVice": 2474,
      "Ġanalysis": 2475,
      "Ġvalue": 2476,
      "Ġenvironmental": 2477,
      "Ġcontains": 2478,
      "ĠReport": 2479,
      "ĠReform": 2480,
      "Ġefficient": 2481,
      "Ġoblig": 2482,
      "Ġobliged": 2483,
      "Ġadditional": 2484,
      "Ġ94": 2485,
      "Ġterrit": 2486,
      "Ġreflect": 2487,
      "Ġconfidence": 2488,
      "Ġexclus": 2489,
      "Ġsufficient": 2490,
      "Ġsufficiently": 2491,
      "Ġrisk": 2492,
      "Ġrisks": 2493,
      "Ġmakes": 2494,
      "Ġmaking": 2495,
      "Ġcosts": 2496,
      "Ġsubstant": 2497,
      "Ġdetails": 2498,
      "Ġfields": 2499,
      ")].": 2500,
      "Ġschemes": 2501,
      "Ġrestructuring": 2502,
      "Ġbearing": 2503,
      "Ġlower": 2504,
      "Ġprotection": 2505,
      "Ġapplication": 2506,
      "Ġachieving": 2507,
      "Ġexplanation": 2508,
      "Ġbenefit": 2509,
      "Ġeducation": 2510,
      "Ġdemonstrate": 2511,
      "Ġentrepreneurs": 2512,
      "Ġtreatment": 2513,
      "Ġlatest": 2514,
      "Ġaspects": 2515,
      "Ġdegree": 2516,
      "ĠGovernment": 2517,
      "Ġaccidents": 2518,
      "Ġdecentralised": 2519,
      "Ġdistribution": 2520,
      "Ġcorrectly": 2521,
      "Ġsignificant": 2522,
      "Ġunnecessary": 2523,
      "bilities": 2524,
      "Ġaware": 2525,
      "Ġreached": 2526,
      "Ġmedium": 2527,
      "Ġmessage": 2528,
      "Ġconnection": 2529,
      "Ġconvergence": 2530,
      "ĠAgriculture": 2531,
      "Ġencourage": 2532,
      "Ġrecogn": 2533,
      "cumstances": 2534,
      "depth": 2535,
      "haps": 2536,
      "Ġaverage": 2537,
      "Ġcircumstances": 2538,
      "Ġbrought": 2539,
      "Ġrepeat": 2540,
      "Ġdoubt": 2541,
      "Ġnamely": 2542,
      "Ġongoing": 2543,
      "ĠCrespo": 2544,
      "Ġglobal": 2545,
      "ĠPalacio": 2546,
      "ĠEastern": 2547,
      "Ġwithdrawn": 2548,
      "Ġmagnific": 2549,
      "Ġincorporate": 2550,
      "ĠRapkay": 2551,
      "ĠInternet": 2552,
      "Ġembargo": 2553,
      "..": 2554,
      "40": 2555,
      "AG": 2556,
      "SC": 2557,
      "ape": 2558,
      "aim": 2559,
      "aest": 2560,
      "app": 2561,
      "aving": 2562,
      "agraph": 2563,
      "bo": 2564,
      "by": 2565,
      "bly": 2566,
      "bour": 2567,
      "dam": 2568,
      "ees": 2569,
      "efic": 2570,
      "eck": 2571,
      "hat": 2572,
      "hould": 2573,
      "ia": 2574,
      "jo": 2575,
      "just": 2576,
      "ka": 2577,
      "long": 2578,
      "ned": 2579,
      "nergy": 2580,
      "op": 2581,
      "pple": 2582,
      "ries": 2583,
      "range": 2584,
      "spe": 2585,
      "sch": 2586,
      "sper": 2587,
      "tes": 2588,
      "uct": 2589,
      "uly": 2590,
      "wing": 2591,
      "xim": 2592,
      "yn": 2593,
      "yed": 2594,
      "zid": 2595,
      "ºC": 2596,
      "ÂºC": 2597,
      "Ġi": 2598,
      "Ġir": 2599,
      "Ġru": 2600,
      "Ġult": 2601,
      "Ġtest": 2602,
      "Ġthous": 2603,
      "Ġthird": 2604,
      "Ġali": 2605,
      "Ġaway": 2606,
      "reg": 2607,
      "rely": 2608,
      "ond": 2609,
      "ones": 2610,
      "ins": 2611,
      "enber": 2612,
      "isations": 2613,
      "isms": 2614,
      "Ġoperation": 2615,
      "Ġought": 2616,
      "atzid": 2617,
      "Ġwid": 2618,
      "Ġwrong": 2619,
      "ery": 2620,
      "eral": 2621,
      "erdam": 2622,
      "Ġsil": 2623,
      "Ġslow": 2624,
      "Ġsatis": 2625,
      "ita": 2626,
      "itor": 2627,
      "itant": 2628,
      "itud": 2629,
      "Ġpot": 2630,
      "Ġpres": 2631,
      "Ġpill": 2632,
      "ori": 2633,
      "orial": 2634,
      "Ġtown": 2635,
      "Ġcent": 2636,
      "Ġcust": 2637,
      "Ġcru": 2638,
      "Ġcult": 2639,
      "Ġcert": 2640,
      "Ġins": 2641,
      "Ġinade": 2642,
      "Ġinsu": 2643,
      "Ġbud": 2644,
      "entially": 2645,
      "outh": 2646,
      "Ġflo": 2647,
      "Ġfore": 2648,
      "Ġfif": 2649,
      "Ġfire": 2650,
      "Ġfound": 2651,
      "Ġfash": 2652,
      "ederal": 2653,
      "ars": 2654,
      "Ġrevision": 2655,
      "Ġreiter": 2656,
      "Ġmom": 2657,
      "Ġmot": 2658,
      "Ġmet": 2659,
      "Ġmem": 2660,
      "Ġmass": 2661,
      "Ġmove": 2662,
      "omes": 2663,
      "ick": 2664,
      "Ġdest": 2665,
      "ross": 2666,
      "Ġhind": 2667,
      "vey": 2668,
      "leg": 2669,
      "lease": 2670,
      "Ġbelow": 2671,
      "ctor": 2672,
      "Ġearli": 2673,
      "Ġeasi": 2674,
      "used": 2675,
      "ĠCentral": 2676,
      "Ġlives": 2677,
      "Ġlab": 2678,
      "Ġlater": 2679,
      "ĠMay": 2680,
      "Ġgives": 2681,
      "ime": 2682,
      "imp": 2683,
      "Ġproduced": 2684,
      "Ġprosper": 2685,
      "Ġdeep": 2686,
      "utch": 2687,
      "ĠPlease": 2688,
      "Ġstra": 2689,
      "Ġstip": 2690,
      "Ġstring": 2691,
      "Ġstrong": 2692,
      "Ġstructures": 2693,
      "Ġconsequ": 2694,
      "sector": 2695,
      "ĠEri": 2696,
      "ays": 2697,
      "etter": 2698,
      "stentions": 2699,
      "sterdam": 2700,
      "ĠSome": 2701,
      "ĠSub": 2702,
      "ĠShould": 2703,
      "ters": 2704,
      "Ġcoming": 2705,
      "adly": 2706,
      "Ġshif": 2707,
      "Ġshare": 2708,
      "Ġexplo": 2709,
      "Ġanne": 2710,
      "riment": 2711,
      "rible": 2712,
      "Ġalong": 2713,
      "licit": 2714,
      "licated": 2715,
      "ĠAcc": 2716,
      "artments": 2717,
      "Ġsol": 2718,
      "Ġsole": 2719,
      "Ġimmed": 2720,
      "iform": 2721,
      "Ġvis": 2722,
      "Ġvol": 2723,
      "ĠFrance": 2724,
      "ĠFederal": 2725,
      "antly": 2726,
      "Ġwilling": 2727,
      "Ġtape": 2728,
      "itional": 2729,
      "Ġadhere": 2730,
      "Ġparts": 2731,
      "arding": 2732,
      "Ġenvis": 2733,
      "Ġenabl": 2734,
      "Ġenact": 2735,
      "Ġenjo": 2736,
      "ptember": 2737,
      "Ġrate": 2738,
      "Ġrout": 2739,
      "Ġrise": 2740,
      "Ġ11": 2741,
      "Ġ16": 2742,
      "ffic": 2743,
      "Ġacknow": 2744,
      "ume": 2745,
      "Ġunac": 2746,
      "Ġunequ": 2747,
      "Ġunjust": 2748,
      "Ġuniform": 2749,
      "Ġago": 2750,
      "ands": 2751,
      "ĠGu": 2752,
      "ĠGree": 2753,
      "veloped": 2754,
      "alling": 2755,
      "Ġworst": 2756,
      "Ġgoal": 2757,
      "Ġreserv": 2758,
      "ĠUnfortunately": 2759,
      "Ġdeveloped": 2760,
      "Ġdevelopments": 2761,
      "erial": 2762,
      "Ġjud": 2763,
      "Ġsaving": 2764,
      "Ġquot": 2765,
      "Ġquick": 2766,
      "istic": 2767,
      "Ġamended": 2768,
      "Ġaccom": 2769,
      "Ġaccess": 2770,
      "ĠHere": 2771,
      "ĠHÃ¤n": 2772,
      "ĠHatzid": 2773,
      "Ġcommend": 2774,
      "sia": 2775,
      "Ġraising": 2776,
      "Ġmyself": 2777,
      "peratures": 2778,
      "acy": 2779,
      "side": 2780,
      "sidies": 2781,
      "Ġtimes": 2782,
      "Ġworkers": 2783,
      "ewhat": 2784,
      "Ġsea": 2785,
      "ĠRural": 2786,
      "Ġabstentions": 2787,
      "Ġplan": 2788,
      "Ġguidance": 2789,
      "Ġthanks": 2790,
      "Ġexplicit": 2791,
      "ĠBra": 2792,
      "ermost": 2793,
      "Ġoutcome": 2794,
      "Ġoutside": 2795,
      "Ġoutermost": 2796,
      "Ġchar": 2797,
      "Ġchance": 2798,
      "Ġchair": 2799,
      "Ġcheck": 2800,
      "Ġmaterial": 2801,
      "ĠGroups": 2802,
      "ĠOne": 2803,
      "Ġwhose": 2804,
      "tained": 2805,
      "Ġnews": 2806,
      "akis": 2807,
      "Ġactive": 2808,
      "Ġactual": 2809,
      "Ġmonies": 2810,
      "Ġmonetary": 2811,
      "Ġmonitor": 2812,
      "Ġlog": 2813,
      "Ġ20": 2814,
      "Ġ25": 2815,
      "ording": 2816,
      "Ġdirectly": 2817,
      "Ġconsiders": 2818,
      "Ġconsidered": 2819,
      "Ġapproving": 2820,
      "Ġapproxim": 2821,
      "Ġreluct": 2822,
      "Ġimpact": 2823,
      "Ġimpression": 2824,
      "Ġasking": 2825,
      "Ġcomply": 2826,
      "Ġcompli": 2827,
      "Ġcompreh": 2828,
      "Ġcomplicated": 2829,
      "Ġexamine": 2830,
      "Ġexamples": 2831,
      "ĠDuis": 2832,
      "ĠDutch": 2833,
      "Ġentire": 2834,
      "Ġentail": 2835,
      "Ġundoub": 2836,
      "Ġvig": 2837,
      "Ġconsidering": 2838,
      "Ġconsiderably": 2839,
      "ensitive": 2840,
      "Ġregulatory": 2841,
      "ages": 2842,
      "agues": 2843,
      "Ġrecall": 2844,
      "Ġattach": 2845,
      "Ġattempt": 2846,
      "Ġseek": 2847,
      "Ġsomeone": 2848,
      "ĠLiberal": 2849,
      "pective": 2850,
      "ĠWhile": 2851,
      "Ġcertainty": 2852,
      "Ġfarm": 2853,
      "ĠEUR": 2854,
      "Ġjoint": 2855,
      "Ġlaid": 2856,
      "ferred": 2857,
      "Ġimplemented": 2858,
      "Ġadditions": 2859,
      "Ġknowledge": 2860,
      "Ġstands": 2861,
      "Ġhigher": 2862,
      "Ġrightly": 2863,
      "Ġstrategies": 2864,
      "Ġkept": 2865,
      "Ġoverall": 2866,
      "Ġovercome": 2867,
      "ĠCox": 2868,
      "ighten": 2869,
      "Ġcourts": 2870,
      "Ġhead": 2871,
      "Ġhealth": 2872,
      "etheless": 2873,
      "iece": 2874,
      "ĠJuly": 2875,
      "Ġthinking": 2876,
      "Ġwished": 2877,
      "ĠRegions": 2878,
      "ĠRegarding": 2879,
      "Ġthanking": 2880,
      "Ġcapita": 2881,
      "Ġlegislature": 2882,
      "Ġsomewhat": 2883,
      "Ġperhaps": 2884,
      "Ġbasically": 2885,
      "Ġdesc": 2886,
      "Ġdesired": 2887,
      "ĠTreaties": 2888,
      "ĠPoetter": 2889,
      "condly": 2890,
      "Ġdistort": 2891,
      "Ġ88": 2892,
      "Ġtraffic": 2893,
      "Ġsimple": 2894,
      "Ġsetting": 2895,
      "Ġperspective": 2896,
      "Ġclarity": 2897,
      "Ġclimate": 2898,
      "Ġclaim": 2899,
      "Ġcodecision": 2900,
      "Ġmodest": 2901,
      "Ġadvisors": 2902,
      "Ġtransparent": 2903,
      "Ġfailed": 2904,
      "Ġcompany": 2905,
      "Ġarms": 2906,
      "Ġarrange": 2907,
      "Ġservice": 2908,
      "Ġtaxation": 2909,
      "Ġthroughout": 2910,
      "Ġcorrespon": 2911,
      "Ġintroduced": 2912,
      "Ġinterests": 2913,
      "Ġimprovement": 2914,
      "Ġfollowing": 2915,
      "ocrat": 2916,
      "Ġessentially": 2917,
      "Ġscope": 2918,
      "Ġnature": 2919,
      "ĠMonti": 2920,
      "Ġdetriment": 2921,
      "Ġconstructive": 2922,
      "ĠSeptember": 2923,
      "ĠSecondly": 2924,
      "fficient": 2925,
      "Ġdrawing": 2926,
      "Ġsuccessful": 2927,
      "Ġwaterway": 2928,
      "Ġcargo": 2929,
      "Ġbenefic": 2930,
      "Ġcontribute": 2931,
      "Ġcontribution": 2932,
      "Ġassessing": 2933,
      "Ġassessment": 2934,
      "Ġinstitution": 2935,
      "Ġpreviously": 2936,
      "tedly": 2937,
      "ĠVery": 2938,
      "Ġweeks": 2939,
      "Ġdefin": 2940,
      "Ġcomplex": 2941,
      "ĠAmsterdam": 2942,
      "ifying": 2943,
      "Ġvalid": 2944,
      "Ġcontained": 2945,
      "Ġefficiency": 2946,
      "Ġadditionality": 2947,
      "Ġterrible": 2948,
      "Ġbuilding": 2949,
      "ourable": 2950,
      "Ġelse": 2951,
      "Ġstarting": 2952,
      "Ġhappen": 2953,
      "emptions": 2954,
      "Ġabsolute": 2955,
      "Ġremains": 2956,
      "Ġsubstance": 2957,
      "Ġresponsibilities": 2958,
      "Ġcurrently": 2959,
      "Ġnaturally": 2960,
      "Ġdetailed": 2961,
      "Ġsuggested": 2962,
      "212": 2963,
      "Ġoperators": 2964,
      "Ġtotal": 2965,
      "Ġtotally": 2966,
      "Ġelected": 2967,
      "Ġelectron": 2968,
      "Ġprotect": 2969,
      "Ġshows": 2970,
      "Ġexpected": 2971,
      "Ġcolleague": 2972,
      "Ġcolleagues": 2973,
      "Ġrelatively": 2974,
      "Ġurgency": 2975,
      "Ġachieved": 2976,
      "Ġappeared": 2977,
      "Ġtrue": 2978,
      "Ġtruly": 2979,
      "Ġcreated": 2980,
      "Ġcreating": 2981,
      "Ġinequality": 2982,
      "Ġinequalities": 2983,
      "Ġbody": 2984,
      "Ġbodies": 2985,
      "Ġreturn": 2986,
      "Ġrejected": 2987,
      "Ġmulti": 2988,
      "Ġdepartments": 2989,
      "Ġexception": 2990,
      "ĠAlso": 2991,
      "Ġsolution": 2992,
      "Ġsolutions": 2993,
      "Ġ158": 2994,
      "Ġcontrol": 2995,
      "Ġrecommendations": 2996,
      "Ġdifficulties": 2997,
      "Ġpursued": 2998,
      "Ġtechnologies": 2999,
      "pany": 3000,
      "Ġphase": 3001,
      "Ġparagraph": 3002,
      "Ġreceived": 3003,
      "Ġmillennium": 3004,
      "Ġmembers": 3005,
      "Ġdamage": 3006,
      "Ġcombat": 3007,
      "Ġexercise": 3008,
      "Ġanswered": 3009,
      "Ġguarantee": 3010,
      "Ġgenuine": 3011,
      "Ġconsumer": 3012,
      "Ġcontinuing": 3013,
      "Ġpromoting": 3014,
      "Ġcarrying": 3015,
      "ĠAmerica": 3016,
      "Ġsupervisory": 3017,
      "Ġoccasion": 3018,
      "ĠQuaest": 3019,
      "Ġtemperatures": 3020,
      "Ġtunnels": 3021,
      "Ġcatastro": 3022,
      "Ġframework": 3023,
      "Ġdreadful": 3024,
      "Ġnetworks": 3025,
      "Ġearly": 3026,
      "Ġquarters": 3027,
      "ĠLanka": 3028,
      "Ġundertaken": 3029,
      "Ġinstrument": 3030,
      "Ġcapacity": 3031,
      "Ġconsultation": 3032,
      "Ġobligation": 3033,
      "Ġterritorial": 3034,
      "Ġglobalisation": 3035,
      "Ġmagnificent": 3036,
      "board": 3037,
      "Ġrule": 3038,
      "Ġthousands": 3039,
      "enberg": 3040,
      "Ġsilence": 3041,
      "itude": 3042,
      "Ġpotential": 3043,
      "Ġtowns": 3044,
      "Ġcustom": 3045,
      "Ġcrucial": 3046,
      "Ġculture": 3047,
      "Ġcertific": 3048,
      "Ġinadequ": 3049,
      "Ġinsufficient": 3050,
      "Ġfloor": 3051,
      "Ġfifth": 3052,
      "Ġfashion": 3053,
      "Ġmoment": 3054,
      "Ġearlier": 3055,
      "Ġeasier": 3056,
      "Ġlabour": 3057,
      "Ġstringent": 3058,
      "Ġconsequences": 3059,
      "ĠErika": 3060,
      "ĠSubsidies": 3061,
      "Ġannex": 3062,
      "ĠAccording": 3063,
      "Ġimmedi": 3064,
      "Ġunaccept": 3065,
      "Ġjudge": 3066,
      "ĠHÃ¤nsch": 3067,
      "ĠHatzidakis": 3068,
      "ĠDuisenberg": 3069,
      "Ġundoubtedly": 3070,
      "ĠPoettering": 3071,
      "Ġcorresponding": 3072,
      "ĠQuaestors": 3073,
      "%.": 3074,
      ").": 3075,
      "199": 3076,
      "22": 3077,
      "35": 3078,
      "43": 3079,
      "55": 3080,
      "96": 3081,
      "App": 3082,
      "Cart": 3083,
      "DR": 3084,
      "Es": 3085,
      "GF": 3086,
      "Ith": 3087,
      "Math": 3088,
      "MEs": 3089,
      "Parliament": 3090,
      "SE": 3091,
      "VII": 3092,
      "XVII": 3093,
      "af": 3094,
      "aid": 3095,
      "ake": 3096,
      "awn": 3097,
      "bod": 3098,
      "bition": 3099,
      "build": 3100,
      "cent": 3101,
      "comm": 3102,
      "cul": 3103,
      "certain": 3104,
      "centr": 3105,
      "cCart": 3106,
      "den": 3107,
      "dis": 3108,
      "dom": 3109,
      "ev": 3110,
      "eer": 3111,
      "ell": 3112,
      "ead": 3113,
      "ease": 3114,
      "eves": 3115,
      "ft": 3116,
      "fin": 3117,
      "fied": 3118,
      "getary": 3119,
      "gium": 3120,
      "hy": 3121,
      "how": 3122,
      "hab": 3123,
      "hile": 3124,
      "ik": 3125,
      "ili": 3126,
      "ipp": 3127,
      "iable": 3128,
      "ience": 3129,
      "jac": 3130,
      "lu": 3131,
      "ling": 3132,
      "lause": 3133,
      "lated": 3134,
      "lines": 3135,
      "lish": 3136,
      "lame": 3137,
      "mis": 3138,
      "mission": 3139,
      "mill": 3140,
      "mant": 3141,
      "mful": 3142,
      "mann": 3143,
      "no": 3144,
      "os": 3145,
      "old": 3146,
      "ood": 3147,
      "ober": 3148,
      "ople": 3149,
      "ool": 3150,
      "oks": 3151,
      "pay": 3152,
      "pret": 3153,
      "rive": 3154,
      "sing": 3155,
      "sum": 3156,
      "satis": 3157,
      "tc": 3158,
      "ton": 3159,
      "ties": 3160,
      "tech": 3161,
      "ule": 3162,
      "uge": 3163,
      "uable": 3164,
      "ufact": 3165,
      "vent": 3166,
      "vious": 3167,
      "vital": 3168,
      "wed": 3169,
      "wful": 3170,
      "wise": 3171,
      "while": 3172,
      "ze": 3173,
      "zmann": 3174,
      "Ã©": 3175,
      "Ġ.": 3176,
      "Ġ4": 3177,
      "Ġ6": 3178,
      "Ġ7": 3179,
      "Ġut": 3180,
      "Ġver": 3181,
      "Ġil": 3182,
      "Ġtre": 3183,
      "Ġten": 3184,
      "Ġtal": 3185,
      "Ġtar": 3186,
      "Ġtan": 3187,
      "Ġtank": 3188,
      "Ġtempt": 3189,
      "Ġtighten": 3190,
      "Ġthor": 3191,
      "Ġaround": 3192,
      "rew": 3193,
      "reach": 3194,
      "reased": 3195,
      "requis": 3196,
      "inc": 3197,
      "inational": 3198,
      "inely": 3199,
      "ener": 3200,
      "enal": 3201,
      "eness": 3202,
      "ensible": 3203,
      "encing": 3204,
      "isher": 3205,
      "isdict": 3206,
      "Ġoil": 3207,
      "Ġomission": 3208,
      "att": 3209,
      "atan": 3210,
      "Ġwro": 3211,
      "Ġwrit": 3212,
      "ero": 3213,
      "erion": 3214,
      "ering": 3215,
      "Ġsent": 3216,
      "Ġsur": 3217,
      "Ġsend": 3218,
      "Ġsel": 3219,
      "Ġsession": 3220,
      "Ġsound": 3221,
      "Ġserve": 3222,
      "Ġsouth": 3223,
      "Ġsadly": 3224,
      "Ġsensitive": 3225,
      "ioned": 3226,
      "itin": 3227,
      "ites": 3228,
      "itable": 3229,
      "itise": 3230,
      "itage": 3231,
      "itolog": 3232,
      "Ġpity": 3233,
      "Ġpure": 3234,
      "Ġpub": 3235,
      "Ġpack": 3236,
      "Ġpact": 3237,
      "Ġperman": 3238,
      "Ġpiece": 3239,
      "Ġpaid": 3240,
      "Ġpenal": 3241,
      "oric": 3242,
      "orate": 3243,
      "orand": 3244,
      "Ġtop": 3245,
      "Ġcou": 3246,
      "Ġcut": 3247,
      "Ġcities": 3248,
      "Ġinad": 3249,
      "Ġinsp": 3250,
      "Ġinhab": 3251,
      "Ġbit": 3252,
      "Ġbar": 3253,
      "Ġbra": 3254,
      "Ġbound": 3255,
      "Ġbrid": 3256,
      "Ġblame": 3257,
      "ale": 3258,
      "aling": 3259,
      "alous": 3260,
      "aluation": 3261,
      "entive": 3262,
      "entated": 3263,
      "entrate": 3264,
      "Ġfro": 3265,
      "Ġfri": 3266,
      "Ġfree": 3267,
      "Ġfight": 3268,
      "Ġfulf": 3269,
      "Ġfunct": 3270,
      "Ġfirm": 3271,
      "Ġfisher": 3272,
      "eded": 3273,
      "eding": 3274,
      "arg": 3275,
      "aring": 3276,
      "arify": 3277,
      "Ġrecon": 3278,
      "Ġreducing": 3279,
      "Ġretained": 3280,
      "Ġrevital": 3281,
      "Ġmo": 3282,
      "Ġmen": 3283,
      "Ġmere": 3284,
      "Ġmil": 3285,
      "Ġmist": 3286,
      "Ġmerg": 3287,
      "ane": 3288,
      "ano": 3289,
      "omest": 3290,
      "omano": 3291,
      "Ġden": 3292,
      "Ġdro": 3293,
      "Ġdim": 3294,
      "Ġdut": 3295,
      "Ġdri": 3296,
      "Ġdict": 3297,
      "Ġdawn": 3298,
      "Ġdrive": 3299,
      "Ġdomest": 3300,
      "ingdom": 3301,
      "royed": 3302,
      "rodis": 3303,
      "Ġhit": 3304,
      "Ġhot": 3305,
      "Ġhund": 3306,
      "Ġhist": 3307,
      "Ġhome": 3308,
      "Ġhence": 3309,
      "Ġhuge": 3310,
      "lements": 3311,
      "lege": 3312,
      "Ġbelong": 3313,
      "Ġnone": 3314,
      "Ġname": 3315,
      "ĠIs": 3316,
      "Ġease": 3317,
      "Ġearn": 3318,
      "Ġetc": 3319,
      "Ġelements": 3320,
      "iden": 3321,
      "ides": 3322,
      "idation": 3323,
      "Ġwhom": 3324,
      "Ġwhil": 3325,
      "use": 3326,
      "uses": 3327,
      "ussia": 3328,
      "Ġonto": 3329,
      "people": 3330,
      "ortug": 3331,
      "ĠCol": 3332,
      "urred": 3333,
      "urisdict": 3334,
      "Ġforum": 3335,
      "Ġforms": 3336,
      "Ġled": 3337,
      "Ġlot": 3338,
      "Ġland": 3339,
      "ommod": 3340,
      "Ġweight": 3341,
      "ĠTex": 3342,
      "ĠMcCart": 3343,
      "Ġgap": 3344,
      "Ġgeo": 3345,
      "Ġgrate": 3346,
      "Ġgross": 3347,
      "imes": 3348,
      "imism": 3349,
      "imacy": 3350,
      "Ġproved": 3351,
      "Ġprovision": 3352,
      "ĠThird": 3353,
      "Ġasso": 3354,
      "Ġdead": 3355,
      "Ġdeath": 3356,
      "utre": 3357,
      "ĠPeople": 3358,
      "ĠPortug": 3359,
      "Ġstru": 3360,
      "Ġstability": 3361,
      "Ġstrict": 3362,
      "Ġstop": 3363,
      "Ġsteer": 3364,
      "Ġconcept": 3365,
      "Ġconduct": 3366,
      "Ġconsol": 3367,
      "sement": 3368,
      "Ġpost": 3369,
      "Ġpoores": 3370,
      "uling": 3371,
      "ulates": 3372,
      "ĠEx": 3373,
      "ĠEAG": 3374,
      "Ġregener": 3375,
      "vert": 3376,
      "versi": 3377,
      "Ġnotify": 3378,
      "etimes": 3379,
      "ched": 3380,
      "ĠSwo": 3381,
      "ĠSection": 3382,
      "ĠSMEs": 3383,
      "ĠSaf": 3384,
      "ĠSwed": 3385,
      "ower": 3386,
      "tergo": 3387,
      "Ġcomitolog": 3388,
      "advant": 3389,
      "Ġexcess": 3390,
      "Ġexper": 3391,
      "Ġexemptions": 3392,
      "lify": 3393,
      "Ġsuff": 3394,
      "Ġsums": 3395,
      "Ġsupple": 3396,
      "Ġantic": 3397,
      "Ġanti": 3398,
      "ried": 3399,
      "riers": 3400,
      "emned": 3401,
      "emocrat": 3402,
      "illage": 3403,
      "ĠWulf": 3404,
      "oreboard": 3405,
      "ĠAn": 3406,
      "ĠAre": 3407,
      "ĠAnot": 3408,
      "ĠAfter": 3409,
      "ĠAlex": 3410,
      "Ġimpose": 3411,
      "ifiable": 3412,
      "Ġvital": 3413,
      "soever": 3414,
      "ĠFrid": 3415,
      "ĠFla": 3416,
      "Ġtable": 3417,
      "Ġattain": 3418,
      "Ġthereby": 3419,
      "Ġliked": 3420,
      "Ġadequ": 3421,
      "Ġambition": 3422,
      "Ġpartly": 3423,
      "Ġpartially": 3424,
      "ardisation": 3425,
      "point": 3426,
      "Ġlea": 3427,
      "Ġleft": 3428,
      "cont": 3429,
      "petitive": 3430,
      "Ġalloc": 3431,
      "pporting": 3432,
      "Ġrating": 3433,
      "Ġruling": 3434,
      "jects": 3435,
      "Ġ10": 3436,
      "Ġ13": 3437,
      "Ġ17": 3438,
      "Ġ19": 3439,
      "Ġacquis": 3440,
      "ĠStand": 3441,
      "pping": 3442,
      "Ġdisc": 3443,
      "Ġdisag": 3444,
      "Ġdisbur": 3445,
      "Ġdismant": 3446,
      "Ġdissatis": 3447,
      "Ġdisadvant": 3448,
      "ums": 3449,
      "Ġcompetent": 3450,
      "elgium": 3451,
      "Ġunknow": 3452,
      "Ġunla": 3453,
      "Ġagrees": 3454,
      "ander": 3455,
      "andalous": 3456,
      "Ġintention": 3457,
      "Ġintentions": 3458,
      "ruction": 3459,
      "ĠGen": 3460,
      "ĠGiven": 3461,
      "Ġmaiden": 3462,
      "Ġconcentrate": 3463,
      "ĠUK": 3464,
      "Ġworse": 3465,
      "Ġworry": 3466,
      "Ġtransposed": 3467,
      "Ġtransitional": 3468,
      "Ġfacing": 3469,
      "Ġmeant": 3470,
      "Ġgoes": 3471,
      "Ġreserve": 3472,
      "Ġdeveloping": 3473,
      "Ġjurisdict": 3474,
      "Ġcofin": 3475,
      "Ġcoinc": 3476,
      "integr": 3477,
      "intensive": 3478,
      "Ġqual": 3479,
      "Ġquant": 3480,
      "istribut": 3481,
      "Ġapplies": 3482,
      "Ġaccession": 3483,
      "Ġaccused": 3484,
      "Ġaccommod": 3485,
      "ĠHe": 3486,
      "ĠHol": 3487,
      "ĠHence": 3488,
      "ĠHaving": 3489,
      "Ġcommission": 3490,
      "Ġraises": 3491,
      "ployed": 3492,
      "ĠIts": 3493,
      "ĠItaly": 3494,
      "Ġincomes": 3495,
      "acies": 3496,
      "Ġsevent": 3497,
      "ĠRes": 3498,
      "ĠRack": 3499,
      "ĠRep": 3500,
      "ĠRule": 3501,
      "ĠRomano": 3502,
      "ĠRussia": 3503,
      "Ġabove": 3504,
      "Ġabuses": 3505,
      "Ġmarginal": 3506,
      "dual": 3507,
      "ĠIntergo": 3508,
      "000": 3509,
      "007": 3510,
      "008": 3511,
      "arent": 3512,
      "Ġrequires": 3513,
      "Ġexpense": 3514,
      "Ġexpression": 3515,
      "Ġexpires": 3516,
      "Ġtransportation": 3517,
      "Ġsafe": 3518,
      "Ġsafer": 3519,
      "ĠBr": 3520,
      "ĠBelgium": 3521,
      "ermine": 3522,
      "Ġproposing": 3523,
      "Ġregardless": 3524,
      "Ġrose": 3525,
      "Ġuphe": 3526,
      "Ġprepar": 3527,
      "Ġpredict": 3528,
      "Ġpreferred": 3529,
      "Ġprerequis": 3530,
      "Ġwhatsoever": 3531,
      "ĠOf": 3532,
      "Ġremo": 3533,
      "Ġnewsp": 3534,
      "Ġloss": 3535,
      "Ġlooks": 3536,
      "Ġ23": 3537,
      "Ġ299": 3538,
      "ordin": 3539,
      "angen": 3540,
      "Ġapprove": 3541,
      "Ġpresents": 3542,
      "Ġpresently": 3543,
      "Ġjustification": 3544,
      "Ġjustified": 3545,
      "Ġinterim": 3546,
      "Ġinterpret": 3547,
      "Ġrelate": 3548,
      "apland": 3549,
      "Ġmanage": 3550,
      "Ġmanaging": 3551,
      "Ġmanufact": 3552,
      "Ġdram": 3553,
      "Ġdrains": 3554,
      "Ġcomprom": 3555,
      "Ġcompens": 3556,
      "Ġfactor": 3557,
      "Ġensures": 3558,
      "ĠDemocrat": 3559,
      "Ġentry": 3560,
      "Ġentered": 3561,
      "Ġundermine": 3562,
      "Ġsection": 3563,
      "Ġevol": 3564,
      "Ġevaluation": 3565,
      "Ġvia": 3566,
      "Ġviol": 3567,
      "Ġprioritise": 3568,
      "Ġprices": 3569,
      "Ġbelieves": 3570,
      "Ġgreatest": 3571,
      "Ġregular": 3572,
      "ipated": 3573,
      "Ġownership": 3574,
      "Ġotherwise": 3575,
      "Ġattend": 3576,
      "Ġattitude": 3577,
      "Ġattentive": 3578,
      "Ġopposed": 3579,
      "oughly": 3580,
      "Ġrapporteurs": 3581,
      "ĠLyn": 3582,
      "ĠLangen": 3583,
      "ĠLapland": 3584,
      "Ġobst": 3585,
      "Ġobvious": 3586,
      "erves": 3587,
      "Ġtook": 3588,
      "Ġassure": 3589,
      "abled": 3590,
      "lands": 3591,
      "Ġadded": 3592,
      "Ġknown": 3593,
      "Ġsize": 3594,
      "Ġsphere": 3595,
      "Ġspending": 3596,
      "Ġspillage": 3597,
      "Ġcreates": 3598,
      "Ġmentioning": 3599,
      "Ġstructurally": 3600,
      "Ġ1993": 3601,
      "Ġ1994": 3602,
      "Ġ1996": 3603,
      "Ġkeen": 3604,
      "Ġoverrid": 3605,
      "Ġfinally": 3606,
      "ĠNow": 3607,
      "ĠNational": 3608,
      "ĠNove": 3609,
      "ĠNik": 3610,
      "Ġinstead": 3611,
      "Ġrepair": 3612,
      "Ġheart": 3613,
      "Ġharmful": 3614,
      "Ġuseful": 3615,
      "Ġlaws": 3616,
      "Ġbusinesspeople": 3617,
      "ledged": 3618,
      "ĠJust": 3619,
      "Ġheritage": 3620,
      "Ġmeasure": 3621,
      "Ġrequests": 3622,
      "acter": 3623,
      "Ġwants": 3624,
      "Ġextensive": 3625,
      "Ġacceptance": 3626,
      "Ġindustries": 3627,
      "Ġ2001": 3628,
      "Ġ2003": 3629,
      "acement": 3630,
      "oking": 3631,
      "ĠKingdom": 3632,
      "reds": 3633,
      "Ġminim": 3634,
      "Ġcondition": 3635,
      "Ġcondemned": 3636,
      "Ġresulting": 3637,
      "ĠObjectives": 3638,
      "Ġsometimes": 3639,
      "Ġcalling": 3640,
      "Ġdeserves": 3641,
      "Ġlacks": 3642,
      "Ġlacking": 3643,
      "Ġdistrict": 3644,
      "placement": 3645,
      "Ġ81": 3646,
      "Ġ85": 3647,
      "Ġ86": 3648,
      "Ġ87": 3649,
      "Ġsimpl": 3650,
      "itals": 3651,
      "Ġclim": 3652,
      "Ġclarify": 3653,
      "Ġfeet": 3654,
      "Ġfeasi": 3655,
      "Ġdealt": 3656,
      "Ġrepresented": 3657,
      "hips": 3658,
      "phic": 3659,
      "ratic": 3660,
      "ergies": 3661,
      "itutional": 3662,
      "Ġcriterion": 3663,
      "Ġreferring": 3664,
      "Ġequation": 3665,
      "Ġequally": 3666,
      "Ġequality": 3667,
      "Ġfailures": 3668,
      "Ġexpressing": 3669,
      "Ġlooking": 3670,
      "Ġfinanced": 3671,
      "Ġfinancially": 3672,
      "Ġhelped": 3673,
      "Ġhelping": 3674,
      "COD": 3675,
      "Ġarg": 3676,
      "Ġarm": 3677,
      "Ġinitial": 3678,
      "Ġfinding": 3679,
      "Ġfindings": 3680,
      "Ġproducts": 3681,
      "Ġproductivity": 3682,
      "Ġsucceed": 3683,
      "Ġtaxpay": 3684,
      "Ġfavourable": 3685,
      "Ġsecondly": 3686,
      "Ġmonopoly": 3687,
      "Ġinternational": 3688,
      "Ġprovides": 3689,
      "Ġproviding": 3690,
      "Ġvoting": 3691,
      "Ġintroducing": 3692,
      "Ġindication": 3693,
      "Ġindicated": 3694,
      "Ġindicative": 3695,
      "Ġdrafted": 3696,
      "ĠDecision": 3697,
      "Ġfollowed": 3698,
      "Ġscoreboard": 3699,
      "Ġscandalous": 3700,
      "Ġpleas": 3701,
      "Ġfurthermore": 3702,
      "Ġgetting": 3703,
      "Ġconstraint": 3704,
      "Ġadvoc": 3705,
      "Ġadvanced": 3706,
      "Ġopinions": 3707,
      "Ġpersonally": 3708,
      "Ġflexible": 3709,
      "ological": 3710,
      "ĠYes": 3711,
      "Ġsynergy": 3712,
      "Ġcarried": 3713,
      "Ġinflu": 3714,
      "Ġmainly": 3715,
      "Ġmaintaining": 3716,
      "Ġdays": 3717,
      "Ġcontributing": 3718,
      "Ġplanned": 3719,
      "Ġtexts": 3720,
      "Ġassessments": 3721,
      "Ġsigned": 3722,
      "comed": 3723,
      "company": 3724,
      "competitive": 3725,
      "ĠVatan": 3726,
      "Ġoptimism": 3727,
      "ĠIndones": 3728,
      "Ġlinks": 3729,
      "Ġlinked": 3730,
      "Ġlinking": 3731,
      "Ġdefine": 3732,
      "Ġdefined": 3733,
      "ĠProjects": 3734,
      "Ġcomplet": 3735,
      "Ġcomplete": 3736,
      "Ġanalyse": 3737,
      "Ġanalysed": 3738,
      "Ġvaluable": 3739,
      "Ġgoverning": 3740,
      "Ġefficiently": 3741,
      "Ġchallenge": 3742,
      "Ġsimplify": 3743,
      "Ġsmaller": 3744,
      "gets": 3745,
      "viate": 3746,
      "Ġ95": 3747,
      "Ġaims": 3748,
      "Ġbroke": 3749,
      "Ġbuildings": 3750,
      "Ġelimin": 3751,
      "Ġhappy": 3752,
      "Ġhappens": 3753,
      "standing": 3754,
      "Ġexclud": 3755,
      "Ġexciting": 3756,
      "Ġsupervision": 3757,
      "Ġconcluded": 3758,
      "Ġmeaning": 3759,
      "Ġspeeches": 3760,
      "Ġplayed": 3761,
      "Ġexperiencing": 3762,
      "ĠOnly": 3763,
      "Ġinterventions": 3764,
      "Ġevents": 3765,
      "Ġeventually": 3766,
      "0104": 3767,
      "0105": 3768,
      "0107": 3769,
      "Ġdelays": 3770,
      "Ġsuggestions": 3771,
      ")];": 3772,
      "210": 3773,
      "ogue": 3774,
      "Ġoperations": 3775,
      "Ġoccurred": 3776,
      "Ġschool": 3777,
      "Ġredistribut": 3778,
      "Ġweakness": 3779,
      "Ġproceeding": 3780,
      "ternative": 3781,
      "Ġshortly": 3782,
      "Ġexpectations": 3783,
      "Ġnegative": 3784,
      "Ġdocuments": 3785,
      "Ġapplicable": 3786,
      "Ġlegitimacy": 3787,
      "Ġinvestment": 3788,
      "Ġholding": 3789,
      "Ġhighlighted": 3790,
      "Ġurgent": 3791,
      "Ġurging": 3792,
      "Ġexplanations": 3793,
      "Ġpowerful": 3794,
      "Ġbenefits": 3795,
      "Ġrenewable": 3796,
      "Ġbureaucratic": 3797,
      "Ġdemonstr": 3798,
      "Ġstrengthening": 3799,
      "Ġentrepreneurial": 3800,
      "Ġpermit": 3801,
      "Ġpermitted": 3802,
      "Ġoffices": 3803,
      "Ġofficial": 3804,
      "Ġretrodis": 3805,
      "Ġmultinational": 3806,
      "Ġlatter": 3807,
      "Ġdegrees": 3808,
      "Ġdepend": 3809,
      "Ġexceptions": 3810,
      "ĠAlthough": 3811,
      "graphical": 3812,
      "Ġcontroversi": 3813,
      "Ġchangeover": 3814,
      "Ġemployed": 3815,
      "Ġkeeping": 3816,
      "Ġdecentralisation": 3817,
      "Ġpursuant": 3818,
      "vernmental": 3819,
      "Ġdistributed": 3820,
      "Ġcriticising": 3821,
      "Ġcriticisms": 3822,
      "Ġavoided": 3823,
      "Ġclosely": 3824,
      "Ġtechnological": 3825,
      "Ġobservation": 3826,
      "Ġobservance": 3827,
      "Ġobservations": 3828,
      "Ġsystems": 3829,
      "Ġsignificance": 3830,
      "Ġboosting": 3831,
      "Ġunnecessarily": 3832,
      "Ġemphasis": 3833,
      "developed": 3834,
      "ront": 3835,
      "Ġ50": 3836,
      "Ġpassing": 3837,
      "Ġcrash": 3838,
      "Ġcauses": 3839,
      "Ġcaused": 3840,
      "Ġcareful": 3841,
      "Ġcarefully": 3842,
      "Ġmillion": 3843,
      "Ġhalfway": 3844,
      "Ġnonetheless": 3845,
      "Ġlimited": 3846,
      "Ġlimits": 3847,
      "Ġwelcome": 3848,
      "Ġwelcomed": 3849,
      "Ġgrounds": 3850,
      "Ġprobably": 3851,
      "Ġsteps": 3852,
      "Ġcombating": 3853,
      "unctional": 3854,
      "Ġships": 3855,
      "Ġanswer": 3856,
      "Ġadapted": 3857,
      "Ġorganisation": 3858,
      "Ġorganisations": 3859,
      "Ġguarantees": 3860,
      "Ġunderstanding": 3861,
      "Ġgenuinely": 3862,
      "Ġperfectly": 3863,
      "Ġconsumers": 3864,
      "Ġconsistent": 3865,
      "Ġcontinued": 3866,
      "Ġpromotion": 3867,
      "ĠAmerican": 3868,
      "Ġsupervise": 3869,
      "Ġstrengthened": 3870,
      "Ġzero": 3871,
      "Ġorigin": 3872,
      "Ġoriginal": 3873,
      "Ġworthwhile": 3874,
      "Ġbanks": 3875,
      "Ġfigure": 3876,
      "Ġfigures": 3877,
      "Ġreinst": 3878,
      "Ġreinfor": 3879,
      "Ġresolutions": 3880,
      "Ġgrand": 3881,
      "Ġgradual": 3882,
      "Ġstudies": 3883,
      "Ġstressed": 3884,
      "Ġstressing": 3885,
      "ĠECSC": 3886,
      "Ġexecution": 3887,
      "Ġamounts": 3888,
      "Ġparticipation": 3889,
      "Ġparticipate": 3890,
      "Ġappreciation": 3891,
      "Ġappreciate": 3892,
      "Ġrapidly": 3893,
      "Ġpossibly": 3894,
      "Ġchannel": 3895,
      "Ġchannels": 3896,
      "Ġprepared": 3897,
      "Ġrelationships": 3898,
      "Ġtelevision": 3899,
      "Ġtelecomm": 3900,
      "Ġrecorded": 3901,
      "Ġendorse": 3902,
      "Ġendorsed": 3903,
      "Ġlessons": 3904,
      "Ġexclusion": 3905,
      "Ġexclusive": 3906,
      "Ġsubstantial": 3907,
      "Ġentrepreneurship": 3908,
      "Ġrecognition": 3909,
      "Ġrecognise": 3910,
      "bourg": 3911,
      "Ġirre": 3912,
      "Ġalike": 3913,
      "Ġslowly": 3914,
      "Ġsatisfy": 3915,
      "Ġpillars": 3916,
      "orientated": 3917,
      "Ġbudgetary": 3918,
      "Ġreiterated": 3919,
      "Ġmotion": 3920,
      "Ġmemorand": 3921,
      "Ġmassive": 3922,
      "Ġdestroyed": 3923,
      "legal": 3924,
      "Ġprosperous": 3925,
      "Ġshifting": 3926,
      "Ġsolely": 3927,
      "Ġenvisaged": 3928,
      "Ġenabling": 3929,
      "Ġenacting": 3930,
      "Ġenjoy": 3931,
      "Ġacknowledged": 3932,
      "Ġunequal": 3933,
      "Ġunjustifiable": 3934,
      "ĠGreece": 3935,
      "Ġsavings": 3936,
      "Ġquickly": 3937,
      "Ġexplicitly": 3938,
      "Ġcharacter": 3939,
      "Ġchairm": 3940,
      "Ġmaterialise": 3941,
      "Ġapproximation": 3942,
      "Ġreluctantly": 3943,
      "Ġcomprehensive": 3944,
      "Ġentirely": 3945,
      "Ġentails": 3946,
      "Ġvigil": 3947,
      "Ġattempted": 3948,
      "Ġfarmers": 3949,
      "Ġheading": 3950,
      "Ġdescrib": 3951,
      "Ġarrangements": 3952,
      "Ġbeneficial": 3953,
      "Ġvalidity": 3954,
      "Ġelectronic": 3955,
      "Ġprotecting": 3956,
      "Ġcatastrophic": 3957,
      "Ġcustomers": 3958,
      "Ġcertificates": 3959,
      "Ġinadequacies": 3960,
      "Ġannexes": 3961,
      "Ġimmediate": 3962,
      "Ġunacceptable": 3963,
      "Applause": 3964,
      "Mathies": 3965,
      "XVIIIth": 3966,
      "boda": 3967,
      "ipped": 3968,
      "Ġutil": 3969,
      "Ġillegal": 3970,
      "Ġtalk": 3971,
      "Ġtanks": 3972,
      "Ġtankers": 3973,
      "Ġwrote": 3974,
      "Ġwriting": 3975,
      "Ġsurvey": 3976,
      "Ġself": 3977,
      "Ġpublish": 3978,
      "Ġpacts": 3979,
      "Ġpermanent": 3980,
      "Ġpenalties": 3981,
      "Ġinadmis": 3982,
      "Ġinhabitant": 3983,
      "Ġbarriers": 3984,
      "Ġfrost": 3985,
      "Ġfulfil": 3986,
      "Ġfunction": 3987,
      "Ġfisheries": 3988,
      "Ġmerely": 3989,
      "Ġmergers": 3990,
      "Ġdimension": 3991,
      "Ġduty": 3992,
      "Ġdictates": 3993,
      "Ġdomestic": 3994,
      "Ġhundreds": 3995,
      "Ġwhilst": 3996,
      "ĠCollege": 3997,
      "ĠTexas": 3998,
      "ĠMcCarthy": 3999,
      "Ġgeographical": 4000,
      "Ġgrateful": 4001,
      "ĠThirdly": 4002,
      "Ġassoci": 4003,
      "Ġstruck": 4004,
      "Ġpoorest": 4005,
      "ĠEAGGF": 4006,
      "Ġregeneration": 4007,
      "ĠSwoboda": 4008,
      "ĠSafety": 4009,
      "ĠSweden": 4010,
      "Ġcomitology": 4011,
      "Ġexcessive": 4012,
      "Ġexperts": 4013,
      "Ġsuffered": 4014,
      "Ġsupplements": 4015,
      "Ġanticipated": 4016,
      "ĠAnother": 4017,
      "ĠAlexander": 4018,
      "ĠFriday": 4019,
      "ĠFlautre": 4020,
      "ĠStandardisation": 4021,
      "Ġdisagreed": 4022,
      "Ġdismantled": 4023,
      "Ġunknown": 4024,
      "Ġunlawful": 4025,
      "Ġaccommodated": 4026,
      "ĠHolzmann": 4027,
      "Ġseventh": 4028,
      "ĠRepublic": 4029,
      "ĠIntergovernmental": 4030,
      "Ġupheld": 4031,
      "Ġprerequisites": 4032,
      "Ġnewspaper": 4033,
      "Ġmanufacturing": 4034,
      "ĠLynne": 4035,
      "Ġoverriding": 4036,
      "ĠNovember": 4037,
      "ĠNikitin": 4038,
      "Ġdistricts": 4039,
      "Ġfeasible": 4040,
      "Ġtaxpayer": 4041,
      "ĠVatanen": 4042,
      "ĠIndonesia": 4043,
      "Ġretrodisplacement": 4044,
      "Ġcontroversial": 4045,
      "Ġtelecommunic": 4046,
      "Ġmemorandums": 4047,
      "\".": 4048,
      ");": 4049,
      ")).": 4050,
      ".)": 4051,
      "020": 4052,
      "10": 4053,
      "25": 4054,
      "34": 4055,
      "48": 4056,
      "496": 4057,
      "89": 4058,
      "BC": 4059,
      "CM": 4060,
      "CEN": 4061,
      "EP": 4062,
      "ER": 4063,
      "EU": 4064,
      "Europe": 4065,
      "LDR": 4066,
      "Re": 4067,
      "REU": 4068,
      "SO": 4069,
      "SS": 4070,
      "St": 4071,
      "SEC": 4072,
      "TCM": 4073,
      "XXVIIIth": 4074,
      "Zim": 4075,
      "aÃ": 4076,
      "ait": 4077,
      "aut": 4078,
      "aun": 4079,
      "aire": 4080,
      "aited": 4081,
      "avi": 4082,
      "be": 4083,
      "bi": 4084,
      "bin": 4085,
      "bent": 4086,
      "bing": 4087,
      "bri": 4088,
      "bates": 4089,
      "based": 4090,
      "bered": 4091,
      "big": 4092,
      "bels": 4093,
      "balling": 4094,
      "borate": 4095,
      "cou": 4096,
      "cle": 4097,
      "cur": 4098,
      "cies": 4099,
      "cure": 4100,
      "cers": 4101,
      "cern": 4102,
      "cret": 4103,
      "cases": 4104,
      "culation": 4105,
      "cape": 4106,
      "creased": 4107,
      "cale": 4108,
      "cological": 4109,
      "dical": 4110,
      "dopt": 4111,
      "def": 4112,
      "down": 4113,
      "dbour": 4114,
      "ditional": 4115,
      "ez": 4116,
      "efore": 4117,
      "eace": 4118,
      "elect": 4119,
      "evelopment": 4120,
      "even": 4121,
      "eav": 4122,
      "eveloped": 4123,
      "eoric": 4124,
      "far": 4125,
      "fly": 4126,
      "fres": 4127,
      "five": 4128,
      "fri": 4129,
      "fac": 4130,
      "fare": 4131,
      "fav": 4132,
      "fold": 4133,
      "front": 4134,
      "functional": 4135,
      "gor": 4136,
      "ging": 4137,
      "gural": 4138,
      "gone": 4139,
      "giving": 4140,
      "ground": 4141,
      "gaged": 4142,
      "greg": 4143,
      "ha": 4144,
      "hic": 4145,
      "ham": 4146,
      "hand": 4147,
      "hance": 4148,
      "hern": 4149,
      "hol": 4150,
      "host": 4151,
      "hood": 4152,
      "hipped": 4153,
      "ij": 4154,
      "io": 4155,
      "ix": 4156,
      "ien": 4157,
      "iar": 4158,
      "iro": 4159,
      "iation": 4160,
      "ira": 4161,
      "iver": 4162,
      "ilo": 4163,
      "ible": 4164,
      "iod": 4165,
      "iates": 4166,
      "ieg": 4167,
      "iating": 4168,
      "iose": 4169,
      "iÃ©": 4170,
      "ibe": 4171,
      "jour": 4172,
      "ker": 4173,
      "kill": 4174,
      "lin": 4175,
      "lis": 4176,
      "lim": 4177,
      "lend": 4178,
      "lang": 4179,
      "line": 4180,
      "laced": 4181,
      "ladly": 4182,
      "listic": 4183,
      "mit": 4184,
      "mod": 4185,
      "mpet": 4186,
      "mall": 4187,
      "most": 4188,
      "mak": 4189,
      "made": 4190,
      "much": 4191,
      "moking": 4192,
      "ni": 4193,
      "ning": 4194,
      "nce": 4195,
      "nam": 4196,
      "nish": 4197,
      "nually": 4198,
      "noc": 4199,
      "nvironment": 4200,
      "norm": 4201,
      "nergies": 4202,
      "of": 4203,
      "ov": 4204,
      "ox": 4205,
      "off": 4206,
      "ocus": 4207,
      "ollow": 4208,
      "ooth": 4209,
      "ock": 4210,
      "ograph": 4211,
      "ooking": 4212,
      "oij": 4213,
      "pal": 4214,
      "pot": 4215,
      "put": 4216,
      "pul": 4217,
      "part": 4218,
      "pend": 4219,
      "pand": 4220,
      "peri": 4221,
      "pens": 4222,
      "pality": 4223,
      "phe": 4224,
      "pired": 4225,
      "pposed": 4226,
      "piece": 4227,
      "pioned": 4228,
      "power": 4229,
      "rs": 4230,
      "ris": 4231,
      "ral": 4232,
      "ras": 4233,
      "ration": 4234,
      "rut": 4235,
      "rary": 4236,
      "rite": 4237,
      "rise": 4238,
      "rinci": 4239,
      "rank": 4240,
      "ruth": 4241,
      "rins": 4242,
      "rane": 4243,
      "son": 4244,
      "ses": 4245,
      "sent": 4246,
      "sure": 4247,
      "sue": 4248,
      "serv": 4249,
      "sound": 4250,
      "sory": 4251,
      "simp": 4252,
      "scale": 4253,
      "smoking": 4254,
      "tz": 4255,
      "tal": 4256,
      "tra": 4257,
      "tru": 4258,
      "tary": 4259,
      "tific": 4260,
      "tig": 4261,
      "text": 4262,
      "traint": 4263,
      "time": 4264,
      "ux": 4265,
      "uz": 4266,
      "uer": 4267,
      "ued": 4268,
      "uad": 4269,
      "ugh": 4270,
      "uments": 4271,
      "upt": 4272,
      "uous": 4273,
      "uum": 4274,
      "uations": 4275,
      "uine": 4276,
      "uency": 4277,
      "uert": 4278,
      "upporting": 4279,
      "vy": 4280,
      "vin": 4281,
      "val": 4282,
      "van": 4283,
      "vates": 4284,
      "vote": 4285,
      "vention": 4286,
      "vative": 4287,
      "voc": 4288,
      "went": 4289,
      "wan": 4290,
      "water": 4291,
      "where": 4292,
      "well": 4293,
      "wmill": 4294,
      "yes": 4295,
      "yards": 4296,
      "yond": 4297,
      "ypot": 4298,
      "zÃ": 4299,
      "zon": 4300,
      "zil": 4301,
      "zled": 4302,
      "zores": 4303,
      "¡le": 4304,
      "¯ve": 4305,
      "¼tes": 4306,
      "ÃŃ": 4307,
      "Ã¼tes": 4308,
      "Ġ%": 4309,
      "Ġ'": 4310,
      "Ġ:": 4311,
      "Ġer": 4312,
      "Ġve": 4313,
      "Ġid": 4314,
      "Ġill": 4315,
      "Ġident": 4316,
      "Ġiron": 4317,
      "Ġ..": 4318,
      "Ġ40": 4319,
      "Ġ000": 4320,
      "ĠXVIIIth": 4321,
      "ĠXXVIIIth": 4322,
      "ĠZim": 4323,
      "Ġupt": 4324,
      "Ġton": 4325,
      "Ġtid": 4326,
      "Ġtend": 4327,
      "Ġtide": 4328,
      "Ġtry": 4329,
      "Ġtread": 4330,
      "Ġtrem": 4331,
      "Ġturn": 4332,
      "Ġtruth": 4333,
      "Ġtwent": 4334,
      "Ġthrow": 4335,
      "Ġaust": 4336,
      "Ġapt": 4337,
      "Ġaud": 4338,
      "Ġartic": 4339,
      "Ġaward": 4340,
      "Ġaug": 4341,
      "Ġafres": 4342,
      "rel": 4343,
      "requ": 4344,
      "reast": 4345,
      "reak": 4346,
      "reens": 4347,
      "reig": 4348,
      "related": 4349,
      "revention": 4350,
      "ons": 4351,
      "oning": 4352,
      "onally": 4353,
      "onour": 4354,
      "onder": 4355,
      "onoun": 4356,
      "onetheless": 4357,
      "onnam": 4358,
      "onzÃ": 4359,
      "iny": 4360,
      "inis": 4361,
      "inct": 4362,
      "inst": 4363,
      "inations": 4364,
      "inated": 4365,
      "inating": 4366,
      "inator": 4367,
      "inpower": 4368,
      "Ġtheory": 4369,
      "Ġthesis": 4370,
      "enar": 4371,
      "enced": 4372,
      "ength": 4373,
      "enbur": 4374,
      "isen": 4375,
      "isal": 4376,
      "issible": 4377,
      "isite": 4378,
      "ispens": 4379,
      "Ġold": 4380,
      "Ġowing": 4381,
      "ativ": 4382,
      "atised": 4383,
      "atile": 4384,
      "atience": 4385,
      "ateness": 4386,
      "Ġwit": 4387,
      "Ġwent": 4388,
      "Ġwate": 4389,
      "Ġwast": 4390,
      "Ġwide": 4391,
      "Ġwage": 4392,
      "Ġwarn": 4393,
      "Ġwait": 4394,
      "Ġwrite": 4395,
      "Ġwreak": 4396,
      "Ġwonder": 4397,
      "erce": 4398,
      "eray": 4399,
      "eries": 4400,
      "erable": 4401,
      "erving": 4402,
      "erstand": 4403,
      "erhaps": 4404,
      "erbates": 4405,
      "erlin": 4406,
      "Ġsin": 4407,
      "Ġsor": 4408,
      "Ġsort": 4409,
      "Ġsport": 4410,
      "Ġsqu": 4411,
      "Ġsir": 4412,
      "Ġsore": 4413,
      "Ġslic": 4414,
      "Ġspo": 4415,
      "Ġscept": 4416,
      "Ġsnow": 4417,
      "Ġsought": 4418,
      "Ġserved": 4419,
      "Ġsensible": 4420,
      "Ġsides": 4421,
      "Ġskill": 4422,
      "Ġslim": 4423,
      "Ġseries": 4424,
      "ionably": 4425,
      "itation": 4426,
      "iture": 4427,
      "itary": 4428,
      "itative": 4429,
      "itably": 4430,
      "itjac": 4431,
      "ituency": 4432,
      "Ġpas": 4433,
      "Ġpus": 4434,
      "Ġport": 4435,
      "Ġpra": 4436,
      "Ġpet": 4437,
      "Ġpiv": 4438,
      "Ġpresident": 4439,
      "Ġpain": 4440,
      "Ġpap": 4441,
      "Ġpeo": 4442,
      "Ġpertain": 4443,
      "Ġpage": 4444,
      "Ġpull": 4445,
      "Ġpeace": 4446,
      "Ġpuz": 4447,
      "Ġpatience": 4448,
      "espite": 4449,
      "esitant": 4450,
      "orn": 4451,
      "oral": 4452,
      "oration": 4453,
      "orld": 4454,
      "orance": 4455,
      "orical": 4456,
      "orway": 4457,
      "orsel": 4458,
      "orously": 4459,
      "orily": 4460,
      "orries": 4461,
      "Ġtour": 4462,
      "Ġtold": 4463,
      "Ġoffere": 4464,
      "Ġcate": 4465,
      "Ġcity": 4466,
      "Ġciv": 4467,
      "Ġcard": 4468,
      "Ġcite": 4469,
      "Ġcentr": 4470,
      "Ġcoun": 4471,
      "Ġcease": 4472,
      "nds": 4473,
      "nder": 4474,
      "ndrom": 4475,
      "ndenbur": 4476,
      "Ġinas": 4477,
      "Ġinso": 4478,
      "Ġincon": 4479,
      "Ġinject": 4480,
      "Ġinact": 4481,
      "Ġinau": 4482,
      "Ġinhere": 4483,
      "Ġinapp": 4484,
      "Ġinev": 4485,
      "Ġinno": 4486,
      "Ġinnoc": 4487,
      "Ġbom": 4488,
      "Ġbur": 4489,
      "Ġbir": 4490,
      "Ġbill": 4491,
      "Ġbare": 4492,
      "Ġbord": 4493,
      "Ġbank": 4494,
      "Ġbig": 4495,
      "Ġbug": 4496,
      "Ġbreach": 4497,
      "Ġbiod": 4498,
      "Ġborn": 4499,
      "alent": 4500,
      "alan": 4501,
      "alle": 4502,
      "alogue": 4503,
      "entil": 4504,
      "entives": 4505,
      "oud": 4506,
      "Ġfit": 4507,
      "Ġfle": 4508,
      "Ġful": 4509,
      "Ġfill": 4510,
      "Ġfest": 4511,
      "Ġfru": 4512,
      "Ġfam": 4513,
      "Ġfaster": 4514,
      "Ġfract": 4515,
      "Ġforth": 4516,
      "Ġfreed": 4517,
      "Ġfert": 4518,
      "Ġfront": 4519,
      "Ġfrank": 4520,
      "Ġfrequ": 4521,
      "edic": 4522,
      "edul": 4523,
      "edge": 4524,
      "editi": 4525,
      "editer": 4526,
      "edond": 4527,
      "arse": 4528,
      "arise": 4529,
      "arine": 4530,
      "arked": 4531,
      "Ġreim": 4532,
      "Ġreli": 4533,
      "Ġrefor": 4534,
      "Ġreality": 4535,
      "Ġreact": 4536,
      "Ġreass": 4537,
      "Ġrevers": 4538,
      "Ġreven": 4539,
      "Ġretaining": 4540,
      "Ġresol": 4541,
      "Ġreop": 4542,
      "Ġrebuild": 4543,
      "Ġmut": 4544,
      "Ġmand": 4545,
      "Ġmig": 4546,
      "Ġmunic": 4547,
      "Ġmix": 4548,
      "Ġmoral": 4549,
      "any": 4550,
      "ansion": 4551,
      "anish": 4552,
      "ancing": 4553,
      "anisms": 4554,
      "oming": 4555,
      "ominator": 4556,
      "ico": 4557,
      "icks": 4558,
      "icapp": 4559,
      "Ġdil": 4560,
      "Ġdates": 4561,
      "Ġdial": 4562,
      "Ġdile": 4563,
      "Ġdared": 4564,
      "Ġdimin": 4565,
      "Ġdrew": 4566,
      "Ġdaring": 4567,
      "Ġdiver": 4568,
      "Ġdwell": 4569,
      "Ġdedic": 4570,
      "root": 4571,
      "roll": 4572,
      "rogra": 4573,
      "ropri": 4574,
      "ropping": 4575,
      "roborate": 4576,
      "Ġhat": 4577,
      "Ġhid": 4578,
      "Ġhour": 4579,
      "Ġhither": 4580,
      "Ġhori": 4581,
      "Ġhypot": 4582,
      "Ġhonour": 4583,
      "Ġhesitant": 4584,
      "Ġhedge": 4585,
      "vered": 4586,
      "verely": 4587,
      "vereig": 4588,
      "level": 4589,
      "leaving": 4590,
      "letes": 4591,
      "leviate": 4592,
      "Ġbelated": 4593,
      "Ġbeyond": 4594,
      "ashes": 4595,
      "Ġisol": 4596,
      "Ġnight": 4597,
      "Ġnuis": 4598,
      "ĠnaÃ": 4599,
      "ctober": 4600,
      "lying": 4601,
      "lycentr": 4602,
      "mentioned": 4603,
      "ĠISO": 4604,
      "Ġeast": 4605,
      "Ġeight": 4606,
      "Ġecological": 4607,
      "Ġeyes": 4608,
      "ided": 4609,
      "iding": 4610,
      "idate": 4611,
      "idance": 4612,
      "idency": 4613,
      "idlands": 4614,
      "Ġwhate": 4615,
      "ush": 4616,
      "using": 4617,
      "uster": 4618,
      "users": 4619,
      "ussel": 4620,
      "Ġones": 4621,
      "Ġonus": 4622,
      "Ġonerous": 4623,
      "pere": 4624,
      "pearing": 4625,
      "orted": 4626,
      "ĠCun": 4627,
      "ĠCour": 4628,
      "ĠCertain": 4629,
      "ĠCode": 4630,
      "ĠCitizens": 4631,
      "ĠCastro": 4632,
      "ĠCER": 4633,
      "ĠCham": 4634,
      "ury": 4635,
      "urate": 4636,
      "urance": 4637,
      "urbing": 4638,
      "urtz": 4639,
      "Ġforces": 4640,
      "Ġforced": 4641,
      "Ġlion": 4642,
      "Ġlay": 4643,
      "Ġlies": 4644,
      "Ġlament": 4645,
      "Ġlines": 4646,
      "Ġlost": 4647,
      "Ġlag": 4648,
      "Ġliter": 4649,
      "Ġlived": 4650,
      "Ġlays": 4651,
      "Ġlarg": 4652,
      "Ġlength": 4653,
      "Ġlorries": 4654,
      "Ġloud": 4655,
      "ationally": 4656,
      "otal": 4657,
      "oteness": 4658,
      "lli": 4659,
      "llar": 4660,
      "llate": 4661,
      "portion": 4662,
      "ĠTra": 4663,
      "ĠTod": 4664,
      "ĠTam": 4665,
      "ĠTwo": 4666,
      "ĠTues": 4667,
      "ĠTau": 4668,
      "ĠTunn": 4669,
      "ĠTower": 4670,
      "ĠMess": 4671,
      "ĠMore": 4672,
      "ĠMade": 4673,
      "ĠMarch": 4674,
      "ĠMex": 4675,
      "ĠMarg": 4676,
      "ĠMEP": 4677,
      "ĠMediter": 4678,
      "ĠMidlands": 4679,
      "Ġgest": 4680,
      "Ġgone": 4681,
      "Ġgulf": 4682,
      "Ġgrew": 4683,
      "Ġghost": 4684,
      "Ġgladly": 4685,
      "ims": 4686,
      "imul": 4687,
      "imil": 4688,
      "imination": 4689,
      "imarily": 4690,
      "imÃ©": 4691,
      "Ġprose": 4692,
      "Ġproli": 4693,
      "Ġprodu": 4694,
      "Ġproving": 4695,
      "Ġproducing": 4696,
      "Ġprolong": 4697,
      "Ġprocure": 4698,
      "Ġproof": 4699,
      "Ġproportion": 4700,
      "ceive": 4701,
      "ceful": 4702,
      "resee": 4703,
      "resist": 4704,
      "restraint": 4705,
      "residency": 4706,
      "ĠThen": 4707,
      "ĠThus": 4708,
      "ĠThose": 4709,
      "Ġascertain": 4710,
      "Ġaston": 4711,
      "Ġdear": 4712,
      "Ġdeli": 4713,
      "Ġdepo": 4714,
      "Ġdefic": 4715,
      "Ġdepri": 4716,
      "Ġdelight": 4717,
      "Ġdeterm": 4718,
      "Ġdeleg": 4719,
      "Ġdeployed": 4720,
      "Ġdeviate": 4721,
      "Ġdevote": 4722,
      "Ġdeletes": 4723,
      "utting": 4724,
      "ĠPlo": 4725,
      "ĠPad": 4726,
      "ĠPers": 4727,
      "ĠPast": 4728,
      "ĠPSE": 4729,
      "ĠPREU": 4730,
      "ĠPrinci": 4731,
      "ĠPuert": 4732,
      "ĠPrevention": 4733,
      "ĠPonnam": 4734,
      "ĠPerhaps": 4735,
      "ĠPresidency": 4736,
      "Ġstay": 4737,
      "Ġstri": 4738,
      "Ġstif": 4739,
      "Ġstern": 4740,
      "Ġstable": 4741,
      "Ġstair": 4742,
      "Ġstret": 4743,
      "Ġstory": 4744,
      "Ġstaun": 4745,
      "Ġstimul": 4746,
      "Ġconference": 4747,
      "Ġconsequently": 4748,
      "Ġconvey": 4749,
      "Ġconferred": 4750,
      "Ġconvin": 4751,
      "atement": 4752,
      "Ġhavoc": 4753,
      "set": 4754,
      "seas": 4755,
      "sions": 4756,
      "sionately": 4757,
      "rable": 4758,
      "rawing": 4759,
      "raordin": 4760,
      "raperi": 4761,
      "raisal": 4762,
      "Ġpose": 4763,
      "Ġpoore": 4764,
      "Ġpopul": 4765,
      "Ġpolycentr": 4766,
      "ulas": 4767,
      "ulter": 4768,
      "ulated": 4769,
      "ularity": 4770,
      "ulsory": 4771,
      "ĠEqu": 4772,
      "ĠEff": 4773,
      "ĠEvery": 4774,
      "ĠEast": 4775,
      "ĠEither": 4776,
      "ĠEnergy": 4777,
      "ĠELDR": 4778,
      "ĠElis": 4779,
      "ĠEnvironment": 4780,
      "Ġregion": 4781,
      "ayment": 4782,
      "verished": 4783,
      "Ġnotice": 4784,
      "Ġnotification": 4785,
      "ets": 4786,
      "eties": 4787,
      "etable": 4788,
      "etworks": 4789,
      "cili": 4790,
      "cipl": 4791,
      "cify": 4792,
      "stones": 4793,
      "stood": 4794,
      "che": 4795,
      "ches": 4796,
      "chly": 4797,
      "chore": 4798,
      "chine": 4799,
      "change": 4800,
      "chanisms": 4801,
      "ivered": 4802,
      "ĠSure": 4803,
      "ĠSum": 4804,
      "ĠSeg": 4805,
      "ĠSince": 4806,
      "ĠShe": 4807,
      "ĠSEC": 4808,
      "ĠSpan": 4809,
      "ĠSav": 4810,
      "ĠSouth": 4811,
      "ĠSimp": 4812,
      "ĠSmall": 4813,
      "ĠSupporting": 4814,
      "Ġcomplement": 4815,
      "ects": 4816,
      "ective": 4817,
      "une": 4818,
      "union": 4819,
      "unaut": 4820,
      "untary": 4821,
      "aded": 4822,
      "adays": 4823,
      "adox": 4824,
      "adwan": 4825,
      "adulter": 4826,
      "Ġshared": 4827,
      "Ġshores": 4828,
      "Ġshape": 4829,
      "Ġshutting": 4830,
      "Ġexit": 4831,
      "Ġexod": 4832,
      "Ġexpos": 4833,
      "Ġexac": 4834,
      "Ġexcus": 4835,
      "Ġexile": 4836,
      "lified": 4837,
      "lihood": 4838,
      "lilli": 4839,
      "quest": 4840,
      "quitted": 4841,
      "Ġsure": 4842,
      "Ġsumm": 4843,
      "Ġsurely": 4844,
      "Ġsupposed": 4845,
      "iration": 4846,
      "Ġante": 4847,
      "Ġannually": 4848,
      "Ġanchore": 4849,
      "ript": 4850,
      "rived": 4851,
      "rieve": 4852,
      "embourg": 4853,
      "embered": 4854,
      "ustry": 4855,
      "illings": 4856,
      "ĠWould": 4857,
      "ĠWest": 4858,
      "ĠWish": 4859,
      "ĠWide": 4860,
      "ĠWrong": 4861,
      "ĠWork": 4862,
      "ĠWyn": 4863,
      "ĠWorld": 4864,
      "ĠWurtz": 4865,
      "Ġalto": 4866,
      "Ġalternative": 4867,
      "Ġalmost": 4868,
      "Ġalleviate": 4869,
      "oded": 4870,
      "Ġneither": 4871,
      "ivated": 4872,
      "ivoc": 4873,
      "ivalent": 4874,
      "Ġhasten": 4875,
      "ĠAid": 4876,
      "ĠAri": 4877,
      "ĠAllow": 4878,
      "ĠAsia": 4879,
      "ĠADR": 4880,
      "ĠABC": 4881,
      "ĠAdopt": 4882,
      "ĠAhern": 4883,
      "ĠApart": 4884,
      "ĠAzores": 4885,
      "arted": 4886,
      "Ġsovereig": 4887,
      "Ġimpo": 4888,
      "Ġimpet": 4889,
      "Ġimper": 4890,
      "Ġimag": 4891,
      "Ġimbal": 4892,
      "Ġimposed": 4893,
      "endly": 4894,
      "endments": 4895,
      "endence": 4896,
      "endously": 4897,
      "enditure": 4898,
      "theless": 4899,
      "undant": 4900,
      "understand": 4901,
      "identally": 4902,
      "ifest": 4903,
      "ifunctional": 4904,
      "Ġvac": 4905,
      "Ġvict": 4906,
      "Ġvoc": 4907,
      "Ġvivid": 4908,
      "Ġvague": 4909,
      "Ġventil": 4910,
      "Ġyouth": 4911,
      "eezed": 4912,
      "berations": 4913,
      "ainly": 4914,
      "ĠFrom": 4915,
      "ĠFramew": 4916,
      "ĠFollow": 4917,
      "ĠFuster": 4918,
      "estone": 4919,
      "anship": 4920,
      "antages": 4921,
      "rucut": 4922,
      "Ġtail": 4923,
      "Ġtack": 4924,
      "Ġtaught": 4925,
      "iled": 4926,
      "ilities": 4927,
      "ilater": 4928,
      "Ġattaining": 4929,
      "Ġliberal": 4930,
      "Ġadult": 4931,
      "Ġadjac": 4932,
      "Ġadvert": 4933,
      "Ġadjour": 4934,
      "ambig": 4935,
      "ampioned": 4936,
      "Ġparty": 4937,
      "Ġparties": 4938,
      "polog": 4939,
      "Ġleague": 4940,
      "Ġenlight": 4941,
      "Ġenorm": 4942,
      "Ġenergies": 4943,
      "Ġengaged": 4944,
      "Ġenhance": 4945,
      "Ġenvy": 4946,
      "concil": 4947,
      "consum": 4948,
      "Ġours": 4949,
      "nty": 4950,
      "ption": 4951,
      "Ġrun": 4952,
      "Ġrates": 4953,
      "Ġrational": 4954,
      "Ġround": 4955,
      "Ġrunn": 4956,
      "Ġroughly": 4957,
      "Ġ101": 4958,
      "Ġ143": 4959,
      "Ġ148": 4960,
      "Ġdollar": 4961,
      "Ġacross": 4962,
      "Ġacquitted": 4963,
      "erspend": 4964,
      "ĠStill": 4965,
      "ĠStock": 4966,
      "ĠStras": 4967,
      "ppÃ¤n": 4968,
      "Ġdisgra": 4969,
      "Ġdisap": 4970,
      "Ġdispose": 4971,
      "Ġdissol": 4972,
      "Ġdisreg": 4973,
      "Ġdiscont": 4974,
      "Ġdisintegr": 4975,
      "Ġdisabled": 4976,
      "Ġdisput": 4977,
      "Ġdiscipl": 4978,
      "irer": 4979,
      "umed": 4980,
      "umar": 4981,
      "uman": 4982,
      "umulation": 4983,
      "umbent": 4984,
      "umption": 4985,
      "Ġusual": 4986,
      "Ġuseless": 4987,
      "Ġcompete": 4988,
      "Ġcompetently": 4989,
      "Ġcompetences": 4990,
      "elating": 4991,
      "elays": 4992,
      "Ġunfortun": 4993,
      "Ġunivers": 4994,
      "Ġunless": 4995,
      "Ġunits": 4996,
      "Ġuniting": 4997,
      "Ġunified": 4998,
      "Ġunav": 4999,
      "Ġunimp": 5000,
      "Ġuncertain": 5001,
      "Ġunease": 5002,
      "Ġuncont": 5003,
      "Ġunbi": 5004,
      "Ġuncle": 5005,
      "Ġuneven": 5006,
      "Ġunfav": 5007,
      "Ġunadulter": 5008,
      "Ġunquest": 5009,
      "Ġunilater": 5010,
      "Ġunambig": 5011,
      "Ġaggra": 5012,
      "Ġaggreg": 5013,
      "Ġaids": 5014,
      "Ġaided": 5015,
      "andment": 5016,
      "ittany": 5017,
      "Ġintol": 5018,
      "Ġintens": 5019,
      "Ġintrins": 5020,
      "ĠWeb": 5021,
      "ĠWell": 5022,
      "ructed": 5023,
      "ructing": 5024,
      "ructions": 5025,
      "ĠGÃ¼tes": 5026,
      "ĠGreens": 5027,
      "ĠGonzÃ": 5028,
      "ĠGorsel": 5029,
      "Ġmachine": 5030,
      "iculous": 5031,
      "gelilli": 5032,
      "Ġconcentr": 5033,
      "Ġconcret": 5034,
      "Ġconceded": 5035,
      "ĠUS": 5036,
      "ĠUnder": 5037,
      "ouring": 5038,
      "ourse": 5039,
      "ourlang": 5040,
      "Ġtransition": 5041,
      "Ġtranshipped": 5042,
      "Ġtranspired": 5043,
      "Ġfaith": 5044,
      "Ġfair": 5045,
      "Ġfaces": 5046,
      "Ġfault": 5047,
      "Ġfaced": 5048,
      "Ġfairer": 5049,
      "Ġmechanisms": 5050,
      "ghtening": 5051,
      "Ġresorted": 5052,
      "Ġresumed": 5053,
      "grading": 5054,
      "Ġjunct": 5055,
      "ernisation": 5056,
      "erniÃ©": 5057,
      "Ġsake": 5058,
      "Ġsawmill": 5059,
      "Ġspeed": 5060,
      "Ġspecul": 5061,
      "Ġspeculation": 5062,
      "Ġspecify": 5063,
      "Ġcoast": 5064,
      "Ġcohere": 5065,
      "Ġcovered": 5066,
      "Ġcollate": 5067,
      "intention": 5068,
      "Ġquo": 5069,
      "Ġapparent": 5070,
      "Ġappraisal": 5071,
      "Ġamending": 5072,
      "Ġacceding": 5073,
      "Ġaccuse": 5074,
      "Ġaccurate": 5075,
      "Ġaccumulation": 5076,
      "ĠHague": 5077,
      "ĠHope": 5078,
      "ĠHicks": 5079,
      "ĠHuman": 5080,
      "Ġcommitted": 5081,
      "Ġcommerce": 5082,
      "Ġcommunaut": 5083,
      "Ġcommandment": 5084,
      "mma": 5085,
      "sight": 5086,
      "sibility": 5087,
      "Ġradical": 5088,
      "astly": 5089,
      "posite": 5090,
      "cessor": 5091,
      "perate": 5092,
      "perately": 5093,
      "Ġincome": 5094,
      "Ġincentives": 5095,
      "Ġincumbent": 5096,
      "Ġposed": 5097,
      "acle": 5098,
      "acces": 5099,
      "sider": 5100,
      "sidering": 5101,
      "Ġtimetable": 5102,
      "Ġworks": 5103,
      "Ġworkable": 5104,
      "Ġworkings": 5105,
      "Ġseason": 5106,
      "Ġsepar": 5107,
      "Ġseven": 5108,
      "Ġsecul": 5109,
      "Ġsealing": 5110,
      "Ġsecur": 5111,
      "Ġseverely": 5112,
      "Ġcontract": 5113,
      "Ġcontrary": 5114,
      "ĠRules": 5115,
      "ĠRober": 5116,
      "ĠRibe": 5117,
      "ĠRedond": 5118,
      "ĠRadwan": 5119,
      "ĠRelating": 5120,
      "Ġabol": 5121,
      "Ġabide": 5122,
      "Ġability": 5123,
      "Ġabnorm": 5124,
      "Ġabsent": 5125,
      "Ġabreast": 5126,
      "Ġplainly": 5127,
      "Ġmarks": 5128,
      "Ġmargin": 5129,
      "Ġmarked": 5130,
      "Ġmarker": 5131,
      "Ġbecomes": 5132,
      "Ġbecoming": 5133,
      "ĠIncreased": 5134,
      "Ġpointing": 5135,
      "Ġtimely": 5136,
      "002": 5137,
      "arer": 5138,
      "Ġindep": 5139,
      "Ġindispens": 5140,
      "Ġdebates": 5141,
      "Ġguide": 5142,
      "Ġrequisite": 5143,
      "Ġexpire": 5144,
      "Ġexpound": 5145,
      "Ġexpired": 5146,
      "Ġexpediti": 5147,
      "Ġexpansion": 5148,
      "Ġexpenditure": 5149,
      "Ġsocially": 5150,
      "abeth": 5151,
      "aboration": 5152,
      "abilities": 5153,
      "earing": 5154,
      "earch": 5155,
      "earsed": 5156,
      "Ġneeding": 5157,
      "ĠBud": 5158,
      "ĠBrit": 5159,
      "ĠBarent": 5160,
      "ĠBefore": 5161,
      "ĠBerlin": 5162,
      "ĠBush": 5163,
      "ĠBourlang": 5164,
      "ĠBerniÃ©": 5165,
      "ĠBearing": 5166,
      "Ġissued": 5167,
      "Ġmarketing": 5168,
      "cisions": 5169,
      "Ġproposes": 5170,
      "Ġregarded": 5171,
      "Ġguideline": 5172,
      "Ġroom": 5173,
      "Ġroot": 5174,
      "Ġupgrading": 5175,
      "Ġoutcom": 5176,
      "Ġoutlines": 5177,
      "Ġoutstanding": 5178,
      "Ġchap": 5179,
      "Ġchie": 5180,
      "Ġchild": 5181,
      "Ġchape": 5182,
      "Ġchos": 5183,
      "Ġchipped": 5184,
      "Ġchampioned": 5185,
      "Ġmatched": 5186,
      "Ġmatches": 5187,
      "Ġemerg": 5188,
      "Ġpreach": 5189,
      "Ġprede": 5190,
      "Ġpretext": 5191,
      "hesis": 5192,
      "ĠOr": 5193,
      "ĠOver": 5194,
      "ĠOctober": 5195,
      "Ġcounted": 5196,
      "Ġremit": 5197,
      "Ġreminis": 5198,
      "Ġremarked": 5199,
      "Ġremoteness": 5200,
      "Ġremembered": 5201,
      "Ġnewly": 5202,
      "Ġacts": 5203,
      "Ġacting": 5204,
      "Ġlove": 5205,
      "Ġloose": 5206,
      "Ġlosing": 5207,
      "Ġloaded": 5208,
      "Ġimportantly": 5209,
      "evertheless": 5210,
      "Ġ21": 5211,
      "Ġ27": 5212,
      "Ġ2496": 5213,
      "Ġwhenever": 5214,
      "Ġobjection": 5215,
      "Ġdirectorate": 5216,
      "Ġpresenting": 5217,
      "ultane": 5218,
      "Ġjustifying": 5219,
      "cedure": 5220,
      "Ġinterfere": 5221,
      "Ġinterference": 5222,
      "Ġinteract": 5223,
      "Ġinterreg": 5224,
      "Ġintersector": 5225,
      "Ġinterfac": 5226,
      "Ġinterchange": 5227,
      "Ġrelativ": 5228,
      "Ġwhereas": 5229,
      "apan": 5230,
      "eolog": 5231,
      "Ġkilo": 5232,
      "Ġkillings": 5233,
      "Ġimply": 5234,
      "Ġimpeding": 5235,
      "Ġimpris": 5236,
      "Ġlegally": 5237,
      "Ġperiodical": 5238,
      "poning": 5239,
      "Ġthematic": 5240,
      "Ġmanag": 5241,
      "Ġmanaged": 5242,
      "Ġmanifest": 5243,
      "Ġdrag": 5244,
      "Ġdragg": 5245,
      "Ġcomprise": 5246,
      "Ġcompulsory": 5247,
      "Ġcompiled": 5248,
      "Ġexamined": 5249,
      "Ġexaminations": 5250,
      "Ġsupports": 5251,
      "Ġsays": 5252,
      "Ġinvite": 5253,
      "Ġinvitation": 5254,
      "Ġnowadays": 5255,
      "Ġanyone": 5256,
      "Ġanyway": 5257,
      "ĠDue": 5258,
      "ĠDÃŃ": 5259,
      "ĠDespite": 5260,
      "ĠDanish": 5261,
      "ĠDropping": 5262,
      "ĠDrawing": 5263,
      "ĠDelays": 5264,
      "Ġentrench": 5265,
      "Ġundeveloped": 5266,
      "Ġunderspend": 5267,
      "Ġsections": 5268,
      "Ġevidence": 5269,
      "Ġviable": 5270,
      "Ġviability": 5271,
      "Ġpriori": 5272,
      "Ġprice": 5273,
      "Ġprime": 5274,
      "Ġpronoun": 5275,
      "Ġprimarily": 5276,
      "Ġclearer": 5277,
      "Ġbelief": 5278,
      "Ġgreatly": 5279,
      "Ġregulate": 5280,
      "Ġregulated": 5281,
      "ipalities": 5282,
      "Ġsubsequ": 5283,
      "Ġsubsequently": 5284,
      "Ġsubvert": 5285,
      "Ġsubordin": 5286,
      "Ġyourself": 5287,
      "agricult": 5288,
      "ached": 5289,
      "Ġowner": 5290,
      "Ġrecitals": 5291,
      "Ġrecourse": 5292,
      "etherlands": 5293,
      "Ġattack": 5294,
      "Ġattribut": 5295,
      "Ġattract": 5296,
      "Ġoppose": 5297,
      "Ġopposite": 5298,
      "Ġsituations": 5299,
      "Ġadopts": 5300,
      "Ġrequirement": 5301,
      "ĠLadies": 5302,
      "ĠLittle": 5303,
      "ĠLond": 5304,
      "ĠLTCM": 5305,
      "ĠLooking": 5306,
      "ĠLux": 5307,
      "ĠLastly": 5308,
      "Ġtwofold": 5309,
      "Ġobtain": 5310,
      "Ġobtaining": 5311,
      "ervation": 5312,
      "Ġnationalisation": 5313,
      "ĠWhether": 5314,
      "Ġensured": 5315,
      "Ġprovince": 5316,
      "Ġassass": 5317,
      "Ġassume": 5318,
      "Ġassimil": 5319,
      "Ġspecifics": 5320,
      "Ġimproves": 5321,
      "Ġlaugh": 5322,
      "ables": 5323,
      "Ġundergone": 5324,
      "Ġunderwater": 5325,
      "Ġunderlying": 5326,
      "Ġunderstood": 5327,
      "Ġprincipal": 5328,
      "feration": 5329,
      "Ġripple": 5330,
      "reading": 5331,
      "Ġfood": 5332,
      "Ġfogg": 5333,
      "Ġforesee": 5334,
      "Ġdiffer": 5335,
      "Ġdifference": 5336,
      "Ġhoc": 5337,
      "Ġhole": 5338,
      "Ġhosp": 5339,
      "formance": 5340,
      "Ġknows": 5341,
      "Ġknowing": 5342,
      "Ġinvolves": 5343,
      "Ġsphe": 5344,
      "Ġspring": 5345,
      "Ġsplend": 5346,
      "Ġsparse": 5347,
      "Ġspreading": 5348,
      "Ġsincerely": 5349,
      "Ġcredi": 5350,
      "ribly": 5351,
      "Ġ1995": 5352,
      "Ġspeaker": 5353,
      "Ġaccountability": 5354,
      "Ġviews": 5355,
      "Ġviewed": 5356,
      "Ġviewpoint": 5357,
      "Ġhighest": 5358,
      "Ġrights": 5359,
      "Ġurges": 5360,
      "Ġurged": 5361,
      "Ġoverarch": 5362,
      "Ġoverseas": 5363,
      "Ġoversight": 5364,
      "Ġpublicly": 5365,
      "Ġpublicity": 5366,
      "Ġfiner": 5367,
      "icians": 5368,
      "Ġnumerous": 5369,
      "Ġunemployed": 5370,
      "gned": 5371,
      "gnorance": 5372,
      "parency": 5373,
      "ĠNations": 5374,
      "ĠNeed": 5375,
      "ĠNext": 5376,
      "ĠNonetheless": 5377,
      "ĠNorway": 5378,
      "ĠNetworks": 5379,
      "ĠNevertheless": 5380,
      "ĠNetherlands": 5381,
      "itively": 5382,
      "Ġinstances": 5383,
      "Ġinstructive": 5384,
      "Ġinstruction": 5385,
      "Ġinstructions": 5386,
      "Ġfunded": 5387,
      "Ġreplaced": 5388,
      "Ġrepayment": 5389,
      "Ġreprieve": 5390,
      "Ġreasoning": 5391,
      "Ġhell": 5392,
      "Ġheld": 5393,
      "Ġheard": 5394,
      "Ġharmed": 5395,
      "Ġbehavi": 5396,
      "ĠConcentr": 5397,
      "ĠConsum": 5398,
      "ĠConcern": 5399,
      "ĠConserv": 5400,
      "ĠConsidering": 5401,
      "Ġlawful": 5402,
      "ĠJimÃ©": 5403,
      "ĠJune": 5404,
      "ĠJapan": 5405,
      "Ġterminating": 5406,
      "Ġdecent": 5407,
      "Ġdecade": 5408,
      "Ġdecide": 5409,
      "Ġdecreased": 5410,
      "Ġdecides": 5411,
      "Ġdecided": 5412,
      "Ġincludes": 5413,
      "ĠRegion": 5414,
      "Ġrequesting": 5415,
      "active": 5416,
      "ails": 5417,
      "Ġwanted": 5418,
      "Ġpursue": 5419,
      "Ġcapable": 5420,
      "Ġcapabilities": 5421,
      "Ġeveryday": 5422,
      "Ġeveryone": 5423,
      "Ġlasted": 5424,
      "Ġlasting": 5425,
      "Ġextension": 5426,
      "Ġextending": 5427,
      "Ġextraordin": 5428,
      "Ġaccepts": 5429,
      "Ġacceptable": 5430,
      "Ġaccorded": 5431,
      "Ġ2005": 5432,
      "Ġ2007": 5433,
      "Ġevening": 5434,
      "establishes": 5435,
      "uese": 5436,
      "ĠKey": 5437,
      "ĠKumar": 5438,
      "redited": 5439,
      "Ġminor": 5440,
      "Ġminutes": 5441,
      "Ġminister": 5442,
      "annual": 5443,
      "Ġformer": 5444,
      "Ġformal": 5445,
      "Ġformally": 5446,
      "Ġformulas": 5447,
      "Ġresulted": 5448,
      "Ġharmonised": 5449,
      "Ġharmonises": 5450,
      "Ġendless": 5451,
      "Ġendeav": 5452,
      "Ġpercent": 5453,
      "Ġperceive": 5454,
      "Ġperformance": 5455,
      "Ġcalls": 5456,
      "Ġdesk": 5457,
      "Ġdesire": 5458,
      "Ġdesperately": 5459,
      "Ġhereby": 5460,
      "Ġprocedural": 5461,
      "ĠPoverty": 5462,
      "ĠPoos": 5463,
      "vernor": 5464,
      "Ġdistant": 5465,
      "Ġdistance": 5466,
      "Ġdistances": 5467,
      "Ġdistinct": 5468,
      "Ġdisturbing": 5469,
      "Ġprevails": 5470,
      "Ġappropriation": 5471,
      "Ġappropriations": 5472,
      "Ġappropriately": 5473,
      "Ġappropriateness": 5474,
      "Ġgenerate": 5475,
      "Ġgenerated": 5476,
      "hearted": 5477,
      "nez": 5478,
      "plished": 5479,
      "Ġ80": 5480,
      "Ġ82": 5481,
      "Ġ89": 5482,
      "Ġtrack": 5483,
      "Ġtrading": 5484,
      "Ġtraditional": 5485,
      "Ġsimultane": 5486,
      "Ġpersuad": 5487,
      "Ġclause": 5488,
      "Ġclass": 5489,
      "Ġfell": 5490,
      "Ġfeared": 5491,
      "Ġfeature": 5492,
      "Ġfeatures": 5493,
      "Ġmodel": 5494,
      "Ġmodules": 5495,
      "Ġlongstanding": 5496,
      "Ġdealing": 5497,
      "Ġsteelworks": 5498,
      "Ġconservation": 5499,
      "Ġvaries": 5500,
      "Ġvariations": 5501,
      "ĠFinland": 5502,
      "ĠFinnish": 5503,
      "Ġadvise": 5504,
      "Ġadvisable": 5505,
      "Ġcontinuation": 5506,
      "Ġrepresenting": 5507,
      "Ġrepresentations": 5508,
      "Ġrepresentative": 5509,
      "parably": 5510,
      "itute": 5511,
      "itutes": 5512,
      "Ġcritical": 5513,
      "Ġequili": 5514,
      "Ġequitably": 5515,
      "Ġequivalent": 5516,
      "Ġlesser": 5517,
      "Ġprocesses": 5518,
      "Ġfails": 5519,
      "Ġfailing": 5520,
      "Ġexpressly": 5521,
      "Ġlocation": 5522,
      "Ġlocated": 5523,
      "Ġlocating": 5524,
      "Ġlooked": 5525,
      "Ġartific": 5526,
      "Ġarisen": 5527,
      "Ġarrived": 5528,
      "Ġaviation": 5529,
      "Ġavalan": 5530,
      "Ġafterwards": 5531,
      "Ġafterno": 5532,
      "Ġserves": 5533,
      "Ġputting": 5534,
      "Ġclosing": 5535,
      "Ġclosure": 5536,
      "Ġinitially": 5537,
      "Ġinitiated": 5538,
      "Ġproductive": 5539,
      "Ġdemocrat": 5540,
      "Ġdemograph": 5541,
      "Ġhandling": 5542,
      "Ġhandicapp": 5543,
      "Ġsubjects": 5544,
      "Ġtaxes": 5545,
      "Ġadmit": 5546,
      "Ġadmiration": 5547,
      "Ġcompetitivity": 5548,
      "Ġmonopolistic": 5549,
      "Ġinternationally": 5550,
      "Ġentering": 5551,
      "Ġprovider": 5552,
      "Ġstrategically": 5553,
      "Ġauthority": 5554,
      "Ġauthorisation": 5555,
      "Ġauthorised": 5556,
      "Ġsustainability": 5557,
      "0121": 5558,
      "0120": 5559,
      "0122": 5560,
      "Ġescape": 5561,
      "retrogra": 5562,
      "Ġcorner": 5563,
      "Ġcorpor": 5564,
      "Ġcorroborate": 5565,
      "Ġreads": 5566,
      "ĠTransparency": 5567,
      "versy": 5568,
      "Ġratify": 5569,
      "Ġintroduction": 5570,
      "Ġindicates": 5571,
      "Ġindicator": 5572,
      "ĠDecisions": 5573,
      "Ġopened": 5574,
      "Ġopening": 5575,
      "Ġopenly": 5576,
      "Ġopportune": 5577,
      "Ġimprovements": 5578,
      "support": 5579,
      "supporting": 5580,
      "Ġtying": 5581,
      "Ġtypolog": 5582,
      "Ġscant": 5583,
      "Ġscale": 5584,
      "Ġscrut": 5585,
      "Ġscenar": 5586,
      "Ġsmell": 5587,
      "Ġsmooth": 5588,
      "Ġplease": 5589,
      "Ġpleasing": 5590,
      "Ġpractices": 5591,
      "Ġpractically": 5592,
      "Ġinforming": 5593,
      "Ġfeeling": 5594,
      "Ġislander": 5595,
      "ĠMonday": 5596,
      "Ġconstantly": 5597,
      "Ġconstruction": 5598,
      "Ġconstitutional": 5599,
      "Ġconstituency": 5600,
      "Ġconstructed": 5601,
      "Ġconstitutes": 5602,
      "Ġpoliticians": 5603,
      "ĠSea": 5604,
      "ĠSeven": 5605,
      "ĠSeatt": 5606,
      "ĠSecret": 5607,
      "ĠSeppÃ¤n": 5608,
      "Ġadvice": 5609,
      "Ġadvances": 5610,
      "Ġadvantages": 5611,
      "0066": 5612,
      "0069": 5613,
      "Ġprecise": 5614,
      "Ġobserve": 5615,
      "Ġfundamentally": 5616,
      "Ġpersons": 5617,
      "Ġpersonality": 5618,
      "Ġsuccessive": 5619,
      "Ġsuccessfully": 5620,
      "Ġfavours": 5621,
      "Ġflexibil": 5622,
      "Ġflexibly": 5623,
      "Ġadministrations": 5624,
      "Ġadministrator": 5625,
      "igation": 5626,
      "ĠYour": 5627,
      "Ġideal": 5628,
      "Ġideas": 5629,
      "Ġwatering": 5630,
      "Ġsynergies": 5631,
      "Ġsyndrom": 5632,
      "Ġpromise": 5633,
      "Ġoffers": 5634,
      "Ġoffset": 5635,
      "Ġbacked": 5636,
      "Ġbackward": 5637,
      "Ġbackground": 5638,
      "Ġmainland": 5639,
      "Ġmaintained": 5640,
      "Ġhears": 5641,
      "Ġhearing": 5642,
      "ĠMinister": 5643,
      "Ġgrass": 5644,
      "Ġcongress": 5645,
      "Ġsocieties": 5646,
      "Ġenforced": 5647,
      "Ġenforcing": 5648,
      "Ġdisparity": 5649,
      "Ġrespects": 5650,
      "Ġrespecting": 5651,
      "Ġrespectfully": 5652,
      "Ġcooperate": 5653,
      "Ġcontributed": 5654,
      "Ġcontributions": 5655,
      "Ġsubsidy": 5656,
      "Ġsubsidies": 5657,
      "Ġassessed": 5658,
      "Ġassisting": 5659,
      "Ġsigns": 5660,
      "Ġinstitutional": 5661,
      "Ġmodernise": 5662,
      "Ġmodernised": 5663,
      "Ġmodernising": 5664,
      "coming": 5665,
      "comings": 5666,
      "Ġapart": 5667,
      "Ġappoint": 5668,
      "Ġbalanced": 5669,
      "ĠIndustry": 5670,
      "Ġdefending": 5671,
      "Ġdefects": 5672,
      "Ġdelivered": 5673,
      "ĠProcedure": 5674,
      "Ġcompleted": 5675,
      "Ġcompletes": 5676,
      "Ġexists": 5677,
      "Ġanalyses": 5678,
      "ĠAmendments": 5679,
      "Ġgovernment": 5680,
      "Ġcontaining": 5681,
      "Ġcontainers": 5682,
      "ĠReunion": 5683,
      "Ġwholehearted": 5684,
      "Ġkinds": 5685,
      "Ġtelling": 5686,
      "Ġobliges": 5687,
      "Ġdifferently": 5688,
      "Ġdifferentiating": 5689,
      "Ġgranting": 5690,
      "Ġcongratulates": 5691,
      "ebbels": 5692,
      "geted": 5693,
      "iversity": 5694,
      "nessed": 5695,
      "ucidation": 5696,
      "Ġ96": 5697,
      "Ġ9002": 5698,
      "Ġedge": 5699,
      "Ġterribly": 5700,
      "Ġaimed": 5701,
      "Ġaffect": 5702,
      "Ġafford": 5703,
      "Ġaffirm": 5704,
      "Ġbringing": 5705,
      "Ġrefers": 5706,
      "Ġrefuse": 5707,
      "Ġrefocus": 5708,
      "Ġrefusing": 5709,
      "Ġrenov": 5710,
      "Ġrealise": 5711,
      "Ġrealised": 5712,
      "Ġrealistic": 5713,
      "Ġminds": 5714,
      "Ġelimination": 5715,
      "Ġelaboration": 5716,
      "Ġelucidation": 5717,
      "Ġforcefully": 5718,
      "Ġconfident": 5719,
      "Ġconfines": 5720,
      "Ġconfirm": 5721,
      "Ġconfused": 5722,
      "Ġhappening": 5723,
      "Ġsuperb": 5724,
      "Ġpartners": 5725,
      "Ġconcluding": 5726,
      "Ġworded": 5727,
      "Ġwording": 5728,
      "Ġcostly": 5729,
      "Ġplays": 5730,
      "Ġplayers": 5731,
      "Ġindividually": 5732,
      "ĠOnce": 5733,
      "Ġsubstitute": 5734,
      "Ġfocused": 5735,
      "0106": 5736,
      "0108": 5737,
      "Ġdetailing": 5738,
      "Ġinfrastructures": 5739,
      "Ġinfrastrucut": 5740,
      "Ġenforceable": 5741,
      "Ġsubsidiary": 5742,
      "Ġdelayed": 5743,
      "Ġsuggests": 5744,
      "Ġsuggesting": 5745,
      "2110": 5746,
      "ECSC": 5747,
      "Ġoperate": 5748,
      "Ġoperability": 5749,
      "Ġschedul": 5750,
      "Ġtotalling": 5751,
      "Ġbook": 5752,
      "Ġredevelopment": 5753,
      "Ġredundant": 5754,
      "Ġrestructure": 5755,
      "Ġrestrict": 5756,
      "Ġrestraint": 5757,
      "Ġelections": 5758,
      "Ġlowest": 5759,
      "Ġlowered": 5760,
      "Ġweaken": 5761,
      "Ġweakest": 5762,
      "Ġweakening": 5763,
      "ĠToo": 5764,
      "ĠTobin": 5765,
      "ternal": 5766,
      "Ġcommented": 5767,
      "Ġcommenting": 5768,
      "Ġshortcomings": 5769,
      "Ġshowing": 5770,
      "Ġleader": 5771,
      "Ġleaders": 5772,
      "Ġintegration": 5773,
      "Ġintegrating": 5774,
      "Ġcolleges": 5775,
      "Ġapplicant": 5776,
      "Ġcommunications": 5777,
      "Ġinvestor": 5778,
      "Ġinvestments": 5779,
      "Ġinvestigation": 5780,
      "Ġsubmit": 5781,
      "Ġsubmitting": 5782,
      "Ġholds": 5783,
      "Ġhighlights": 5784,
      "Ġhighlighting": 5785,
      "Ġdeclare": 5786,
      "Ġextents": 5787,
      "Ġexplanatory": 5788,
      "Ġbenefited": 5789,
      "Ġappeal": 5790,
      "Ġappear": 5791,
      "Ġappears": 5792,
      "Ġappealing": 5793,
      "Ġeducated": 5794,
      "Ġeducational": 5795,
      "Ġeducating": 5796,
      "Ġrenewal": 5797,
      "Ġrenewables": 5798,
      "Ġindividuals": 5799,
      "Ġdemonstrable": 5800,
      "balam": 5801,
      "cutor": 5802,
      "dington": 5803,
      "nguer": 5804,
      "porary": 5805,
      "spent": 5806,
      "Ġtreaties": 5807,
      "Ġpermission": 5808,
      "Ġpermissible": 5809,
      "Ġtools": 5810,
      "Ġoffice": 5811,
      "Ġofficer": 5812,
      "Ġcentralised": 5813,
      "arantee": 5814,
      "Ġretabled": 5815,
      "Ġrejects": 5816,
      "Ġrejection": 5817,
      "Ġmultifunctional": 5818,
      "Ġdiversification": 5819,
      "Ġhumility": 5820,
      "Ġdepth": 5821,
      "Ġregrets": 5822,
      "Ġregretted": 5823,
      "Ġexceptional": 5824,
      "ĠAlternative": 5825,
      "ĠAustrian": 5826,
      "Ġamongst": 5827,
      "Ġallows": 5828,
      "Ġallowed": 5829,
      "Ġallowing": 5830,
      "Ġunanimous": 5831,
      "Ġintending": 5832,
      "ĠGovernor": 5833,
      "ĠGoebbels": 5834,
      "Ġapplying": 5835,
      "Ġcontroversy": 5836,
      "ĠBerenguer": 5837,
      "Ġchanging": 5838,
      "Ġemployee": 5839,
      "Ġemployers": 5840,
      "Ġemployees": 5841,
      "Ġrecommended": 5842,
      "Ġrecommendation": 5843,
      "Ġresponded": 5844,
      "Ġaddressed": 5845,
      "Ġspiralling": 5846,
      "Ġpursuing": 5847,
      "Ġcriticise": 5848,
      "Ġcriticised": 5849,
      "Ġtechnology": 5850,
      "Ġsystematic": 5851,
      "Ġbroaden": 5852,
      "Ġbroadly": 5853,
      "Ġinterventionism": 5854,
      "Ġemphasise": 5855,
      "Ġemphasised": 5856,
      "Ġemphasising": 5857,
      "Ġemphasises": 5858,
      "panied": 5859,
      "venience": 5860,
      "Ġ540": 5861,
      "Ġawaited": 5862,
      "rehension": 5863,
      "rehearsed": 5864,
      "Ġphased": 5865,
      "Ġphasing": 5866,
      "Ġparalle": 5867,
      "Ġparadox": 5868,
      "Ġpasses": 5869,
      "Ġcrust": 5870,
      "Ġcrimin": 5871,
      "Ġcrashes": 5872,
      "Ġcausing": 5873,
      "Ġreceives": 5874,
      "Ġreceiving": 5875,
      "Ġmedia": 5876,
      "Ġdamaged": 5877,
      "Ġdamaging": 5878,
      "Ġbeginning": 5879,
      "Ġlimit": 5880,
      "Ġwelfare": 5881,
      "Ġprobity": 5882,
      "Ġprobable": 5883,
      "Ġprobability": 5884,
      "Ġconnected": 5885,
      "Ġconversion": 5886,
      "Ġshipment": 5887,
      "Ġshipbuild": 5888,
      "Ġshipyards": 5889,
      "Ġexercises": 5890,
      "Ġexercised": 5891,
      "ĠAgenda": 5892,
      "Ġadapting": 5893,
      "Ġadaptation": 5894,
      "Ġencouraging": 5895,
      "Ġorganise": 5896,
      "Ġricher": 5897,
      "Ġrichest": 5898,
      "Ġrecovery": 5899,
      "Ġunderstands": 5900,
      "Ġpreventing": 5901,
      "Ġconsists": 5902,
      "Ġconsistently": 5903,
      "Ġconsistency": 5904,
      "Ġexplained": 5905,
      "Ġoccasions": 5906,
      "Ġoccasional": 5907,
      "Ġmethods": 5908,
      "Ġmethodological": 5909,
      "bursement": 5910,
      "expand": 5911,
      "faction": 5912,
      "factorily": 5913,
      "Ġ34": 5914,
      "Ġ37": 5915,
      "Ġzone": 5916,
      "Ġzoning": 5917,
      "ĠQuite": 5918,
      "Ġtemporary": 5919,
      "Ġtunnel": 5920,
      "Ġpaying": 5921,
      "Ġcatalogue": 5922,
      "Ġbadly": 5923,
      "Ġframeworks": 5924,
      "Ġresolution": 5925,
      "Ġresolutely": 5926,
      "Ġmissed": 5927,
      "Ġmisapp": 5928,
      "Ġmisunderstand": 5929,
      "Ġmisspent": 5930,
      "Ġdreaded": 5931,
      "Ġearner": 5932,
      "Ġlivelihood": 5933,
      "Ġlisten": 5934,
      "Ġlistening": 5935,
      "Ġwealthy": 5936,
      "Ġprofit": 5937,
      "Ġprofile": 5938,
      "Ġprofits": 5939,
      "Ġprofitable": 5940,
      "responsible": 5941,
      "Ġstudy": 5942,
      "Ġstudied": 5943,
      "Ġexecuted": 5944,
      "Ġexecutive": 5945,
      "ĠWithin": 5946,
      "Ġsooner": 5947,
      "Ġlearns": 5948,
      "Ġ180": 5949,
      "Ġquarrel": 5950,
      "Ġpossibility": 5951,
      "Ġpossibilities": 5952,
      "Ġrecords": 5953,
      "ĠLankan": 5954,
      "Ġdecisively": 5955,
      "Ġundertake": 5956,
      "Ġstandardisation": 5957,
      "ĠNos": 5958,
      "Ġinstruments": 5959,
      "ledgement": 5960,
      "Ġcapacities": 5961,
      "Ġconsultative": 5962,
      "Ġobliging": 5963,
      "Ġterritory": 5964,
      "Ġreflected": 5965,
      "Ġsubstantive": 5966,
      "Ġsubstantiates": 5967,
      "Ġlowering": 5968,
      "Ġprotectionist": 5969,
      "Ġdoubtful": 5970,
      "Ġdoubtless": 5971,
      "Ġmagnificently": 5972,
      "speed": 5973,
      "speak": 5974,
      "specific": 5975,
      "Ġignorance": 5976,
      "Ġirresponsible": 5977,
      "Ġultimate": 5978,
      "Ġultral": 5979,
      "Ġultraperi": 5980,
      "Ġtested": 5981,
      "Ġaligned": 5982,
      "Ġwiden": 5983,
      "Ġwider": 5984,
      "Ġwidest": 5985,
      "Ġsatisfactorily": 5986,
      "Ġpresume": 5987,
      "Ġprestig": 5988,
      "Ġpreserving": 5989,
      "Ġpillory": 5990,
      "Ġcentre": 5991,
      "Ġcentres": 5992,
      "Ġcentury": 5993,
      "Ġinsensitive": 5994,
      "Ġinsurance": 5995,
      "Ġinsularity": 5996,
      "Ġbudget": 5997,
      "Ġforego": 5998,
      "Ġforefront": 5999,
      "Ġfounded": 6000,
      "Ġfoundation": 6001,
      "Ġreiterate": 6002,
      "Ġmotivated": 6003,
      "Ġmeteoric": 6004,
      "Ġmeticulous": 6005,
      "Ġmemory": 6006,
      "Ġmovement": 6007,
      "Ġdestructive": 6008,
      "Ġhinders": 6009,
      "Ġhindrance": 6010,
      "Ġhindering": 6011,
      "Ġprosperity": 6012,
      "Ġdeeply": 6013,
      "Ġdeepening": 6014,
      "Ġstraight": 6015,
      "Ġstraighten": 6016,
      "Ġstraitjac": 6017,
      "Ġstipulate": 6018,
      "Ġstipulates": 6019,
      "Ġstipulated": 6020,
      "Ġstrongly": 6021,
      "Ġstrongest": 6022,
      "Ġshifted": 6023,
      "Ġexploit": 6024,
      "Ġexploiting": 6025,
      "Ġexplosions": 6026,
      "Ġsolid": 6027,
      "Ġsolved": 6028,
      "Ġsolving": 6029,
      "Ġvisit": 6030,
      "Ġvisions": 6031,
      "Ġvisited": 6032,
      "Ġvolume": 6033,
      "Ġvolatile": 6034,
      "Ġvoluntary": 6035,
      "ĠFederalism": 6036,
      "Ġwillingness": 6037,
      "Ġenvisages": 6038,
      "Ġenabled": 6039,
      "Ġenactment": 6040,
      "Ġenjoyed": 6041,
      "Ġroute": 6042,
      "Ġroutes": 6043,
      "Ġroutine": 6044,
      "Ġ110": 6045,
      "Ġ164": 6046,
      "Ġ166": 6047,
      "Ġacknowledgement": 6048,
      "Ġunequivoc": 6049,
      "Ġunjustified": 6050,
      "ĠGuide": 6051,
      "ĠGuidance": 6052,
      "ĠGuarantee": 6053,
      "ĠGreek": 6054,
      "Ġgoals": 6055,
      "Ġreserves": 6056,
      "Ġreservation": 6057,
      "Ġreservations": 6058,
      "Ġquota": 6059,
      "Ġquoted": 6060,
      "Ġquotation": 6061,
      "Ġaccompany": 6062,
      "Ġaccomplished": 6063,
      "Ġaccompanied": 6064,
      "Ġaccessible": 6065,
      "Ġcommendable": 6066,
      "ĠBradbour": 6067,
      "ĠBrazil": 6068,
      "ĠBrandenbur": 6069,
      "Ġcharged": 6070,
      "Ġchairmen": 6071,
      "Ġmaterials": 6072,
      "Ġactively": 6073,
      "Ġmonitoring": 6074,
      "Ġlogic": 6075,
      "Ġlogical": 6076,
      "Ġlogically": 6077,
      "Ġapproximately": 6078,
      "Ġreluctant": 6079,
      "Ġcompliment": 6080,
      "Ġcompliments": 6081,
      "Ġcompliance": 6082,
      "Ġcomprehensible": 6083,
      "Ġvigorously": 6084,
      "Ġattaches": 6085,
      "Ġattempts": 6086,
      "Ġseeking": 6087,
      "ĠLiberals": 6088,
      "Ġdescript": 6089,
      "Ġdistortion": 6090,
      "Ġdistortions": 6091,
      "Ġclaims": 6092,
      "Ġarrangement": 6093,
      "Ġdetrimental": 6094,
      "Ġconstructively": 6095,
      "Ġbeneficiar": 6096,
      "Ġdefinition": 6097,
      "Ġdefinite": 6098,
      "Ġdefinitively": 6099,
      "Ġelsewhere": 6100,
      "2123": 6101,
      "2124": 6102,
      "2127": 6103,
      "Ġelectronically": 6104,
      "Ġmultiple": 6105,
      "Ġmultiannual": 6106,
      "Ġexceptionally": 6107,
      "Ġcontrols": 6108,
      "Ġguaranteeing": 6109,
      "Ġcatastrophe": 6110,
      "Ġcustomer": 6111,
      "Ġcertificate": 6112,
      "Ġinadequate": 6113,
      "Ġfifths": 6114,
      "Ġimmediately": 6115,
      "Ġunacceptably": 6116,
      "1995": 6117,
      "1997": 6118,
      "SEK": 6119,
      "eva": 6120,
      "iliar": 6121,
      "millennium": 6122,
      "Ġ422": 6123,
      "Ġ60": 6124,
      "Ġ743": 6125,
      "Ġversion": 6126,
      "Ġverification": 6127,
      "Ġtreason": 6128,
      "Ġtrends": 6129,
      "Ġtenets": 6130,
      "Ġtargets": 6131,
      "Ġtargeted": 6132,
      "Ġtempted": 6133,
      "Ġtemptation": 6134,
      "Ġthorough": 6135,
      "Ġthoroughly": 6136,
      "reaching": 6137,
      "attached": 6138,
      "Ġsentenced": 6139,
      "Ġsouthern": 6140,
      "Ġpurely": 6141,
      "Ġpackaging": 6142,
      "Ġpackages": 6143,
      "Ġtopical": 6144,
      "Ġcoup": 6145,
      "Ġcouple": 6146,
      "Ġinspire": 6147,
      "Ġinspired": 6148,
      "Ġbitter": 6149,
      "Ġbrake": 6150,
      "Ġbrainpower": 6151,
      "Ġboundless": 6152,
      "Ġbridge": 6153,
      "Ġbridges": 6154,
      "Ġfriend": 6155,
      "Ġfrightening": 6156,
      "Ġfirmly": 6157,
      "Ġreconcili": 6158,
      "Ġreconsider": 6159,
      "Ġrevitalise": 6160,
      "Ġrevitalising": 6161,
      "Ġmoor": 6162,
      "Ġmoves": 6163,
      "Ġmilitary": 6164,
      "Ġmilestone": 6165,
      "Ġmistaken": 6166,
      "Ġmistake": 6167,
      "Ġdenied": 6168,
      "Ġdenominator": 6169,
      "Ġdrove": 6170,
      "Ġdropping": 6171,
      "Ġdrill": 6172,
      "Ġdrivers": 6173,
      "Ġhistoric": 6174,
      "Ġhistorical": 6175,
      "Ġearned": 6176,
      "Ġdeadlines": 6177,
      "Ġdeadline": 6178,
      "Ġdeaths": 6179,
      "ĠPortugal": 6180,
      "ĠPortuguese": 6181,
      "Ġstrictly": 6182,
      "Ġconsolidation": 6183,
      "Ġconsolidate": 6184,
      "Ġpostponing": 6185,
      "ĠExemptions": 6186,
      "ĠExternal": 6187,
      "ĠAnnual": 6188,
      "ĠAngelilli": 6189,
      "Ġadequate": 6190,
      "Ġadequately": 6191,
      "Ġleave": 6192,
      "Ġleavers": 6193,
      "Ġallocation": 6194,
      "Ġallocations": 6195,
      "Ġratings": 6196,
      "Ġ1989": 6197,
      "Ġacquisitions": 6198,
      "Ġdiscover": 6199,
      "Ġdiscredited": 6200,
      "Ġdisbursed": 6201,
      "Ġdisbursement": 6202,
      "Ġdissatisfied": 6203,
      "Ġdissatisfaction": 6204,
      "Ġdisadvantage": 6205,
      "Ġdisadvantaged": 6206,
      "ĠGenuine": 6207,
      "ĠGeneva": 6208,
      "Ġworrying": 6209,
      "Ġmeantime": 6210,
      "Ġjurisdiction": 6211,
      "Ġjurisdictions": 6212,
      "Ġcofinanced": 6213,
      "Ġcofinancing": 6214,
      "Ġcoinciding": 6215,
      "Ġcoincidentally": 6216,
      "integrating": 6217,
      "Ġqualified": 6218,
      "Ġqualifying": 6219,
      "Ġquantities": 6220,
      "Ġquantitative": 6221,
      "ĠHealth": 6222,
      "ĠResumption": 6223,
      "ĠResearch": 6224,
      "Ġmarginalisation": 6225,
      "Ġmarginalised": 6226,
      "0004": 6227,
      "0073": 6228,
      "0078": 6229,
      "0083": 6230,
      "0087": 6231,
      "ĠBrussel": 6232,
      "ĠBrittany": 6233,
      "Ġpreparing": 6234,
      "Ġpreparation": 6235,
      "Ġpredictable": 6236,
      "Ġremoved": 6237,
      "Ġremoving": 6238,
      "Ġlosses": 6239,
      "Ġinterpretation": 6240,
      "Ġdramatic": 6241,
      "Ġdramatised": 6242,
      "Ġcompromise": 6243,
      "Ġcompromising": 6244,
      "Ġcompensate": 6245,
      "Ġcompensated": 6246,
      "Ġevolved": 6247,
      "Ġevolving": 6248,
      "Ġviolent": 6249,
      "Ġviolations": 6250,
      "Ġobstructing": 6251,
      "Ġobstacle": 6252,
      "Ġobviously": 6253,
      "ĠJustice": 6254,
      "Ġmeasured": 6255,
      "Ġminimis": 6256,
      "Ġminimal": 6257,
      "Ġsimpler": 6258,
      "Ġsimplistic": 6259,
      "Ġclimates": 6260,
      "Ġclimatic": 6261,
      "Ġargues": 6262,
      "Ġarguments": 6263,
      "Ġarmy": 6264,
      "Ġsucceeded": 6265,
      "Ġpleasure": 6266,
      "Ġpleasant": 6267,
      "Ġconstraints": 6268,
      "Ġadvocates": 6269,
      "Ġadvocating": 6270,
      "Ġinfluence": 6271,
      "Ġinfluential": 6272,
      "Ġcompletion": 6273,
      "Ġcompletely": 6274,
      "Ġsimplifying": 6275,
      "Ġeliminate": 6276,
      "Ġeliminating": 6277,
      "Ġexcluded": 6278,
      "Ġexcluding": 6279,
      "Ġmeaningful": 6280,
      "2107": 6281,
      "2108": 6282,
      "Ġschools": 6283,
      "Ġredistribute": 6284,
      "Ġredistribution": 6285,
      "Ġdemonstrates": 6286,
      "Ġdemonstrated": 6287,
      "Ġofficials": 6288,
      "Ġdependent": 6289,
      "Ġoriginally": 6290,
      "Ġoriginated": 6291,
      "Ġreinstated": 6292,
      "Ġreinstatement": 6293,
      "Ġreinforce": 6294,
      "Ġreinforces": 6295,
      "Ġgrandiose": 6296,
      "Ġexclusively": 6297,
      "Ġirreconcil": 6298,
      "Ġirreparably": 6299,
      "Ġsatisfying": 6300,
      "Ġcharacterised": 6301,
      "Ġcharacterisations": 6302,
      "Ġchairman": 6303,
      "Ġchairmanship": 6304,
      "Ġvigilant": 6305,
      "Ġvigilance": 6306,
      "Ġdescribe": 6307,
      "Ġdescribes": 6308,
      "Ġutilisation": 6309,
      "Ġutilising": 6310,
      "Ġtalking": 6311,
      "Ġpublishing": 6312,
      "Ġinadmissible": 6313,
      "Ġinadmissibility": 6314,
      "Ġinhabitants": 6315,
      "Ġfulfils": 6316,
      "Ġfunctioning": 6317,
      "Ġassociations": 6318,
      "Ġassociated": 6319,
      "Ġtelecommunication": 6320,
      "Ġtelecommunications": 6321,
      "0208": 6322,
      "344": 6323,
      "European": 6324,
      "Report": 6325,
      "SSAG": 6326,
      "Steel": 6327,
      "brium": 6328,
      "coup": 6329,
      "defined": 6330,
      "elected": 6331,
      "friendly": 6332,
      "gories": 6333,
      "hicles": 6334,
      "holm": 6335,
      "iencies": 6336,
      "iegel": 6337,
      "modernisation": 6338,
      "mpeted": 6339,
      "making": 6340,
      "ranean": 6341,
      "sounding": 6342,
      "simplified": 6343,
      "trained": 6344,
      "trumpeted": 6345,
      "value": 6346,
      "zontal": 6347,
      "¡lez": 6348,
      "Ġeroded": 6349,
      "Ġvehicles": 6350,
      "Ġideolog": 6351,
      "Ġidentify": 6352,
      "Ġ....": 6353,
      "ĠZimeray": 6354,
      "Ġupturn": 6355,
      "Ġtonight": 6356,
      "Ġtidy": 6357,
      "Ġtremendously": 6358,
      "Ġturned": 6359,
      "Ġtwenty": 6360,
      "Ġthrowing": 6361,
      "Ġaustere": 6362,
      "Ġaptitude": 6363,
      "Ġauditing": 6364,
      "Ġarticle": 6365,
      "Ġawarded": 6366,
      "Ġaugurs": 6367,
      "Ġafresh": 6368,
      "institutional": 6369,
      "Ġwitnessed": 6370,
      "Ġwatered": 6371,
      "Ġwaste": 6372,
      "Ġwarning": 6373,
      "Ġsorry": 6374,
      "Ġsqueezed": 6375,
      "Ġsorely": 6376,
      "Ġslice": 6377,
      "Ġspoke": 6378,
      "Ġsceptical": 6379,
      "Ġsnowballing": 6380,
      "Ġskills": 6381,
      "Ġpassionately": 6382,
      "Ġpushes": 6383,
      "Ġports": 6384,
      "Ġpraise": 6385,
      "Ġpetition": 6386,
      "Ġpivotal": 6387,
      "Ġpresidents": 6388,
      "Ġpaint": 6389,
      "Ġpapers": 6390,
      "Ġpeoples": 6391,
      "Ġpertaining": 6392,
      "Ġpulled": 6393,
      "Ġpeaceful": 6394,
      "Ġpuzzled": 6395,
      "Ġtourism": 6396,
      "Ġoffered": 6397,
      "Ġcategories": 6398,
      "Ġcivil": 6399,
      "Ġcentrally": 6400,
      "Ġcounter": 6401,
      "Ġinasmuch": 6402,
      "Ġinsofar": 6403,
      "Ġinconvenience": 6404,
      "Ġinactivity": 6405,
      "Ġinaugural": 6406,
      "Ġinherent": 6407,
      "Ġinappropri": 6408,
      "Ġinevitable": 6409,
      "Ġinnovative": 6410,
      "Ġinnocent": 6411,
      "Ġbomb": 6412,
      "Ġburden": 6413,
      "Ġbirth": 6414,
      "Ġbillion": 6415,
      "Ġbarely": 6416,
      "Ġborders": 6417,
      "Ġbiodiversity": 6418,
      "Ġfleet": 6419,
      "Ġfully": 6420,
      "Ġfestive": 6421,
      "Ġfruits": 6422,
      "Ġfamiliar": 6423,
      "Ġfracture": 6424,
      "Ġforthcoming": 6425,
      "Ġfreedom": 6426,
      "Ġfertile": 6427,
      "Ġfrequently": 6428,
      "Ġreimbursement": 6429,
      "Ġreliable": 6430,
      "Ġreforms": 6431,
      "Ġreassure": 6432,
      "Ġreversing": 6433,
      "Ġrevenue": 6434,
      "Ġresolve": 6435,
      "Ġreopen": 6436,
      "Ġmutual": 6437,
      "Ġmandate": 6438,
      "Ġmigration": 6439,
      "Ġmunicipalities": 6440,
      "Ġdilatory": 6441,
      "Ġdialogue": 6442,
      "Ġdilemma": 6443,
      "Ġdiminished": 6444,
      "Ġdiverted": 6445,
      "Ġdwellers": 6446,
      "Ġdedicating": 6447,
      "roots": 6448,
      "rolled": 6449,
      "Ġhidden": 6450,
      "Ġhours": 6451,
      "Ġhitherto": 6452,
      "Ġhorizontal": 6453,
      "Ġhypothesis": 6454,
      "Ġbelatedly": 6455,
      "Ġisolation": 6456,
      "Ġnuisance": 6457,
      "ĠnaÃ¯ve": 6458,
      "Ġeastward": 6459,
      "Ġeighteen": 6460,
      "Ġwhatever": 6461,
      "ĠCunha": 6462,
      "ĠCourt": 6463,
      "ĠCERN": 6464,
      "ĠChamber": 6465,
      "Ġlayers": 6466,
      "Ġliteracy": 6467,
      "Ġlargest": 6468,
      "Ġlengthy": 6469,
      "ĠTrade": 6470,
      "ĠToday": 6471,
      "ĠTampere": 6472,
      "ĠTuesday": 6473,
      "ĠTauern": 6474,
      "ĠTunnel": 6475,
      "ĠMessrs": 6476,
      "ĠMoreover": 6477,
      "ĠMadeira": 6478,
      "ĠMexico": 6479,
      "ĠMargarine": 6480,
      "ĠMEPs": 6481,
      "ĠMediterranean": 6482,
      "Ġgesture": 6483,
      "Ġprosecutor": 6484,
      "Ġproliferation": 6485,
      "Ġproducers": 6486,
      "Ġprolongs": 6487,
      "Ġprocurement": 6488,
      "resistance": 6489,
      "Ġastonished": 6490,
      "Ġdeliberations": 6491,
      "Ġdepopulation": 6492,
      "Ġdeficiencies": 6493,
      "Ġdeprived": 6494,
      "Ġdetermined": 6495,
      "Ġdelegating": 6496,
      "ĠPlooij": 6497,
      "ĠPaddington": 6498,
      "ĠPersonally": 6499,
      "ĠPREUSSAG": 6500,
      "ĠPrincipality": 6501,
      "ĠPuerta": 6502,
      "ĠPonnambalam": 6503,
      "Ġstrike": 6504,
      "Ġstifle": 6505,
      "Ġstaircases": 6506,
      "Ġstretched": 6507,
      "Ġstaunchly": 6508,
      "Ġstimulating": 6509,
      "Ġconvinced": 6510,
      "Ġpoorer": 6511,
      "Ġpopulations": 6512,
      "Ġpolycentric": 6513,
      "ĠEqually": 6514,
      "ĠEffective": 6515,
      "ĠEveryone": 6516,
      "ĠElisabeth": 6517,
      "ĠSurely": 6518,
      "ĠSummit": 6519,
      "ĠSegni": 6520,
      "ĠSpanish": 6521,
      "ĠSavary": 6522,
      "ĠSimpson": 6523,
      "Ġcomplementing": 6524,
      "Ġexodus": 6525,
      "Ġexposure": 6526,
      "Ġexacerbates": 6527,
      "Ġexcuse": 6528,
      "Ġsummarise": 6529,
      "Ġsupposedly": 6530,
      "Ġanchored": 6531,
      "ĠWishing": 6532,
      "ĠWrongly": 6533,
      "ĠWorkers": 6534,
      "ĠWynn": 6535,
      "Ġaltogether": 6536,
      "ĠAdoption": 6537,
      "Ġsovereignty": 6538,
      "Ġimpoverished": 6539,
      "Ġimpetus": 6540,
      "Ġimperative": 6541,
      "Ġimagine": 6542,
      "Ġimbalances": 6543,
      "Ġvacuum": 6544,
      "Ġvictims": 6545,
      "Ġvocational": 6546,
      "Ġventilators": 6547,
      "ĠFramework": 6548,
      "ĠFollowing": 6549,
      "Ġtailor": 6550,
      "Ġtackling": 6551,
      "Ġliberals": 6552,
      "Ġadjacent": 6553,
      "Ġadvertising": 6554,
      "Ġadjourned": 6555,
      "Ġenlighten": 6556,
      "Ġenormous": 6557,
      "consuming": 6558,
      "Ġrationalisation": 6559,
      "Ġrunning": 6560,
      "ĠStockholm": 6561,
      "ĠStrasbourg": 6562,
      "Ġdisgraceful": 6563,
      "Ġdisappearing": 6564,
      "Ġdissolved": 6565,
      "Ġdisregards": 6566,
      "Ġdiscontent": 6567,
      "Ġdisintegration": 6568,
      "Ġdisputing": 6569,
      "Ġdisciplined": 6570,
      "Ġunfortunate": 6571,
      "Ġuniversities": 6572,
      "Ġunavailable": 6573,
      "Ġunimpeded": 6574,
      "Ġuncertainty": 6575,
      "Ġuncontrolled": 6576,
      "Ġunbiased": 6577,
      "Ġunclear": 6578,
      "Ġunfavourable": 6579,
      "Ġunadulterated": 6580,
      "Ġunquestionably": 6581,
      "Ġunilaterally": 6582,
      "Ġunambiguous": 6583,
      "Ġaggravates": 6584,
      "Ġaggregated": 6585,
      "Ġintolerable": 6586,
      "Ġintensifying": 6587,
      "Ġintrinsically": 6588,
      "ĠGÃ¼tesiegel": 6589,
      "ĠGonzÃ¡lez": 6590,
      "Ġconcentration": 6591,
      "Ġconcrete": 6592,
      "Ġjuncture": 6593,
      "Ġsawmills": 6594,
      "Ġspeculative": 6595,
      "Ġcoasts": 6596,
      "Ġcoherence": 6597,
      "intentioned": 6598,
      "Ġapparently": 6599,
      "ĠHopefully": 6600,
      "Ġcommunautaire": 6601,
      "accession": 6602,
      "Ġseasonal": 6603,
      "Ġseparates": 6604,
      "Ġsecular": 6605,
      "Ġsecurity": 6606,
      "Ġcontracts": 6607,
      "ĠRobert": 6608,
      "ĠRibeiro": 6609,
      "ĠRedondo": 6610,
      "Ġabolition": 6611,
      "Ġabnormal": 6612,
      "Ġmargins": 6613,
      "Ġindependence": 6614,
      "Ġindispensable": 6615,
      "Ġexpeditiously": 6616,
      "ĠBudgets": 6617,
      "ĠBritish": 6618,
      "ĠBarents": 6619,
      "ĠBourlanges": 6620,
      "Ġoutcomes": 6621,
      "Ġchapter": 6622,
      "Ġchiefly": 6623,
      "Ġchildren": 6624,
      "Ġchapeau": 6625,
      "Ġchosen": 6626,
      "Ġemergence": 6627,
      "Ġpreaching": 6628,
      "Ġpredecessor": 6629,
      "Ġreminiscent": 6630,
      "Ġinteraction": 6631,
      "Ġinterregional": 6632,
      "Ġintersectoral": 6633,
      "Ġinterfaces": 6634,
      "Ġrelativises": 6635,
      "Ġkilos": 6636,
      "Ġimprisons": 6637,
      "Ġmanagers": 6638,
      "Ġdragged": 6639,
      "ĠDÃŃez": 6640,
      "Ġentrenchment": 6641,
      "Ġunderspends": 6642,
      "Ġpronounced": 6643,
      "Ġsubsequent": 6644,
      "Ġsubordinate": 6645,
      "agricultural": 6646,
      "Ġattribute": 6647,
      "Ġattracting": 6648,
      "ĠLondon": 6649,
      "ĠLuxembourg": 6650,
      "Ġassassinated": 6651,
      "Ġassimilated": 6652,
      "Ġlaughter": 6653,
      "Ġfoggy": 6654,
      "Ġforeseeable": 6655,
      "Ġhospitals": 6656,
      "Ġspheres": 6657,
      "Ġsplendid": 6658,
      "Ġcredibility": 6659,
      "Ġoverarching": 6660,
      "ĠNeedless": 6661,
      "Ġbehaviour": 6662,
      "ĠConcentrating": 6663,
      "ĠConsumers": 6664,
      "ĠConcerning": 6665,
      "ĠConservative": 6666,
      "ĠJimÃ©nez": 6667,
      "Ġextraordinarily": 6668,
      "Ġministers": 6669,
      "Ġendlessly": 6670,
      "Ġendeavouring": 6671,
      "Ġpercentage": 6672,
      "Ġdistinctions": 6673,
      "Ġsimultaneously": 6674,
      "Ġpersuades": 6675,
      "Ġclassification": 6676,
      "Ġequilibrium": 6677,
      "Ġartificial": 6678,
      "Ġavalanche": 6679,
      "Ġafternoon": 6680,
      "Ġdemocratically": 6681,
      "Ġdemographic": 6682,
      "Ġhandicapped": 6683,
      "retrograde": 6684,
      "Ġcornerstones": 6685,
      "Ġcorporations": 6686,
      "Ġtypologies": 6687,
      "Ġscrutiny": 6688,
      "Ġscenario": 6689,
      "ĠSeattle": 6690,
      "ĠSecretary": 6691,
      "ĠSeppÃ¤nen": 6692,
      "Ġflexibilisation": 6693,
      "Ġsyndrome": 6694,
      "Ġaffirming": 6695,
      "Ġrefocusing": 6696,
      "Ġrenovation": 6697,
      "Ġinfrastrucutres": 6698,
      "Ġscheduled": 6699,
      "Ġrestrictions": 6700,
      "ĠAlternatively": 6701,
      "Ġparallel": 6702,
      "Ġparadoxical": 6703,
      "Ġcriminal": 6704,
      "Ġshipbuilding": 6705,
      "expanding": 6706,
      "Ġmisapprehension": 6707,
      "Ġmisunderstandings": 6708,
      "Ġultraliberal": 6709,
      "Ġultraperipheral": 6710,
      "Ġprestigious": 6711,
      "Ġstraitjacket": 6712,
      "Ġunequivocally": 6713,
      "Ġaccompanying": 6714,
      "ĠBradbourn": 6715,
      "ĠBrandenburg": 6716,
      "Ġdescriptive": 6717,
      "Ġbeneficiaries": 6718,
      "Ġfrighteningly": 6719,
      "Ġreconciliation": 6720,
      "ĠBrussels": 6721,
      "Ġirreconcilable": 6722,
      "Ġideologue": 6723,
      "Ġinappropriately": 6724
    },
    "merges": [
      "Ġ t",
      "Ġt h",
      "Ġ a",
      "r e",
      "o n",
      "i n",
      "Ġth e",
      "e n",
      "i s",
      "Ġ o",
      "a t",
      "Ġ w",
      "e r",
      "Ġ s",
      "i on",
      "i t",
      "Ġ p",
      "e s",
      "o r",
      "Ġt o",
      "Ġo f",
      "Ġ c",
      "n d",
      "Ġ in",
      "Ġ b",
      "a l",
      "en t",
      "o u",
      "Ġ f",
      "e d",
      "a r",
      "Ġ re",
      "Ġ m",
      "a n",
      "Ġa nd",
      "o m",
      "i c",
      "Ġ d",
      "in g",
      "r o",
      "Ġ h",
      "v e",
      "l e",
      "Ġb e",
      "a s",
      "Ġ is",
      "Ġ n",
      "c t",
      "l y",
      "m ent",
      "Ġ I",
      "Ġ e",
      "i d",
      "Ġw h",
      "u s",
      "Ġ on",
      "Ġth at",
      "p e",
      "or t",
      "Ġ C",
      "u r",
      "Ġf or",
      "Ġ l",
      "at ion",
      "o t",
      "l l",
      "om m",
      "Ġw e",
      "p ort",
      "Ġ T",
      "Ġ M",
      "Ġ g",
      "Ġth is",
      "l d",
      "i m",
      "Ġp ro",
      "c e",
      "re s",
      "ĠT h",
      "Ġa s",
      "Ġd e",
      "u t",
      "Ġ P",
      "Ġs t",
      "k e",
      "ĠC omm",
      "Ġc on",
      "at e",
      "ou ld",
      "Ġa re",
      "Ġh a",
      "s e",
      "s ion",
      "Ġ it",
      "r a",
      "Ġp o",
      "u l",
      "Ġ E",
      "Ġre g",
      "ic h",
      "a y",
      "Ġwh ich",
      "v er",
      "is sion",
      "it h",
      "ĠComm ission",
      "Ġn ot",
      "e t",
      "i es",
      "Ġha ve",
      "c i",
      "s t",
      "Ġw ith",
      "c h",
      "i ve",
      "Ġ S",
      "o w",
      "t er",
      "Ġc om",
      "l o",
      "e ct",
      "ion s",
      "ĠM r",
      "u n",
      "Ġ y",
      "a d",
      "Ġs h",
      "Ġe x",
      "l i",
      "b le",
      "q u",
      "ĠTh e",
      "Ġs u",
      "es s",
      "i r",
      "u ro",
      "Ġa n",
      "r i",
      "e m",
      "us t",
      "uro pe",
      "ĠE urope",
      "i ll",
      "Ġb y",
      "Ġ W",
      "it y",
      "o re",
      "g h",
      "Ġa l",
      "l ic",
      "o d",
      "Ġw ould",
      "Ġn e",
      "i v",
      "Ġh as",
      "Ġ A",
      "ar t",
      "Ġs o",
      "Ġ im",
      "en d",
      "t h",
      "u nd",
      "id ent",
      "i f",
      "Ġ v",
      "Ġy ou",
      "e re",
      "s o",
      "u re",
      "e e",
      "b er",
      "res ident",
      "a in",
      "Ġ F",
      "es t",
      "an s",
      "p le",
      "Ġre port",
      "an t",
      "r u",
      "Ġw ill",
      "ĠP resident",
      "Ġt a",
      "ĠEurope an",
      "i l",
      "Ġa t",
      "Ġthe re",
      "it ion",
      "Ġl i",
      "Ġa d",
      "Ġa m",
      "Ġbe en",
      "9 9",
      "a m",
      "a ment",
      "Ġp art",
      "ar d",
      "ci al",
      "p o",
      "Ġ le",
      "Ġ en",
      "Ġo r",
      "ment s",
      "c on",
      "pe t",
      "ur al",
      "Ġsh ould",
      "Ġli ke",
      "ar li",
      "Ġal so",
      "Ġo ur",
      "Ġa ll",
      "n t",
      "p t",
      "p port",
      "Ġ r",
      "arli ament",
      "j ect",
      "ou s",
      "Ġ 1",
      "Ġd o",
      "f f",
      "Ġa c",
      "er s",
      "ĠS t",
      "p p",
      "r ans",
      "Ġd is",
      "i re",
      "u m",
      "Ġ us",
      "Ġcom pet",
      "Ġpo lic",
      "e l",
      "Ġ un",
      "Ġa g",
      "Ġa id",
      "a nd",
      "it t",
      "Ġin t",
      "al ly",
      "r ou",
      "at es",
      "ĠP arliament",
      "ĠW e",
      "ru ct",
      "Ġ G",
      "Ġm a",
      "ic ul",
      "ve lo",
      "Ġreg ions",
      "velo p",
      "Ġ -",
      "al l",
      "g e",
      "Ġm ore",
      "Ġcon c",
      "Ġ U",
      "Ġw or",
      "ou r",
      "an ce",
      "em ber",
      "Ġt rans",
      "Ġf a",
      "Ġm e",
      "Ġg o",
      "ver y",
      "gh t",
      "Ġb ut",
      "Ġre s",
      "con om",
      "ion al",
      "ĠU n",
      "Ġde velop",
      "Ġthe se",
      "Ġm ust",
      "g ra",
      "r om",
      "u e",
      "er i",
      "ar y",
      "b ject",
      "Ġ j",
      "er n",
      "Ġs a",
      "Ġs pe",
      "Ġc o",
      "Ġc an",
      "ou nt",
      "ĠTh is",
      "Ġpolic y",
      "a ble",
      "in t",
      "Ġ qu",
      "is t",
      "ĠUn ion",
      "Ġa pp",
      "Ġe conom",
      "p lo",
      "ĠM ember",
      "Ġam end",
      "Ġac c",
      "Ġ H",
      "Ġc omm",
      "Ġcompet ition",
      "m m",
      "s i",
      "Ġ ra",
      "Ġm y",
      "Ġthe ir",
      "it ies",
      "as t",
      "po s",
      "plo y",
      "re at",
      "Ġpro gra",
      "Ġst ate",
      "Ġprogra mm",
      "a us",
      "ĠI t",
      "Ġim port",
      "c ess",
      "p er",
      "Ġin c",
      "Ġpo s",
      "a c",
      "h er",
      "s id",
      "Ġt im",
      "Ġg u",
      "et y",
      "Ġpart icul",
      "rou p",
      "Ġwor k",
      "Ġdevelop ment",
      "Ġparticul ar",
      "e w",
      "Ġ very",
      "Ġw as",
      "Ġs e",
      "Ġf rom",
      "Ġon e",
      "ation s",
      "Ġcon t",
      "Ġ R",
      "Ġa b",
      "Ġp l",
      "Ġm ar",
      "itt ee",
      "d u",
      "Ġthe y",
      "Ġbe c",
      "ĠI n",
      "aus e",
      "d ay",
      "res ent",
      "Ġpo int",
      "Ġreg ional",
      "und s",
      "ploy ment",
      "Ġtim e",
      "0 0",
      "a re",
      "at ed",
      "Ġin d",
      "Ġe ff",
      "Ġde b",
      "iv es",
      "ruct ural",
      "Ġgu id",
      "u p",
      "Ġth an",
      "in es",
      "Ġre qu",
      "Ġex p",
      "Ġso cial",
      "a b",
      "e ar",
      "is h",
      "om e",
      "Ġbe t",
      "as e",
      "ot e",
      "ke t",
      "Ġne ed",
      "ĠSt ates",
      "Ġtrans port",
      "Ġgo od",
      "Ġsa f",
      "f ore",
      "Ġ B",
      "er m",
      "Ġis s",
      "Ġmar ket",
      "c is",
      "o l",
      "ou t",
      "Ġpro pos",
      "Ġreg ard",
      "Ġguid el",
      "Ġ ro",
      "Ġ up",
      "Ġo ut",
      "ent ion",
      "Ġon ly",
      "Ġit s",
      "Ġconc ern",
      "Ġguidel ines",
      "u d",
      "Ġ if",
      "in d",
      "Ġc h",
      "Ġm at",
      "Ġe m",
      "ĠCommission er",
      "ĠG roup",
      "Ġsaf ety",
      "Ġp re",
      "Ġbec ause",
      "e en",
      "Ġwh at",
      "h es",
      "w n",
      "w een",
      "Ġ O",
      "Ġp ri",
      "Ġwh o",
      "ir st",
      "ire ct",
      "Ġma ke",
      "Ġbet ween",
      "o st",
      "t ain",
      "Ġc ount",
      "Ġre m",
      "Ġne w",
      "iv en",
      "Ġeconom ic",
      "Ġdeb ate",
      "a k",
      "v ed",
      "Ġa ct",
      "Ġm on",
      "Ġl o",
      "Ġare as",
      "Ġimport ant",
      "Ġmat ter",
      "Ġcount r",
      "e ver",
      "v is",
      "Ġ 2",
      "Ġw ay",
      "Ġp eri",
      "or d",
      "Ġh ow",
      "Ġwh en",
      "Ġta k",
      "Ġta ke",
      "hes ion",
      "c es",
      "c us",
      "re e",
      "Ġo bject",
      "at ive",
      "an g",
      "Ġd irect",
      "Ġcon sid",
      "th er",
      "99 9",
      "Ġint o",
      "Ġapp ro",
      "si ble",
      "f or",
      "f ic",
      "f ere",
      "Ġp resent",
      "Ġwe re",
      "ul t",
      "un ity",
      "Ġj ust",
      "Ġparticular ly",
      "c ed",
      "e ve",
      "u res",
      "it e",
      "Ġin ter",
      "Ġre l",
      "Ġn o",
      "Ġwh ere",
      "ation al",
      "ĠMr s",
      "Ġiss ue",
      "a p",
      "e o",
      "e ur",
      "v ing",
      "Ġ k",
      "Ġt e",
      "on g",
      "is ation",
      "Ġf irst",
      "ic al",
      "res s",
      "Ġim p",
      "Ġle g",
      "Ġperi od",
      "p on",
      "Ġthe m",
      "Ġm an",
      "Ġd ra",
      "Ġas k",
      "Ġwith in",
      "Ġcom p",
      "ad e",
      "Ġex am",
      "Ġsu pport",
      "ĠF unds",
      "Ġfa ct",
      "Ġamend ments",
      "Ġpropos al",
      "c y",
      "u b",
      "on e",
      "Ġs ay",
      "Ġin v",
      "Ġn ow",
      "Ġsu ch",
      "Ġan y",
      "Ġen s",
      "Ġab out",
      "m s",
      "x t",
      "Ġ D",
      "Ġ ent",
      "Ġ und",
      "Ġs ect",
      "Ġbe ing",
      "Ġe v",
      "Ġv i",
      "ac k",
      "Ġpri or",
      "Ġcountr ies",
      "Ġconsid er",
      "e g",
      "r ate",
      "w ay",
      "en s",
      "er ous",
      "Ġp r",
      "Ġc le",
      "Ġbe li",
      "Ġg reat",
      "ce pt",
      "se l",
      "Ġreg ul",
      "Ġy ear",
      "Ġv ote",
      "eo ple",
      "d er",
      "e ly",
      "f ul",
      "i p",
      "l ud",
      "n ow",
      "u ation",
      "w o",
      "er tain",
      "Ġto day",
      "ĠS o",
      "Ġsh all",
      "Ġsu b",
      "Ġyou r",
      "Ġcle ar",
      "a g",
      "a ch",
      "o pt",
      "in k",
      "is e",
      "Ġo wn",
      "Ġo ther",
      "it i",
      "Ġp eople",
      "Ġre c",
      "Ġd ang",
      "ĠComm ittee",
      "et her",
      "Ġat t",
      "Ġthere fore",
      "Ġor der",
      "ĠSt ructural",
      "Ġres pon",
      "Ġinc re",
      "Ġgood s",
      "Ġsect or",
      "Ġdang erous",
      "en ce",
      "Ġo p",
      "Ġo pport",
      "Ġs it",
      "Ġs ee",
      "Ġs ome",
      "ou gh",
      "Ġm ade",
      "id e",
      "Ġwe ll",
      "ĠM ad",
      "ee l",
      "Ġad opt",
      "pport eur",
      "Ġdis cus",
      "Ġra pporteur",
      "Ġeff ect",
      "Ġrequ ire",
      "Ġem ployment",
      "Ġtak en",
      "ub lic",
      "Ġbeli eve",
      "ĠMad am",
      "a ge",
      "i ous",
      "Ġ L",
      "Ġt wo",
      "re n",
      "Ġo b",
      "er v",
      "Ġto o",
      "Ġn ational",
      "pe ct",
      "ci fic",
      "ĠW h",
      "ard s",
      "Ġr ural",
      "Ġobject ives",
      "Ġens ure",
      "Ġsit uation",
      "i al",
      "in ci",
      "at ing",
      "Ġc ertain",
      "Ġf ar",
      "ve l",
      "Ġpro v",
      "Ġas s",
      "ĠE U",
      "Ġag ain",
      "Ġj o",
      "Ġspe cific",
      "Ġcomm ittee",
      "Ġprogramm es",
      "fere n",
      "Ġimp ro",
      "k s",
      "m on",
      "o se",
      "r y",
      "in ce",
      "Ġthe n",
      "ou se",
      "Ġm ost",
      "Ġh i",
      "as ed",
      "Ġl a",
      "Ġde cis",
      "ĠThe re",
      "ple ment",
      "il ity",
      "Ġle vel",
      "ĠH ouse",
      "Ġprogramm e",
      "du ct",
      "ab l",
      "Ġund er",
      "Ġpr inci",
      "ĠSo cial",
      "f er",
      "l and",
      "Ġ ri",
      "Ġa ble",
      "re ad",
      "Ġf o",
      "Ġd if",
      "Ġh o",
      "Ġh is",
      "Ġha d",
      "ĠA s",
      "Ġim plement",
      "Ġad d",
      "am e",
      "icul t",
      "Ġqu est",
      "Ġpos sible",
      "for m",
      "Ġk now",
      "Ġinv ol",
      "1 999",
      "l us",
      "in e",
      "Ġs i",
      "Ġs p",
      "Ġs ince",
      "it ions",
      "Ġc re",
      "Ġc ase",
      "ed ter",
      "Ġm ention",
      "ro w",
      "ro edter",
      "as on",
      "Ġpro ble",
      "Ġst and",
      "Ġst ructural",
      "Ġst rate",
      "ul es",
      "ch roedter",
      "ĠS chroedter",
      "ri b",
      "Ġne cess",
      "Ġ1 99",
      "Ġspe ak",
      "Ġacc ount",
      "Ġro ad",
      "Ġconcern ed",
      "Ġvi ew",
      "Ġjo b",
      "Ġhi gh",
      "Ġri ght",
      "Ġstrate g",
      "e p",
      "r it",
      "Ġ ur",
      "Ġ ke",
      "Ġth ose",
      "Ġo ver",
      "Ġp ublic",
      "Ġf in",
      "ic i",
      "Ġn um",
      "ĠC o",
      "ll ow",
      "Ġg en",
      "Ġg iven",
      "im um",
      "Ġst ill",
      "ĠComm unity",
      "Ġun em",
      "Ġag ree",
      "Ġdirect ive",
      "g n",
      "i ght",
      "p are",
      "u ch",
      "v es",
      "Ġ N",
      "in ess",
      "it ive",
      "Ġc our",
      "Ġin st",
      "Ġb us",
      "al f",
      "al ity",
      "ent ly",
      "Ġf und",
      "Ġre p",
      "Ġre ason",
      "Ġh e",
      "Ġh ar",
      "Ġbe h",
      "ĠC on",
      "et h",
      "if ic",
      "Ġr ules",
      "Ġdo es",
      "Ġus e",
      "Ġco hesion",
      "Ġamend ment",
      "Ġhow ever",
      "Ġla w",
      "Ġnum ber",
      "Ġunem ployment",
      "Ġbus iness",
      "' s",
      "i e",
      "l ed",
      "Ġ J",
      "Ġt erm",
      "Ġth ink",
      "Ġw ish",
      "Ġs ame",
      "ent r",
      "Ġm uch",
      "Ġh er",
      "ur ing",
      "Ġde c",
      "po se",
      "Ġme as",
      "Ġinc lud",
      "ĠR eg",
      "Ġthan k",
      "Ġrequ est",
      "Ġro le",
      "way s",
      "Ġdiscus s",
      "feren ce",
      "rib ut",
      "a ct",
      "a il",
      "l ut",
      "p ri",
      "u al",
      "is l",
      "is ed",
      "Ġw ant",
      "Ġp ur",
      "Ġc ap",
      "ou n",
      "Ġf unds",
      "Ġe very",
      "Ġl ast",
      "ot h",
      "Ġex t",
      "est abl",
      "Ġac cept",
      "Ġpolic ies",
      "Ġconc lus",
      "Ġacc ord",
      "Ġimport ance",
      "Ġind ust",
      "Ġ2 00",
      "Ġleg isl",
      "Ġexam ple",
      "Ġev en",
      "Ġadopt ed",
      "Ġprinci ple",
      "Ġnecess ary",
      "ĠCo hesion",
      "establ ish",
      "a ce",
      "a ir",
      "e f",
      "e ed",
      "j or",
      "n ot",
      "o k",
      "r icult",
      "t ing",
      "u es",
      "Ġ (",
      "Ġ K",
      "re d",
      "in ation",
      "Ġb oth",
      "Ġf ut",
      "Ġm in",
      "an n",
      "Ġon ce",
      "Ġfor m",
      "Ġcon d",
      "ci l",
      "Ġal read",
      "ĠF und",
      "Ġle t",
      "Ġma jor",
      "Ġres ult",
      "Ġqu ite",
      "ĠO bject",
      "iven ess",
      "Ġman y",
      "Ġquest ion",
      "Ġcour se",
      "Ġhar mon",
      "Ġmeas ures",
      "Ġfut ure",
      "Ġalread y",
      "t ic",
      "Ġ end",
      "Ġ establish",
      "is ing",
      "at or",
      "Ġs om",
      "Ġp er",
      "Ġc all",
      "Ġb as",
      "Ġd es",
      "Ġh ere",
      "as ter",
      "Ġwh ether",
      "ĠC oun",
      "Ġl ack",
      "ĠT reat",
      "Ġpro ced",
      "ĠP o",
      "ver n",
      "od e",
      "con d",
      "Ġdis t",
      "ĠH ow",
      "Ġpre v",
      "Ġappro pri",
      "Ġrequire ments",
      "Ġproble ms",
      "Ġgen er",
      "ĠCoun cil",
      "a u",
      "b ility",
      "c ing",
      "f ter",
      "h e",
      "i le",
      "n e",
      "p l",
      "Ġ 8",
      "Ġt ra",
      "at er",
      "Ġs im",
      "Ġs et",
      "it al",
      "Ġp ers",
      "Ġc l",
      "Ġc ode",
      "Ġf e",
      "Ġm ay",
      "Ġm od",
      "an k",
      "ic e",
      "Ġd one",
      "Ġwh y",
      "Ġl ong",
      "Ġde al",
      "Ġst eel",
      "Ġcon s",
      "ate ly",
      "Ġare a",
      "ow n",
      "Ġv ar",
      "ĠF in",
      "Ġad vis",
      "Ġ1 999",
      "our ces",
      "Ġtrans pare",
      "Ġcan not",
      "Ġeconom y",
      "Ġcomm on",
      "Ġpos ition",
      "Ġcont in",
      "sel ves",
      "Ġregul ations",
      "Ġopport unity",
      "Ġrep resent",
      "Ġbeh alf",
      "entr al",
      "ĠObject ive",
      "g o",
      "h ip",
      "p h",
      "p ar",
      "r at",
      "r ing",
      "r tic",
      "t en",
      "w ards",
      "z ens",
      "Ġa ch",
      "er g",
      "it ut",
      "Ġc rit",
      "ar ge",
      "Ġre fer",
      "Ġh el",
      "Ġe qu",
      "Ġl ess",
      "Ġg ive",
      "Ġpro cess",
      "ut h",
      "Ġit em",
      "ra ct",
      "Ġcom ments",
      "Ġfa il",
      "Ġpl ace",
      "du ce",
      "Ġeff ort",
      "Ġexp ress",
      "ĠB ut",
      "Ġlo c",
      "Ġlo ok",
      "Ġcomp an",
      "iti zens",
      "ĠSocial ist",
      "Ġjob s",
      "Ġfin an",
      "ĠHow ever",
      "Ġhel p",
      "C O",
      "c k",
      "n cy",
      "o ch",
      "o po",
      "Ġth rou",
      "Ġa r",
      "Ġa v",
      "Ġa fter",
      "Ġa uth",
      "is es",
      "Ġs ust",
      "Ġs eri",
      "Ġs erv",
      "Ġp ut",
      "Ġto wards",
      "Ġof ten",
      "Ġc ur",
      "Ġc lo",
      "Ġc itizens",
      "Ġin iti",
      "Ġf ind",
      "ing s",
      "le x",
      "ĠI f",
      "Ġpro ject",
      "Ġpro duct",
      "Ġde m",
      "Ġha nd",
      "Ġcom e",
      "Ġsu c",
      "Ġsu bject",
      "Ġne xt",
      "ĠA rtic",
      "end a",
      "Ġta x",
      "Ġad m",
      "cial ly",
      "ous ly",
      "Ġcompet it",
      "Ġfa v",
      "Ġra il",
      "Ġse cond",
      "Ġrem ote",
      "Ġmon opo",
      "Ġinter n",
      "Ġent er",
      "Ġprior ity",
      "sel f",
      "Ġatt ention",
      "Ġprov id",
      "Ġho pe",
      "Ġstrateg ic",
      "ĠK och",
      "Ġcond itions",
      "ĠTreat y",
      "Ġvar ious",
      "ĠFin ally",
      "Ġthrou gh",
      "Ġauth or",
      "Ġsust ain",
      "0 1",
      "e res",
      "g in",
      "l ies",
      "m en",
      "s ed",
      "u ally",
      "Ġ es",
      "re t",
      "is m",
      "es e",
      "Ġc or",
      "ent ial",
      "Ġf ew",
      "Ġre ad",
      "ic t",
      "ic es",
      "le ct",
      "Ġbe fore",
      "as s",
      "as es",
      "ĠT rans",
      "ĠTh at",
      "ĠTh ese",
      "ver s",
      "et ary",
      "lo g",
      "iv ing",
      "Ġv ot",
      "ere d",
      "so lut",
      "Ġr at",
      "Ġag ricult",
      "Ġag enda",
      "itt ing",
      "Ġint ro",
      "Ġint eres",
      "ruct ure",
      "Ġme ans",
      "per ation",
      "Ġwork ing",
      "Ġse em",
      "are d",
      "Ġind ic",
      "Ġexp l",
      "Ġregard ing",
      "Ġdra f",
      "ĠD e",
      "Ġconsider ation",
      "Ġyear s",
      "Ġop en",
      "Ġopport un",
      "Ġimpro ve",
      "Ġfo llow",
      "Ġmention ed",
      "Ġterm s",
      "ĠReg ional",
      "Ġaccord ance",
      "Ġindust ry",
      "Ġ200 0",
      "Ġappropri ate",
      "Ġtranspare ncy",
      "Ġcompetit iveness",
      "Ġsustain able",
      "e qu",
      "g es",
      "i ld",
      "l it",
      "o c",
      "s u",
      "w ard",
      "Ġ ess",
      "Ġt y",
      "in ist",
      "Ġs c",
      "Ġs m",
      "Ġs itting",
      "Ġp le",
      "Ġp ract",
      "es sion",
      "Ġc ould",
      "Ġc ases",
      "Ġin form",
      "al y",
      "ent le",
      "Ġf ur",
      "Ġf ive",
      "Ġf eel",
      "Ġf lex",
      "ar ch",
      "ar ity",
      "as ing",
      "Ġis land",
      "Ġn at",
      "Ġe ach",
      "pe cially",
      "ort h",
      "ĠM on",
      "Ġg et",
      "Ġg roup",
      "Ġg row",
      "Ġg entle",
      "Ġpro per",
      "Ġde t",
      "Ġcon st",
      "Ġpo w",
      "Ġpo lit",
      "ith er",
      "ch n",
      "ĠS e",
      "ad ies",
      "ir on",
      "lic y",
      "ĠA ff",
      "Ġad v",
      "ff ici",
      "Ġdis aster",
      "Ġus ed",
      "Ġres ources",
      "00 6",
      "erm an",
      "Ġiss ues",
      "Ġpre cis",
      "Ġact ion",
      "Ġmon th",
      "Ġte chn",
      "Ġdra w",
      "Ġprior ities",
      "Ġgreat er",
      "Ġincre ase",
      "Ġsector s",
      "Ġop in",
      "Ġob s",
      "Ġcertain ly",
      "Ġprov ide",
      "Ġimplement ation",
      "Ġ199 8",
      "Ġfund ament",
      "ĠCon ference",
      "eth ing",
      "air s",
      "Ġsom ething",
      "Ġproced ure",
      "ĠPo licy",
      "Ġpers on",
      "Ġloc al",
      "Ġcompan ies",
      "Ġdem and",
      "Ġsuc cess",
      "Ġadm inist",
      "Ġfav our",
      "Ġes pecially",
      "Ġrat her",
      "Ġopportun ities",
      "Ġflex i",
      "Ġgentle men",
      "ĠAff airs",
      "Ġadminist r",
      "b led",
      "c c",
      "e ch",
      "g g",
      "g ether",
      "i g",
      "i ed",
      "i um",
      "m or",
      "o log",
      "u ild",
      "v ate",
      "v iron",
      "Ġ Y",
      "Ġ ide",
      "Ġth us",
      "Ġth ough",
      "Ġw ater",
      "Ġs y",
      "it ed",
      "Ġp rom",
      "Ġto mor",
      "Ġof f",
      "Ġc ar",
      "Ġin f",
      "Ġb en",
      "Ġb ack",
      "al es",
      "ou nd",
      "Ġm ain",
      "an ge",
      "Ġd id",
      "Ġd ay",
      "Ġd own",
      "Ġh ear",
      "Ġl adies",
      "ĠM y",
      "ĠM in",
      "Ġg r",
      "ut es",
      "ĠP art",
      "Ġcon g",
      "se qu",
      "ĠE v",
      "ĠE conom",
      "ver al",
      "ect ion",
      "un ic",
      "ĠW ales",
      "Ġal ways",
      "Ġso ci",
      "th ing",
      "ĠF or",
      "Ġreport s",
      "Ġta bled",
      "Ġle ast",
      "Ġen for",
      "Ġour selves",
      "Ġdis par",
      "Ġres pect",
      "Ġco o",
      "ĠMember s",
      "Ġse veral",
      "Ġcont ribut",
      "Ġpl ann",
      "Ġind eed",
      "Ġpropos ed",
      "Ġup on",
      "Ġconcern ing",
      "Ġpri vate",
      "Ġact iv",
      "Ġpresent ed",
      "Ġte xt",
      "Ġsub sid",
      "Ġclear ly",
      "Ġass ess",
      "Ġass ist",
      "Ġdecis ion",
      "Ġdecis ions",
      "Ġsi x",
      "Ġsi gn",
      "Ġcre ation",
      "Ġstand ards",
      "Ġke y",
      "Ġinst itut",
      "Ġharmon isation",
      "Ġprev ious",
      "Ġmod ern",
      "Ġadvis ers",
      "Ġmonopo lies",
      "Ġintern al",
      "ĠTrans port",
      "Ġpolit ical",
      "Ġprecis ely",
      "Ġfundament al",
      "viron ment",
      "Ġtomor row",
      "ĠPart y",
      "ĠEconom ic",
      "2 006",
      "E N",
      "c om",
      "f ort",
      "i ly",
      "t y",
      "t ed",
      "Ġ V",
      "Ġa p",
      "re ed",
      "in ing",
      "en cy",
      "Ġo pt",
      "at ives",
      "or y",
      "Ġto gether",
      "Ġb al",
      "Ġre se",
      "Ġm ight",
      "Ġd uring",
      "ĠI nd",
      "Ġl ink",
      "ll ent",
      "Ġwe e",
      "im ate",
      "Ġpro pose",
      "ce ed",
      "ce llent",
      "Ġde f",
      "Ġde l",
      "ĠP ro",
      "Ġst ates",
      "Ġit self",
      "ul ate",
      "Ġcom ple",
      "Ġy es",
      "Ġy et",
      "Ġsh e",
      "Ġex ist",
      "Ġex cellent",
      "li ght",
      "ĠThe y",
      "Ġan aly",
      "iv id",
      "ĠA m",
      "if y",
      "Ġv al",
      "Ġen vironment",
      "ers hip",
      "itt ed",
      "ĠG erman",
      "all en",
      "Ġme et",
      "Ġgo vern",
      "Ġsa id",
      "Ġco ord",
      "Ġqu ality",
      "Ġprogramm ing",
      "Ġcont ain",
      "ĠR e",
      "Ġpoint ed",
      "Ġeff ici",
      "ab ly",
      "Ġneed s",
      "Ġregard s",
      "Ġch allen",
      "Ġwho le",
      "vis ion",
      "fere nt",
      "Ġk ind",
      "Ġte ll",
      "Ġperiod ic",
      "eg r",
      "Ġrespon sible",
      "Ġincre asing",
      "Ġob li",
      "Ġspecific ally",
      "duct ion",
      "Ġdif ferent",
      "Ġadd ition",
      "Ġinvol ve",
      "Ġcre ate",
      "Ġinclud ing",
      "Ġdiscuss ing",
      "Ġcap ital",
      "Ġconclus ion",
      "Ġconclus ions",
      "Ġbas is",
      "Ġgener al",
      "pl es",
      "Ġtra ining",
      "Ġsim p",
      "Ġcontin ue",
      "erg y",
      "Ġeffort s",
      "ĠSocialist s",
      "Ġseri ous",
      "Ġserv ices",
      "ĠArtic le",
      "Ġauthor ities",
      "Ġsm all",
      "Ġfur ther",
      "Ġmonth s",
      "Ġopin ion",
      "ĠMin utes",
      "Ġgr ant",
      "Ġcong rat",
      "Ġsoci ety",
      "Ġdispar ities",
      "Ġcoo peration",
      "fort un",
      "Ġrese arch",
      "Ġcoord ination",
      "c ome",
      "e b",
      "e xt",
      "g ed",
      "g et",
      "g th",
      "h ere",
      "i vers",
      "n er",
      "n ess",
      "p r",
      "r ast",
      "t s",
      "u c",
      "v i",
      "Ġ 9",
      "Ġ ed",
      "Ġt er",
      "Ġa im",
      "Ġa ff",
      "re nt",
      "at h",
      "Ġp arliament",
      "Ġp ast",
      "Ġb ro",
      "Ġb ri",
      "Ġb ring",
      "Ġb uild",
      "al th",
      "ou ra",
      "Ġf ie",
      "ar ily",
      "Ġre f",
      "Ġre n",
      "Ġre al",
      "Ġre duction",
      "Ġm ind",
      "an ces",
      "ic ally",
      "Ġe l",
      "Ġe ither",
      "ĠC EN",
      "ur s",
      "Ġfor ce",
      "Ġfor ward",
      "Ġst art",
      "Ġcon f",
      "Ġha pp",
      "ul ation",
      "st and",
      "Ġcom es",
      "Ġex c",
      "Ġsu per",
      "Ġsu ffici",
      "Ġsu gg",
      "em pt",
      "ĠA nd",
      "Ġpart n",
      "Ġr is",
      "rou nd",
      "Ġma k",
      "Ġconc lud",
      "Ġwor d",
      "Ġme an",
      "Ġspe ech",
      "Ġco st",
      "Ġeconom ies",
      "Ġpos itive",
      "Ġab solut",
      "Ġpl ay",
      "Ġpoint s",
      "Ġind ivid",
      "Ġexp eri",
      "ĠO n",
      "ĠO ur",
      "Ġrem ain",
      "Ġact ually",
      "Ġcountr y",
      "Ġobject ive",
      "Ġappro ved",
      "Ġinter v",
      "Ġleg al",
      "Ġev ent",
      "Ġregul ation",
      "Ġsub st",
      "Ġrespon si",
      "Ġincre ased",
      "Ġdiscus sion",
      "Ġeffect ive",
      "Ġagain st",
      "Ġlevel s",
      "Ġfo cus",
      "Ġinvol ved",
      "Ġlegisl ative",
      "Ġmin imum",
      "ator s",
      "Ġcur rent",
      "Ġenter pr",
      "Ġprovid ed",
      "01 0",
      "Ġess ential",
      "Ġinform ation",
      "Ġnat ural",
      "Ġdet ail",
      "Ġide a",
      "Ġinf rast",
      "Ġenfor ce",
      "Ġplann ing",
      "Ġsubsid i",
      "Ġsix th",
      "Ġbal ance",
      "Ġdel ay",
      "Ġcongrat ulate",
      "fortun ately",
      "Ġbri ef",
      "Ġfie ld",
      "Ġsugg est",
      "Ġenterpr ises",
      ") ]",
      "2 1",
      "E C",
      "a per",
      "b an",
      "c u",
      "d i",
      "e y",
      "i eve",
      "l le",
      "l ess",
      "l arge",
      "o g",
      "o ve",
      "p ren",
      "r ong",
      "s ession",
      "v ant",
      "Ġ [",
      "Ġth ree",
      "re m",
      "re pren",
      "in ed",
      "en ing",
      "en ary",
      "Ġo per",
      "Ġo cc",
      "Ġw om",
      "Ġs ch",
      "it s",
      "Ġto t",
      "Ġb o",
      "Ġb ure",
      "ent ions",
      "ou b",
      "Ġf our",
      "ar n",
      "Ġre d",
      "Ġre st",
      "Ġre form",
      "om pet",
      "Ġd ue",
      "Ġbe ar",
      "Ġe lect",
      "ĠC ompet",
      "Ġl ow",
      "Ġl arge",
      "ot her",
      "Ġwe ak",
      "ĠT o",
      "ĠT our",
      "Ġpro t",
      "Ġpro ceed",
      "ĠTh ank",
      "ĠTh urs",
      "Ġde mon",
      "Ġst ren",
      "Ġpo or",
      "ter n",
      "ter day",
      "Ġcom ment",
      "Ġsh ort",
      "Ġsh ow",
      "Ġex pect",
      "Ġan other",
      "Ġne g",
      "ĠA t",
      "ĠA ll",
      "th ough",
      "ĠF irst",
      "ĠF eb",
      "ru ary",
      "ĠPresident s",
      "Ġli ght",
      "Ġle ad",
      "Ġen ough",
      "Ġen large",
      "Ġdo cu",
      "Ġint egr",
      "Ġgo ing",
      "Ġspe cial",
      "Ġco lle",
      "Ġapp lic",
      "Ġcomm unic",
      "Ġstate ment",
      "Ġse en",
      "Ġpl enary",
      "Ġbec ome",
      "ab ility",
      "Ġbet ter",
      "ĠB y",
      "Ġmarket s",
      "Ġrem ind",
      "Ġmatter s",
      "Ġrel ative",
      "Ġleg it",
      "Ġexam ination",
      "Ġproposal s",
      "Ġinv est",
      "Ġent repren",
      "Ġsub m",
      "Ġimpro ved",
      "Ġho ld",
      "Ġroad s",
      "Ġhigh light",
      "Ġur g",
      "Ġur ban",
      "Ġagree ments",
      "Ġdec l",
      "Ġext ent",
      "Ġlegisl ation",
      "Ġmajor ity",
      "au c",
      "Ġfe llow",
      "Ġach ie",
      "Ġach ieve",
      "Ġproject s",
      "Ġexpl an",
      "Ġple ased",
      "Ġisland s",
      "ĠMon etary",
      "Ġgroup s",
      "Ġpow er",
      "Ġflexi bility",
      "ĠY ou",
      "Ġben ef",
      "Ġmodern isation",
      "Ġap pe",
      "Ġopt imum",
      "Ġyes terday",
      "Ġchallen ges",
      "Ġsimp ly",
      "Ġgrant ed",
      "Ġed uc",
      "Ġparliament ary",
      "Ġren ew",
      "Ġpartn ership",
      "Ġindivid ual",
      "Ġsubsidi arity",
      "Ġwom en",
      "Ġbure auc",
      "ĠCompet ition",
      "ĠTour ism",
      "ĠThurs day",
      "Ġdemon st",
      "Ġstren gth",
      "ĠFeb ruary",
      "Ġenlarge ment",
      "Ġentrepren eur",
      "D P",
      "b al",
      "c ut",
      "d ing",
      "f icult",
      "i ations",
      "l ow",
      "m ber",
      "n g",
      "o id",
      "p or",
      "p ite",
      "p ulation",
      "r id",
      "s p",
      "t il",
      "u ary",
      "x imum",
      "Ġ \"",
      "Ġt ru",
      "Ġt reat",
      "Ġth ing",
      "re ct",
      "en se",
      "is ter",
      "Ġo th",
      "Ġp erm",
      "or s",
      "or ks",
      "Ġto ol",
      "Ġof fic",
      "Ġc reat",
      "Ġc ause",
      "Ġc entral",
      "Ġin land",
      "Ġin equ",
      "Ġb od",
      "ou ght",
      "ar ant",
      "Ġre t",
      "Ġre ject",
      "Ġre ally",
      "Ġm ult",
      "an im",
      "an uary",
      "Ġd ivers",
      "Ġh um",
      "Ġn orth",
      "Ġl at",
      "Ġl if",
      "Ġl iving",
      "omm end",
      "Ġpro vis",
      "Ġas pect",
      "Ġde g",
      "Ġde p",
      "Ġha ving",
      "Ġreg ret",
      "st em",
      "Ġwith out",
      "ter m",
      "ect ed",
      "un n",
      "Ġex cept",
      "ust ri",
      "ĠA l",
      "ĠA ustri",
      "Ġso lut",
      "th erm",
      "Ġam ong",
      "Ġen ergy",
      "Ġall ow",
      "Ġ1 5",
      "ĠSt ate",
      "ire d",
      "Ġcompet itive",
      "el s",
      "Ġun ne",
      "Ġun til",
      "Ġun anim",
      "Ġag reed",
      "itt le",
      "Ġint end",
      "ĠG o",
      "ĠG DP",
      "Ġma ximum",
      "velop ment",
      "Ġfa ce",
      "gra ph",
      "Ġapp ly",
      "Ġacc ident",
      "Ġra ise",
      "pos ed",
      "Ġcont ent",
      "Ġcont ro",
      "Ġcont ext",
      "Ġpl ans",
      "du ced",
      "Ġneed ed",
      "Ġtransport ed",
      "ĠB ere",
      "Ġch ang",
      "Ġch ange",
      "Ġem ploy",
      "Ġem ph",
      "Ġmon ey",
      "Ġtak es",
      "Ġdirect ion",
      "Ġfirst ly",
      "Ġman ner",
      "Ġsupport ed",
      "ens ive",
      "ful ly",
      "ag ed",
      "ag ue",
      "Ġrec ommend",
      "Ġrespon d",
      "Ġeffect s",
      "ĠL et",
      "ren ch",
      "ĠWh y",
      "ĠWh at",
      "feren ces",
      "ĠThere fore",
      "Ġdif ficult",
      "Ġdif ferences",
      "Ġimplement ing",
      "Ġadd ress",
      "Ġquest ions",
      "Ġsp ir",
      "Ġproble m",
      "Ġspeak ing",
      "Ġspeak ers",
      "Ġstrateg y",
      "Ġke ep",
      "ific ation",
      "ĠJ anuary",
      "Ġdec entral",
      "Ġdiscuss ed",
      "ail able",
      "Ġpur pose",
      "Ġpur su",
      "Ġevery thing",
      "Ġext rem",
      "vern ment",
      "Ġdist ribut",
      "Ġcrit ic",
      "Ġrefer red",
      "Ġfinan cial",
      "CO S",
      "Ġav oid",
      "Ġclo se",
      "Ġcor rect",
      "Ġread y",
      "Ġagricult ure",
      "Ġagricult ural",
      "Ġintro duce",
      "Ġdraf t",
      "Ġgrow th",
      "Ġtechn olog",
      "Ġobs erv",
      "Ġsy stem",
      "sequ ently",
      "ĠEv ans",
      "Ġsign ific",
      "Ġinstitut ions",
      "ĠInd eed",
      "Ġwee k",
      "ĠPro di",
      "ĠGerman y",
      "Ġgovern ments",
      "Ġinvolve ment",
      "Ġbro ad",
      "Ġexperi ence",
      "Ġinterv ention",
      "Ġinfrast ructure",
      "Ġenforce ment",
      "Ġbrief ly",
      "Ġbo ost",
      "ĠFirst ly",
      "Ġcommunic ation",
      "Ġdecl ared",
      "Ġoth ers",
      "Ġlif e",
      "Ġprovis ions",
      "therm ore",
      "Ġunne cess",
      "Ġemph as",
      "Ġextrem ely",
      "P E",
      "a pt",
      "b il",
      "c oura",
      "d e",
      "f y",
      "f ect",
      "g an",
      "i ally",
      "k now",
      "l es",
      "m ew",
      "n es",
      "n ual",
      "p an",
      "p her",
      "r on",
      "r ict",
      "s s",
      "s w",
      "s is",
      "t e",
      "t i",
      "u ll",
      "v en",
      "w orks",
      "y ear",
      "z ed",
      "Ġ 5",
      "Ġth ings",
      "Ġth ought",
      "Ġa w",
      "re h",
      "on ck",
      "at a",
      "at is",
      "er t",
      "er ic",
      "er ve",
      "er cis",
      "er ved",
      "Ġs ing",
      "it er",
      "it ing",
      "it ment",
      "Ġp h",
      "Ġp ar",
      "Ġp ress",
      "Ġp ass",
      "or k",
      "or m",
      "Ġc r",
      "Ġc aus",
      "Ġc are",
      "Ġf all",
      "ed nes",
      "Ġre le",
      "Ġre ce",
      "Ġre ach",
      "Ġre ference",
      "Ġre vi",
      "Ġm ed",
      "Ġm ess",
      "Ġm ill",
      "Ġm ember",
      "Ġm eth",
      "Ġd ate",
      "Ġd am",
      "Ġd ata",
      "Ġh im",
      "Ġh ard",
      "Ġh alf",
      "Ġbe gin",
      "as h",
      "as i",
      "Ġn on",
      "Ġe ver",
      "id ence",
      "Ġwh ile",
      "ur n",
      "Ġl im",
      "Ġl ine",
      "Ġl ittle",
      "ot iations",
      "Ġwe l",
      "Ġg round",
      "Ġpro b",
      "res sion",
      "ĠP aper",
      "ĠP PE",
      "Ġst age",
      "Ġst ep",
      "Ġst ructure",
      "Ġcon n",
      "Ġcon ver",
      "ra cy",
      "ra mew",
      "Ġpo pulation",
      "ul f",
      "ver ty",
      "Ġnot e",
      "Ġcom b",
      "un ct",
      "Ġsh ip",
      "Ġex ercis",
      "li ed",
      "Ġsu pp",
      "ir d",
      "Ġan sw",
      "ĠW og",
      "ĠW ednes",
      "Ġal one",
      "Ġal though",
      "Ġne ver",
      "ĠA g",
      "if ied",
      "Ġv on",
      "Ġyou ng",
      "ber al",
      "ĠF rench",
      "Ġad apt",
      "Ġen able",
      "Ġen coura",
      "Ġor gan",
      "Ġr ich",
      "Ġdo ing",
      "Ġus ing",
      "el ess",
      "Ġun fortunately",
      "ruct ive",
      "Ġwor ld",
      "eri a",
      "Ġapp lied",
      "Ġcomm itment",
      "pos es",
      "Ġpos itions",
      "ac ed",
      "Ġgu arant",
      "du cing",
      "Ġdeb ated",
      "cis ion",
      "Ġconcern s",
      "tain ing",
      "Ġrem ember",
      "Ġway s",
      "Ġtak ing",
      "Ġdirect ives",
      "Ġappro ach",
      "Ġpresent ation",
      "Ġrel ation",
      "Ġrel ated",
      "Ġthem selves",
      "Ġask ed",
      "Ġsay ing",
      "Ġconsider able",
      "Ġrec o",
      "Ġrespon se",
      "Ġadopt ing",
      "Ġeffect iveness",
      "ren cy",
      "ĠWh en",
      "ĠWh ite",
      "Ġimpro ving",
      "Ġunder stand",
      "Ġprinci ples",
      "Ġinvol ving",
      "Ġsp ent",
      "Ġhigh ly",
      "Ġur ge",
      "Ġgen u",
      "Ġfund ing",
      "Ġreason s",
      "Ġreason able",
      "Ġbusiness es",
      "ĠJ onck",
      "Ġinclud e",
      "Ġpur poses",
      "Ġaccept ed",
      "Ġharmon ising",
      "Ġestablish ing",
      "Ġestablish ment",
      "ator y",
      "Ġper fect",
      "Ġdes pite",
      "Ġprev ent",
      "Ġgener ally",
      "he er",
      "Ġlong er",
      "Ġcons um",
      "Ġcons ist",
      "Ġcontin u",
      "Ġrepresent atives",
      "Ġcrit eria",
      "Ġequ al",
      "Ġfail ure",
      "Ġexpress ed",
      "CO M",
      "Ġav ailable",
      "Ġcur rency",
      "Ġclo sed",
      "Ġiniti ative",
      "Ġvot es",
      "Ġvot ed",
      "Ġinteres t",
      "Ġseem s",
      "Ġexpl ain",
      "ĠDe velopment",
      "Ġty pe",
      "Ġpract ical",
      "Ġdisaster s",
      "Ġtechn ical",
      "Ġadministr ation",
      "Ġwater ways",
      "Ġprom ot",
      "Ġcar ry",
      "Ġactiv ity",
      "Ġactiv ities",
      "Ġexist ing",
      "ĠAm eric",
      "Ġmeet ing",
      "Ġaff ected",
      "Ġsuper vis",
      "Ġconclud e",
      "Ġword s",
      "Ġabsolut ely",
      "Ġresponsi bility",
      "Ġocc as",
      "Ġneg otiations",
      "Ġdocu ment",
      "Ġintegr ated",
      "Ġlegit imate",
      "Ġsubm itted",
      "Ġbureauc racy",
      "Ġstrength en",
      "Ġdivers ity",
      "Ġhum an",
      "Ġnorth ern",
      "ĠAustri a",
      "Ġunanim ously",
      "Ġintend ed",
      "ĠBere nd",
      "Ġchang es",
      "Ġspir it",
      "pher al",
      "Ġsing le",
      "Ġrele vant",
      "Ġrevi ew",
      "Ġmeth od",
      "Ġsupp ly",
      "ĠWog au",
      "ĠWednes day",
      "ĠJonck heer",
      "2 0",
      "D E",
      "I I",
      "P resident",
      "Q u",
      "T he",
      "a v",
      "a ci",
      "b ar",
      "b ur",
      "c um",
      "d ra",
      "d ep",
      "d ict",
      "e x",
      "e cut",
      "f act",
      "g ress",
      "g ence",
      "h ing",
      "h ap",
      "i res",
      "i beral",
      "k ed",
      "k ay",
      "l a",
      "m ed",
      "m ployment",
      "n ium",
      "o pe",
      "o res",
      "o ver",
      "p es",
      "p id",
      "r ance",
      "t o",
      "u g",
      "u is",
      "u ght",
      "¤ n",
      "³ n",
      "Ã ¤n",
      "Ã ³n",
      "Ġ 3",
      "Ġ z",
      "Ġ Qu",
      "Ġt em",
      "Ġt unn",
      "Ġa ver",
      "Ġa ir",
      "re es",
      "re ci",
      "en sion",
      "en ces",
      "en nium",
      "Ġo ri",
      "at ic",
      "at us",
      "at ure",
      "at ures",
      "Ġw orth",
      "Ġs ources",
      "Ġs ense",
      "Ġp ay",
      "Ġp ath",
      "or ms",
      "or por",
      "Ġof fer",
      "Ġc at",
      "Ġc ir",
      "Ġb an",
      "Ġb ad",
      "Ġb est",
      "Ġb rou",
      "Ġb ase",
      "Ġb ased",
      "al ities",
      "al aci",
      "Ġf ig",
      "Ġf ull",
      "Ġf ramew",
      "ar Ã³n",
      "Ġre in",
      "Ġre pe",
      "Ġre duce",
      "Ġre solut",
      "Ġm is",
      "Ġm id",
      "an ced",
      "ic ip",
      "Ġd read",
      "Ġd oub",
      "Ġn et",
      "Ġn am",
      "Ġe ar",
      "Ġe uro",
      "Ġon go",
      "ĠC res",
      "ur thermore",
      "Ġfor get",
      "Ġl ate",
      "Ġl ive",
      "Ġl ist",
      "Ġwe alth",
      "ĠM ost",
      "Ġg ra",
      "Ġg lo",
      "Ġg iving",
      "im in",
      "Ġpro f",
      "Ġpro duce",
      "Ġpro gress",
      "ce mber",
      "res pon",
      "ut e",
      "ĠP ublic",
      "ĠP alaci",
      "Ġst ated",
      "Ġst ud",
      "Ġst ress",
      "Ġst atus",
      "Ġst orms",
      "ra int",
      "Ġpo verty",
      "ĠE C",
      "ĠE aster",
      "ĠE mployment",
      "Ġreg ister",
      "Ġnot hing",
      "st ances",
      "Ġwith dra",
      "ĠS ri",
      "Ġsh own",
      "Ġex ecut",
      "qu is",
      "ir m",
      "Ġan nual",
      "ri al",
      "em es",
      "ĠW ith",
      "iv ed",
      "iv ity",
      "Ġso on",
      "end ing",
      "Ġv ast",
      "so l",
      "ĠF urthermore",
      "Ġam ount",
      "Ġpart icip",
      "Ġle arn",
      "Ġor al",
      "Ġ1 2",
      "Ġ1 8",
      "Ġun able",
      "ruct ures",
      "ruct uring",
      "Ġma gn",
      "Ġtrans it",
      "ĠUn ited",
      "Ġsa ve",
      "Ġco ld",
      "Ġqu ar",
      "Ġapp reci",
      "si zed",
      "Ġra ised",
      "Ġra pid",
      "ast ro",
      "Ġinc orpor",
      "Ġpos si",
      "ĠR ap",
      "Ġpl aced",
      "ĠIn tern",
      "Ġdeb ating",
      "ish ed",
      "ĠB arÃ³n",
      "Ġch ann",
      "Ġem bar",
      "Ġpre pare",
      "irect ive",
      "ak en",
      "Ġperi pheral",
      "Ġrel ates",
      "Ġrel ations",
      "Ġrel ating",
      "Ġte le",
      "Ġdra wn",
      "Ġsupport ing",
      "Ġfact s",
      "Ġany thing",
      "Ġens uring",
      "ĠD irective",
      "ag ing",
      "Ġrec ent",
      "Ġrec ord",
      "Ġrec ently",
      "Ġrequire d",
      "ĠL ank",
      "Ġdecis ive",
      "Ġunder t",
      "Ġstand ard",
      "Ġnecess arily",
      "Ġ199 7",
      "Ġfin al",
      "Ġagree ment",
      "ĠN o",
      "Ġinst ru",
      "Ġbeh ind",
      "ĠCon sequently",
      "led ge",
      "Ġwish es",
      "Ġinclud ed",
      "Ġrequest ed",
      "Ġcap ac",
      "Ġaccord ing",
      "Ġindust rial",
      "ricult ure",
      "Ġmin ute",
      "Ġlet ter",
      "Ġresult s",
      "Ġend or",
      "Ġestablish ed",
      "Ġcall ed",
      "Ġbas ic",
      "Ġproced ures",
      "Ġcons ult",
      "Ġless on",
      "Ġfinan cing",
      "Ġseri ously",
      "Ġiniti atives",
      "Ġproduct ion",
      "ĠArtic les",
      "Ġrail ways",
      "gin al",
      "Ġread ing",
      "Ġinteres ting",
      "Ġindic ators",
      "Ġdraf ting",
      "ĠDe cember",
      "Ġopen ness",
      "Ġty pes",
      "Ġpract ice",
      "Ġgrow ing",
      "Ġproper ly",
      "Ġpow ers",
      "Ġadv ance",
      "Ġobs erved",
      "Ġperson al",
      "Ġadministr ative",
      "Ġprom ote",
      "ĠEv en",
      "Ġassist ance",
      "ĠV ice",
      "Ġanaly sis",
      "Ġval ue",
      "Ġenvironment al",
      "Ġcontain s",
      "ĠRe port",
      "ĠRe form",
      "Ġeffici ent",
      "Ġobli g",
      "Ġobli ged",
      "Ġaddition al",
      "Ġ9 4",
      "Ġter rit",
      "Ġref lect",
      "Ġconf idence",
      "Ġexc lus",
      "Ġsuffici ent",
      "Ġsuffici ently",
      "Ġris k",
      "Ġris ks",
      "Ġmak es",
      "Ġmak ing",
      "Ġcost s",
      "Ġsubst ant",
      "Ġdetail s",
      "Ġfield s",
      ")] .",
      "Ġsch emes",
      "Ġrest ructuring",
      "Ġbear ing",
      "Ġlow er",
      "Ġprot ection",
      "Ġapplic ation",
      "Ġachie ving",
      "Ġexplan ation",
      "Ġbenef it",
      "Ġeduc ation",
      "Ġdemonst rate",
      "Ġentrepreneur s",
      "Ġtreat ment",
      "Ġlat est",
      "Ġaspect s",
      "Ġdeg ree",
      "ĠGo vernment",
      "Ġaccident s",
      "Ġdecentral ised",
      "Ġdistribut ion",
      "Ġcorrect ly",
      "Ġsignific ant",
      "Ġunnecess ary",
      "bil ities",
      "Ġaw are",
      "Ġreach ed",
      "Ġmed ium",
      "Ġmess age",
      "Ġconn ection",
      "Ġconver gence",
      "ĠAg riculture",
      "Ġencoura ge",
      "Ġreco gn",
      "cum stances",
      "dep th",
      "hap s",
      "Ġaver age",
      "Ġcir cumstances",
      "Ġbrou ght",
      "Ġrepe at",
      "Ġdoub t",
      "Ġnam ely",
      "Ġongo ing",
      "ĠCres po",
      "Ġglo bal",
      "ĠPalaci o",
      "ĠEaster n",
      "Ġwithdra wn",
      "Ġmagn ific",
      "Ġincorpor ate",
      "ĠRap kay",
      "ĠIntern et",
      "Ġembar go",
      ". .",
      "4 0",
      "A G",
      "S C",
      "a pe",
      "a im",
      "a est",
      "a pp",
      "a ving",
      "a graph",
      "b o",
      "b y",
      "b ly",
      "b our",
      "d am",
      "e es",
      "e fic",
      "e ck",
      "h at",
      "h ould",
      "i a",
      "j o",
      "j ust",
      "k a",
      "l ong",
      "n ed",
      "n ergy",
      "o p",
      "p ple",
      "r ies",
      "r ange",
      "s pe",
      "s ch",
      "s per",
      "t es",
      "u ct",
      "u ly",
      "w ing",
      "x im",
      "y n",
      "y ed",
      "z id",
      "º C",
      "Â ºC",
      "Ġ i",
      "Ġ ir",
      "Ġ ru",
      "Ġ ult",
      "Ġt est",
      "Ġth ous",
      "Ġth ird",
      "Ġa li",
      "Ġa way",
      "re g",
      "re ly",
      "on d",
      "on es",
      "in s",
      "en ber",
      "is ations",
      "is ms",
      "Ġo peration",
      "Ġo ught",
      "at zid",
      "Ġw id",
      "Ġw rong",
      "er y",
      "er al",
      "er dam",
      "Ġs il",
      "Ġs low",
      "Ġs atis",
      "it a",
      "it or",
      "it ant",
      "it ud",
      "Ġp ot",
      "Ġp res",
      "Ġp ill",
      "or i",
      "or ial",
      "Ġto wn",
      "Ġc ent",
      "Ġc ust",
      "Ġc ru",
      "Ġc ult",
      "Ġc ert",
      "Ġin s",
      "Ġin ade",
      "Ġin su",
      "Ġb ud",
      "ent ially",
      "ou th",
      "Ġf lo",
      "Ġf ore",
      "Ġf if",
      "Ġf ire",
      "Ġf ound",
      "Ġf ash",
      "ed eral",
      "ar s",
      "Ġre vision",
      "Ġre iter",
      "Ġm om",
      "Ġm ot",
      "Ġm et",
      "Ġm em",
      "Ġm ass",
      "Ġm ove",
      "om es",
      "ic k",
      "Ġd est",
      "ro ss",
      "Ġh ind",
      "ve y",
      "le g",
      "le ase",
      "Ġbe low",
      "ct or",
      "Ġe arli",
      "Ġe asi",
      "us ed",
      "ĠC entral",
      "Ġl ives",
      "Ġl ab",
      "Ġl ater",
      "ĠM ay",
      "Ġg ives",
      "im e",
      "im p",
      "Ġpro duced",
      "Ġpro sper",
      "Ġde ep",
      "ut ch",
      "ĠP lease",
      "Ġst ra",
      "Ġst ip",
      "Ġst ring",
      "Ġst rong",
      "Ġst ructures",
      "Ġcon sequ",
      "se ctor",
      "ĠE ri",
      "ay s",
      "et ter",
      "st entions",
      "st erdam",
      "ĠS ome",
      "ĠS ub",
      "ĠS hould",
      "ter s",
      "Ġcom ing",
      "ad ly",
      "Ġsh if",
      "Ġsh are",
      "Ġex plo",
      "Ġan ne",
      "ri ment",
      "ri ble",
      "Ġal ong",
      "lic it",
      "lic ated",
      "ĠA cc",
      "art ments",
      "Ġso l",
      "Ġso le",
      "Ġim med",
      "if orm",
      "Ġv is",
      "Ġv ol",
      "ĠF rance",
      "ĠF ederal",
      "ant ly",
      "Ġwill ing",
      "Ġta pe",
      "ition al",
      "Ġad here",
      "Ġpart s",
      "ard ing",
      "Ġen vis",
      "Ġen abl",
      "Ġen act",
      "Ġen jo",
      "pt ember",
      "Ġr ate",
      "Ġr out",
      "Ġr ise",
      "Ġ1 1",
      "Ġ1 6",
      "ff ic",
      "Ġac know",
      "um e",
      "Ġun ac",
      "Ġun equ",
      "Ġun just",
      "Ġun iform",
      "Ġag o",
      "and s",
      "ĠG u",
      "ĠG ree",
      "velop ed",
      "all ing",
      "Ġwor st",
      "Ġgo al",
      "Ġres erv",
      "ĠUn fortunately",
      "Ġdevelop ed",
      "Ġdevelop ments",
      "eri al",
      "Ġj ud",
      "Ġsa ving",
      "Ġqu ot",
      "Ġqu ick",
      "ist ic",
      "Ġamend ed",
      "Ġacc om",
      "Ġacc ess",
      "ĠH ere",
      "ĠH Ã¤n",
      "ĠH atzid",
      "Ġcomm end",
      "si a",
      "Ġra ising",
      "Ġmy self",
      "per atures",
      "ac y",
      "sid e",
      "sid ies",
      "Ġtim es",
      "Ġwork ers",
      "ew hat",
      "Ġse a",
      "ĠR ural",
      "Ġab stentions",
      "Ġpl an",
      "Ġguid ance",
      "Ġthan ks",
      "Ġexp licit",
      "ĠB ra",
      "erm ost",
      "Ġout come",
      "Ġout side",
      "Ġout ermost",
      "Ġch ar",
      "Ġch ance",
      "Ġch air",
      "Ġch eck",
      "Ġmat erial",
      "ĠGroup s",
      "ĠO ne",
      "Ġwho se",
      "tain ed",
      "Ġnew s",
      "ak is",
      "Ġact ive",
      "Ġact ual",
      "Ġmon ies",
      "Ġmon etary",
      "Ġmon itor",
      "Ġlo g",
      "Ġ2 0",
      "Ġ2 5",
      "ord ing",
      "Ġdirect ly",
      "Ġconsid ers",
      "Ġconsid ered",
      "Ġappro ving",
      "Ġappro xim",
      "Ġrel uct",
      "Ġimp act",
      "Ġimp ression",
      "Ġask ing",
      "Ġcomp ly",
      "Ġcomp li",
      "Ġcomp reh",
      "Ġcomp licated",
      "Ġexam ine",
      "Ġexam ples",
      "ĠD uis",
      "ĠD utch",
      "Ġent ire",
      "Ġent ail",
      "Ġund oub",
      "Ġvi g",
      "Ġconsider ing",
      "Ġconsider ably",
      "ens itive",
      "Ġregul atory",
      "ag es",
      "ag ues",
      "Ġrec all",
      "Ġatt ach",
      "Ġatt empt",
      "Ġsee k",
      "Ġsome one",
      "ĠL iberal",
      "pect ive",
      "ĠWh ile",
      "Ġcertain ty",
      "Ġfar m",
      "ĠEU R",
      "Ġjo int",
      "Ġla id",
      "fer red",
      "Ġimplement ed",
      "Ġadd itions",
      "Ġknow ledge",
      "Ġstand s",
      "Ġhigh er",
      "Ġright ly",
      "Ġstrateg ies",
      "Ġke pt",
      "Ġover all",
      "Ġover come",
      "ĠCo x",
      "ight en",
      "Ġcour ts",
      "Ġhe ad",
      "Ġhe alth",
      "eth eless",
      "ie ce",
      "ĠJ uly",
      "Ġthink ing",
      "Ġwish ed",
      "ĠReg ions",
      "ĠReg arding",
      "Ġthank ing",
      "Ġcap ita",
      "Ġlegisl ature",
      "Ġsom ewhat",
      "Ġper haps",
      "Ġbas ically",
      "Ġdes c",
      "Ġdes ired",
      "ĠTreat ies",
      "ĠPo etter",
      "cond ly",
      "Ġdist ort",
      "Ġ8 8",
      "Ġtra ffic",
      "Ġsim ple",
      "Ġset ting",
      "Ġpers pective",
      "Ġcl arity",
      "Ġcl imate",
      "Ġcl aim",
      "Ġcode cision",
      "Ġmod est",
      "Ġadvis ors",
      "Ġtranspare nt",
      "Ġfail ed",
      "Ġcompan y",
      "Ġar ms",
      "Ġar range",
      "Ġserv ice",
      "Ġtax ation",
      "Ġthrough out",
      "Ġcor respon",
      "Ġintro duced",
[...]
