{
  "version": "1.0",
  "truncation": null,
  "padding": null,
  "added_tokens": [
    {
      "id": 0,
      "content": "<s>",
      "single_word": false,
      "lstrip": false,
      "rstrip": false,
      "normalized": false,
      "special": true
    },
    {
      "id": 1,
      "content": "</s>",
      "single_word": false,
      "lstrip": false,
      "rstrip": false,
      "normalized": false,
      "special": true
    },
    {
      "id": 2,
      "content": "<blank>",
      "single_word": false,
      "lstrip": false,
      "rstrip": false,
      "normalized": false,
      "special": true
    },
    {
      "id": 3,
      "content": "<unk>",
      "single_word": false,
      "lstrip": false,
      "rstrip": false,
      "normalized": false,
      "special": true
    },
    {
      "id": 4,
      "content": "</w>",
      "single_word": false,
      "lstrip": false,
      "rstrip": false,
      "normalized": false,
      "special": true
    }
  ],
  "normalizer": null,
  "pre_tokenizer": {
    "type": "ByteLevel",
    "add_prefix_space": true,
    "trim_offsets": true,
    "use_regex": true
  },
  "post_processor": {
    "type": "ByteLevel",
    "add_prefix_space": true,
    "trim_offsets": true,
    "use_regex": true
  },
  "decoder": {
    "type": "ByteLevel",
    "add_prefix_space": true,
    "trim_offsets": true,
    "use_regex": true
  },
  "model": {
    "type": "BPE",
    "dropout": null,
    "unk_token": "<unk>",
    "continuing_subword_prefix": null,
    "end_of_word_suffix": null,
    "fuse_unk": false,
    "byte_fallback": false,
    "ignore_merges": false,
    "vocab": {
      "<s>": 0,
      "</s>": 1,
      "<blank>": 2,
      "<unk>": 3,
      "</w>": 4,
      "!": 5,
      "\"": 6,
      "%": 7,
      "(": 8,
      ")": 9,
      ",": 10,
      "-": 11,
      ".": 12,
      "/": 13,
      "0": 14,
      "1": 15,
      "2": 16,
      "3": 17,
      "4": 18,
      "5": 19,
      "6": 20,
      "7": 21,
      "8": 22,
      "9": 23,
      ":": 24,
      ";": 25,
      "?": 26,
      "A": 27,
      "B": 28,
      "C": 29,
      "D": 30,
      "E": 31,
      "F": 32,
      "G": 33,
      "H": 34,
      "I": 35,
      "J": 36,
      "K": 37,
      "L": 38,
      "M": 39,
      "N": 40,
      "O": 41,
      "P": 42,
      "Q": 43,
      "R": 44,
      "S": 45,
      "T": 46,
      "U": 47,
      "V": 48,
      "W": 49,
      "X": 50,
      "Z": 51,
      "a": 52,
      "b": 53,
      "c": 54,
      "d": 55,
      "e": 56,
      "f": 57,
      "g": 58,
      "h": 59,
      "i": 60,
      "j": 61,
      "k": 62,
      "l": 63,
      "m": 64,
      "n": 65,
      "o": 66,
      "p": 67,
      "q": 68,
      "r": 69,
      "s": 70,
      "t": 71,
      "u": 72,
      "v": 73,
      "w": 74,
      "x": 75,
      "y": 76,
      "z": 77,
      "¡": 78,
      "¤": 79,
      "©": 80,
      "³": 81,
      "¶": 82,
      "º": 83,
      "¼": 84,
      "Â": 85,
      "Ã": 86,
      "Ġ": 87,
      "Ħ": 88,
      "ĸ": 89,
      "ľ": 90,
      "Ł": 91,
      "Ń": 92,
      "en": 93,
      "er": 94,
      "ch": 95,
      "Ġd": 96,
      "ei": 97,
      "un": 98,
      "ie": 99,
      "ich": 100,
      "st": 101,
      "Ġdie": 102,
      "in": 103,
      "on": 104,
      "Ġw": 105,
      "ung": 106,
      "Ġa": 107,
      "ge": 108,
      "Ã¤": 109,
      "Ġder": 110,
      "sch": 111,
      "Ã¼": 112,
      "Ġun": 113,
      "ein": 114,
      "Ġs": 115,
      "es": 116,
      "ti": 117,
      "Ġda": 118,
      "Ġund": 119,
      "or": 120,
      "an": 121,
      "Ġz": 122,
      "Ġv": 123,
      "ÃŁ": 124,
      "te": 125,
      "Ġm": 126,
      "ten": 127,
      "Ġb": 128,
      "Ġein": 129,
      "ur": 130,
      "ĠA": 131,
      "ll": 132,
      "ĠS": 133,
      "ĠB": 134,
      "gen": 135,
      "ra": 136,
      "Ġn": 137,
      "hr": 138,
      "lich": 139,
      "den": 140,
      "ir": 141,
      "Ġau": 142,
      "Ġi": 143,
      "eit": 144,
      "der": 145,
      "ĠE": 146,
      "mm": 147,
      "ĠP": 148,
      "ar": 149,
      "al": 150,
      "Ġin": 151,
      "ss": 152,
      "it": 153,
      "icht": 154,
      "ĠK": 155,
      "Ġf": 156,
      "ĠD": 157,
      "Ġh": 158,
      "Ġzu": 159,
      "ion": 160,
      "em": 161,
      "et": 162,
      "Ġden": 163,
      "Ã¼r": 164,
      "Ã¶": 165,
      "ĠW": 166,
      "ĠR": 167,
      "ĠKo": 168,
      "Ġge": 169,
      "at": 170,
      "Ġwir": 171,
      "ĠM": 172,
      "ĠF": 173,
      "ĠV": 174,
      "men": 175,
      "Ġk": 176,
      "ĠI": 177,
      "ĠH": 178,
      "eg": 179,
      "ber": 180,
      "de": 181,
      "Ġdies": 182,
      "ter": 183,
      "ĠPr": 184,
      "ĠdaÃŁ": 185,
      "ĠfÃ¼r": 186,
      "Ġauf": 187,
      "la": 188,
      "us": 189,
      "iss": 190,
      "ier": 191,
      "Ġvon": 192,
      "Ġg": 193,
      "isch": 194,
      "ĠG": 195,
      "kt": 196,
      "ach": 197,
      "Ġso": 198,
      "Ġer": 199,
      "Ġist": 200,
      "ĠU": 201,
      "ben": 202,
      "ungen": 203,
      "um": 204,
      "eh": 205,
      "sp": 206,
      "ĠZ": 207,
      "Ġnicht": 208,
      "ĠKomm": 209,
      "fen": 210,
      "Ġich": 211,
      "Ġan": 212,
      "be": 213,
      "ĠKommiss": 214,
      "ck": 215,
      "Ġver": 216,
      "ft": 217,
      "eich": 218,
      "ĠVer": 219,
      "ehr": 220,
      "ig": 221,
      "Ġdes": 222,
      "ĠL": 223,
      "Ġbe": 224,
      "ĠBer": 225,
      "ol": 226,
      "Ġdas": 227,
      "re": 228,
      "op": 229,
      "Ġwer": 230,
      "tion": 231,
      "Ã¤n": 232,
      "ĠHer": 233,
      "ĠUn": 234,
      "Ġim": 235,
      "el": 236,
      "Ġl": 237,
      "tig": 238,
      "ĠKommission": 239,
      "scha": 240,
      "ĠSt": 241,
      "nen": 242,
      "ischen": 243,
      "ĠHerr": 244,
      "Ġauch": 245,
      "Ġwerden": 246,
      "Ġst": 247,
      "Ġeine": 248,
      "lichen": 249,
      "as": 250,
      "Ġes": 251,
      "egion": 252,
      "tw": 253,
      "ut": 254,
      "iel": 255,
      "urop": 256,
      "Ġvor": 257,
      "si": 258,
      "ĠDie": 259,
      "etz": 260,
      "ĠFra": 261,
      "Ã¼ber": 262,
      "ĠT": 263,
      "uÃŁ": 264,
      "Ġuns": 265,
      "wer": 266,
      "is": 267,
      "ind": 268,
      "ĠBe": 269,
      "och": 270,
      "ĠAn": 271,
      "il": 272,
      "ien": 273,
      "ĠBericht": 274,
      "iti": 275,
      "ungs": 276,
      "schaft": 277,
      "and": 278,
      "Ġmit": 279,
      "mmen": 280,
      "Ġbei": 281,
      "ĠIn": 282,
      "ru": 283,
      "ĠPro": 284,
      "zu": 285,
      "lle": 286,
      "ah": 287,
      "lie": 288,
      "ĠÃ¼ber": 289,
      "ssen": 290,
      "Ġsich": 291,
      "ĠAr": 292,
      "ls": 293,
      "ĠAus": 294,
      "ĠWir": 295,
      "end": 296,
      "Ġdem": 297,
      "hal": 298,
      "ro": 299,
      "Ġo": 300,
      "ment": 301,
      "ell": 302,
      "ĠN": 303,
      "ĠEn": 304,
      "Ġwie": 305,
      "Ã¤si": 306,
      "Ġsind": 307,
      "ĠmÃ¶": 308,
      "ĠIch": 309,
      "Ã¤siden": 310,
      "ĠEurop": 311,
      "ĠEr": 312,
      "Ġals": 313,
      "Ã¤t": 314,
      "Ġaus": 315,
      "ent": 316,
      "ĠPrÃ¤siden": 317,
      "oliti": 318,
      "cht": 319,
      "Ġzur": 320,
      "99": 321,
      "ahr": 322,
      "ĠPar": 323,
      "ick": 324,
      "Ġ-": 325,
      "Ġum": 326,
      "Ġj": 327,
      "ĠRegion": 328,
      "zi": 329,
      "beit": 330,
      "heit": 331,
      "chte": 332,
      "Ġha": 333,
      "Ġwird": 334,
      "ĠMit": 335,
      "Ġhat": 336,
      "wei": 337,
      "ett": 338,
      "eu": 339,
      "erst": 340,
      "ĠSch": 341,
      "bewer": 342,
      "dern": 343,
      "lament": 344,
      "keit": 345,
      "lung": 346,
      "olitik": 347,
      "au": 348,
      "ffen": 349,
      "Ã¼n": 350,
      "ettbewer": 351,
      "ettbewerb": 352,
      "ger": 353,
      "ri": 354,
      "ĠPrÃ¤sident": 355,
      "ĠParlament": 356,
      "ĠBei": 357,
      "Ġnach": 358,
      "lin": 359,
      "tschaft": 360,
      "enn": 361,
      "liche": 362,
      "Ġihr": 363,
      "twick": 364,
      "gt": 365,
      "Ġmein": 366,
      "ĠVor": 367,
      "ĠGe": 368,
      "ĠmÃ¶chte": 369,
      "aten": 370,
      "ĠÃ": 371,
      "Ġ1": 372,
      "Ġeiner": 373,
      "sa": 374,
      "eil": 375,
      "sten": 376,
      "ĠWettbewerb": 377,
      "ĠRe": 378,
      "ĠJ": 379,
      "urch": 380,
      "ĠAb": 381,
      "se": 382,
      "sen": 383,
      "alen": 384,
      "ĠArbeit": 385,
      "Ġhaben": 386,
      "Ġe": 387,
      "sti": 388,
      "Ġdar": 389,
      "ĠAu": 390,
      "ĠSie": 391,
      "ĠRegionen": 392,
      "ds": 393,
      "le": 394,
      "Ã¶r": 395,
      "ktur": 396,
      "Ġsch": 397,
      "ere": 398,
      "Ã¤ischen": 399,
      "Ġunter": 400,
      "ann": 401,
      "ruktur": 402,
      "hil": 403,
      "Ġp": 404,
      "ges": 405,
      "Ã¶n": 406,
      "for": 407,
      "Ġsie": 408,
      "eren": 409,
      "Ã¤r": 410,
      "Ġall": 411,
      "Ã¼hr": 412,
      "ĠFrau": 413,
      "gra": 414,
      "ktion": 415,
      "mit": 416,
      "tra": 417,
      "ern": 418,
      "Ã¼ck": 419,
      "Ġdiese": 420,
      "Ġdieser": 421,
      "anz": 422,
      "hilfen": 423,
      "ation": 424,
      "reich": 425,
      "ĠEntwick": 426,
      "ord": 427,
      "ĠZiel": 428,
      "Ġsehr": 429,
      "ĠkÃ¶n": 430,
      "Ã¤nd": 431,
      "ommen": 432,
      "Ġsein": 433,
      "Ġzum": 434,
      "ierung": 435,
      "Ġsoll": 436,
      "tiv": 437,
      "ĠUnter": 438,
      "aaten": 439,
      "leich": 440,
      "Ġr": 441,
      "Ġaber": 442,
      "ort": 443,
      "Ġber": 444,
      "ĠUnion": 445,
      "aus": 446,
      "hen": 447,
      "Ġt": 448,
      "eiten": 449,
      "gel": 450,
      "Ġnur": 451,
      "gramm": 452,
      "ĠEntwicklung": 453,
      "ff": 454,
      "Ġoder": 455,
      "glie": 456,
      "neh": 457,
      "onds": 458,
      "Ġeinen": 459,
      "ĠBeihilfen": 460,
      "glich": 461,
      "ran": 462,
      "ver": 463,
      "ze": 464,
      "Ġent": 465,
      "Ġdurch": 466,
      "ichtig": 467,
      "onder": 468,
      "Ġab": 469,
      "ĠkÃ¶nnen": 470,
      "run": 471,
      "stell": 472,
      "Ã¤hr": 473,
      "Ġzw": 474,
      "00": 475,
      "aat": 476,
      "igen": 477,
      "nder": 478,
      "Ã¼ssen": 479,
      "tigen": 480,
      "ĠEin": 481,
      "ĠDas": 482,
      "Ġdiesem": 483,
      "etzt": 484,
      "ĠÃĦ": 485,
      "ken": 486,
      "oll": 487,
      "Ġwenn": 488,
      "schen": 489,
      "esonder": 490,
      "Ġnoch": 491,
      "stimm": 492,
      "ordn": 493,
      "ĠÃĦnder": 494,
      "nah": 495,
      "ehen": 496,
      "ĠMitglie": 497,
      "linien": 498,
      "bl": 499,
      "lo": 500,
      "chen": 501,
      "icher": 502,
      "ĠmÃ¼ssen": 503,
      "ische": 504,
      "ĠStruktur": 505,
      "aÃŁ": 506,
      "vor": 507,
      "wir": 508,
      "zen": 509,
      "schie": 510,
      "Ġmehr": 511,
      "eitlinien": 512,
      "Ġkann": 513,
      "all": 514,
      "rÃ¤": 515,
      "ĠmuÃŁ": 516,
      "Ġbet": 517,
      "ĠKolle": 518,
      "Ġje": 519,
      "ftig": 520,
      "fonds": 521,
      "Ġwur": 522,
      "ĠLeitlinien": 523,
      "ĠProgramm": 524,
      "ĠEuropÃ¤ischen": 525,
      "icherheit": 526,
      "dst": 527,
      "fahr": 528,
      "ok": 529,
      "rei": 530,
      "geb": 531,
      "ang": 532,
      "tel": 533,
      "tet": 534,
      "igkeit": 535,
      "kehr": 536,
      "Ġhin": 537,
      "lieÃŁ": 538,
      "ĠAussch": 539,
      "ĠJahr": 540,
      "ĠMitgliedst": 541,
      "mer": 542,
      "Ġsow": 543,
      "Ġsozi": 544,
      "ĠFraktion": 545,
      "halb": 546,
      "bt": 547,
      "om": 548,
      "che": 549,
      "ste": 550,
      "Ġsp": 551,
      "forder": 552,
      "ĠKollegen": 553,
      "bar": 554,
      "ige": 555,
      "Ġ2": 556,
      "ess": 557,
      "Ġeinem": 558,
      "Ġhier": 559,
      "ĠZus": 560,
      "ĠWettbewerbs": 561,
      "ĠMitgliedstaaten": 562,
      "eb": 563,
      "fol": 564,
      "fÃ¼hr": 565,
      "politik": 566,
      "unkt": 567,
      "schÃ¤": 568,
      "schla": 569,
      "Ġdan": 570,
      "arkt": 571,
      "Ġgem": 572,
      "Ġgew": 573,
      "ĠUm": 574,
      "Ġstaat": 575,
      "rif": 576,
      "nehmen": 577,
      "inn": 578,
      "Ġweit": 579,
      "ht": 580,
      "uf": 581,
      "ĠC": 582,
      "str": 583,
      "innen": 584,
      "orden": 585,
      "ĠEs": 586,
      "Ġkon": 587,
      "ĠKommissar": 588,
      "Ġzwischen": 589,
      "erer": 590,
      "Ġam": 591,
      "Ã¤h": 592,
      "Ġneu": 593,
      "ale": 594,
      "itÃ¤t": 595,
      "ĠKon": 596,
      "ĠDer": 597,
      "atter": 598,
      "ĠBerichterst": 599,
      "ahl": 600,
      "legen": 601,
      "ĠBerichterstatter": 602,
      "bei": 603,
      "sicht": 604,
      "Ġgen": 605,
      "Ġwo": 606,
      "Ġwas": 607,
      "tige": 608,
      "Ġkein": 609,
      "999": 610,
      "sam": 611,
      "est": 612,
      "ekt": 613,
      "hÃ¤": 614,
      "hnen": 615,
      "Ġre": 616,
      "erung": 617,
      "schl": 618,
      "Ġman": 619,
      "ĠSicherheit": 620,
      "Ġins": 621,
      "Ġlie": 622,
      "ĠHerrn": 623,
      "ordnung": 624,
      "Ġwar": 625,
      "Ġdamit": 626,
      "ÃŁe": 627,
      "iert": 628,
      "spolitik": 629,
      "ĠLa": 630,
      "Ġmeine": 631,
      "ransp": 632,
      "nahmen": 633,
      "ĠZusa": 634,
      "dung": 635,
      "ek": 636,
      "ik": 637,
      "setz": 638,
      "zung": 639,
      "Ã¤ch": 640,
      "schei": 641,
      "Ġsa": 642,
      "ĠSo": 643,
      "Ġheu": 644,
      "ĠZu": 645,
      "ĠZeit": 646,
      "ĠBereich": 647,
      "trag": 648,
      "Ġregion": 649,
      "rund": 650,
      "esondere": 651,
      "schÃ¤ftig": 652,
      "fÃ¼r": 653,
      "ill": 654,
      "lei": 655,
      "sion": 656,
      "ing": 657,
      "Ġson": 658,
      "Ġhal": 659,
      "Ġdieses": 660,
      "ieren": 661,
      "Ġganz": 662,
      "Ã¤nder": 663,
      "ungsan": 664,
      "ĠWirtschaft": 665,
      "ĠRecht": 666,
      "blem": 667,
      "ĠZusammen": 668,
      "ab": 669,
      "amen": 670,
      "mal": 671,
      "rÃ¼": 672,
      "Ġde": 673,
      "schlieÃŁ": 674,
      "Ġzwei": 675,
      "Ġmich": 676,
      "deut": 677,
      "lage": 678,
      "Ġander": 679,
      "ĠlÃ¤nd": 680,
      "ĠBeschÃ¤ftig": 681,
      "dem": 682,
      "gleich": 683,
      "he": 684,
      "hl": 685,
      "Ã¼t": 686,
      "Ġviel": 687,
      "licher": 688,
      "ĠRicht": 689,
      "Ġgro": 690,
      "achen": 691,
      "ĠVerkehr": 692,
      "ĠProblem": 693,
      "ĠEuropa": 694,
      "Ã¶rder": 695,
      "schlag": 696,
      "lan": 697,
      "pf": 698,
      "rit": 699,
      "zie": 700,
      "ĠIhr": 701,
      "acht": 702,
      "halt": 703,
      "ĠEnt": 704,
      "ĠArbeits": 705,
      "Ġeurop": 706,
      "Ã¼cks": 707,
      "Ġsowie": 708,
      "Ġsondern": 709,
      "besondere": 710,
      "ul": 711,
      "ert": 712,
      "gew": 713,
      "ÃŁen": 714,
      "eits": 715,
      "ĠfÃ¼hr": 716,
      "ĠTa": 717,
      "Ġunserer": 718,
      "Ġwurde": 719,
      "Ġgemein": 720,
      "Ġsagen": 721,
      "Ġheute": 722,
      "ĠSte": 723,
      "genen": 724,
      "alt": 725,
      "itu": 726,
      "Ġdenn": 727,
      "Ġwirtschaft": 728,
      "ĠMarkt": 729,
      "ĠStra": 730,
      "ĠPrÃ¤sidentin": 731,
      "Ġihre": 732,
      "ĠGeb": 733,
      "ĠAuf": 734,
      "ĠUnternehmen": 735,
      "ĠStrukturfonds": 736,
      "aÃŁnahmen": 737,
      "ĠAusschuÃŁ": 738,
      "hÃ¤sion": 739,
      "Ġinsbesondere": 740,
      "bst": 741,
      "ner": 742,
      "omm": 743,
      "Ġweil": 744,
      "Ġworden": 745,
      "Ã¤ÃŁ": 746,
      "ank": 747,
      "ĠKohÃ¤sion": 748,
      "Ġkl": 749,
      "Ġdiesen": 750,
      "halten": 751,
      "Ġsollten": 752,
      "stimmung": 753,
      "setzung": 754,
      "ding": 755,
      "gan": 756,
      "trÃ¤": 757,
      "stÃ¼t": 758,
      "Ġwen": 759,
      "Ġdara": 760,
      "teg": 761,
      "Ġbeg": 762,
      "ĠBÃ¼r": 763,
      "ĠMein": 764,
      "rechen": 765,
      "Ġletz": 766,
      "isierung": 767,
      "linie": 768,
      "ĠÃĦnderungsan": 769,
      "Ġstaatlichen": 770,
      "ĠlÃ¤ndlichen": 771,
      "ass": 772,
      "ibt": 773,
      "ne": 774,
      "Ġ(": 775,
      "Ġwichtig": 776,
      "gem": 777,
      "ssp": 778,
      "Ġdenen": 779,
      "ĠRa": 780,
      "ĠIhnen": 781,
      "lau": 782,
      "spr": 783,
      "iger": 784,
      "elbst": 785,
      "Ġunsere": 786,
      "Ġob": 787,
      "ĠVorschlag": 788,
      "wirtschaft": 789,
      "Ġdann": 790,
      "ĠRichtlinie": 791,
      "bil": 792,
      "her": 793,
      "kl": 794,
      "otw": 795,
      "rie": 796,
      "ĠO": 797,
      "ster": 798,
      "ĠwÃ¼r": 799,
      "Ã¤uÃŁ": 800,
      "sche": 801,
      "Ġvom": 802,
      "Ġmir": 803,
      "ĠEU": 804,
      "Ġgegen": 805,
      "Ġgeht": 806,
      "ĠMaÃŁnahmen": 807,
      "ĠFor": 808,
      "spiel": 809,
      "reten": 810,
      "ĠFrage": 811,
      "ĠBedeut": 812,
      "Ġeben": 813,
      "ĠberÃ¼cks": 814,
      "ĠSozi": 815,
      "Ġdarauf": 816,
      "otwend": 817,
      "ĠBedeutung": 818,
      "1999": 819,
      "io": 820,
      "iz": 821,
      "keiten": 822,
      "me": 823,
      "uss": 824,
      "zei": 825,
      "Ġen": 826,
      "Ã¤m": 827,
      "Ã¤ische": 828,
      "schrif": 829,
      "eshalb": 830,
      "Ġdazu": 831,
      "Ġmachen": 832,
      "lleg": 833,
      "rache": 834,
      "aren": 835,
      "Ġfest": 836,
      "Ġher": 837,
      "ĠKolleg": 838,
      "Ġger": 839,
      "spl": 840,
      "Ġbest": 841,
      "tionen": 842,
      "Ġ199": 843,
      "Ġjed": 844,
      "ebat": 845,
      "ĠTages": 846,
      "ĠGebie": 847,
      "schriften": 848,
      "ed": 849,
      "fra": 850,
      "fall": 851,
      "nis": 852,
      "wend": 853,
      "Ġei": 854,
      "Ġalle": 855,
      "ĠdafÃ¼r": 856,
      "antw": 857,
      "genommen": 858,
      "mmer": 859,
      "ĠFall": 860,
      "ĠGem": 861,
      "ĠVerb": 862,
      "schaffen": 863,
      "ĠInst": 864,
      "ĠNach": 865,
      "Ġausge": 866,
      "ĠGefahr": 867,
      "ĠWettbewerbspolitik": 868,
      "ĠAussp": 869,
      "Ã¤rk": 870,
      "ĠZiele": 871,
      "ĠBerichterstatterin": 872,
      "ĠSozial": 873,
      "ĠTagesordnung": 874,
      "ĠAussprache": 875,
      "ag": 876,
      "ech": 877,
      "fÃ¤h": 878,
      "lt": 879,
      "uch": 880,
      "zeit": 881,
      "ĠÃ¤uÃŁ": 882,
      "inanz": 883,
      "Ġnation": 884,
      "Ġimmer": 885,
      "ĠDebat": 886,
      "Ã¶glich": 887,
      "ĠHin": 888,
      "Ġgibt": 889,
      "ĠLand": 890,
      "Ġbef": 891,
      "ĠTransp": 892,
      "isk": 893,
      "Ġwieder": 894,
      "ĠmÃ¶glich": 895,
      "ĠMittel": 896,
      "Ġihrer": 897,
      "Ġmeiner": 898,
      "samen": 899,
      "tiven": 900,
      "Ġbereits": 901,
      "schieden": 902,
      "ĠProgramme": 903,
      "okra": 904,
      "Ġsozialen": 905,
      "Ġkeine": 906,
      "Ġregionalen": 907,
      "ĠeuropÃ¤ischen": 908,
      "ĠfÃ¼hren": 909,
      "Ġjedoch": 910,
      "assen": 911,
      "glichen": 912,
      "kel": 913,
      "og": 914,
      "olle": 915,
      "ohl": 916,
      "pt": 917,
      "ve": 918,
      "geben": 919,
      "tieren": 920,
      "Ġbit": 921,
      "Ġbis": 922,
      "Ġeinge": 923,
      "Ġeinige": 924,
      "ĠPunkt": 925,
      "ĠWie": 926,
      "ĠRand": 927,
      "ĠMen": 928,
      "ĠMon": 929,
      "ĠHaus": 930,
      "ĠPri": 931,
      "Ġgleich": 932,
      "ĠGrund": 933,
      "ums": 934,
      "Ã¤ndern": 935,
      "zug": 936,
      "ĠAbstimmung": 937,
      "tive": 938,
      "Ġwurden": 939,
      "Ġ200": 940,
      "Ġweiter": 941,
      "ĠLage": 942,
      "Ġhalte": 943,
      "Ã¶rderung": 944,
      "ĠKolleginnen": 945,
      "ĠGemein": 946,
      "ĠDebatte": 947,
      "ke": 948,
      "kungen": 949,
      "Ġ\"": 950,
      "Ġet": 951,
      "erio": 952,
      "ichtigen": 953,
      "struktur": 954,
      "stÃ¤nd": 955,
      "Ġselbst": 956,
      "llen": 957,
      "alpolitik": 958,
      "Ġho": 959,
      "ĠReg": 960,
      "Ġgef": 961,
      "Ġwirk": 962,
      "ĠMo": 963,
      "deu": 964,
      "lassen": 965,
      "isse": 966,
      "Ġbed": 967,
      "weise": 968,
      "weisen": 969,
      "Ã¼nf": 970,
      "ĠArbeitspl": 971,
      "form": 972,
      "stellen": 973,
      "los": 974,
      "fahren": 975,
      "ĠRechts": 976,
      "Ġdeut": 977,
      "ĠEntschei": 978,
      "dingungen": 979,
      "ĠBÃ¼rger": 980,
      "Ġletzten": 981,
      "klÃ¤r": 982,
      "antwort": 983,
      "ĠÃ¤uÃŁerst": 984,
      "ĠArbeitsplÃ¤t": 985,
      "aben": 986,
      "du": 987,
      "egen": 988,
      "eben": 989,
      "sfonds": 990,
      "teil": 991,
      "zel": 992,
      "chten": 993,
      "orgen": 994,
      "Ġbesonder": 995,
      "Ġeines": 996,
      "ĠDa": 997,
      "ĠDe": 998,
      "ĠWei": 999,
      "Ġgest": 1000,
      "atz": 1001,
      "ĠMÃ¶glich": 1002,
      "Ġaufge": 1003,
      "Ġerw": 1004,
      "ĠUnd": 1005,
      "elt": 1006,
      "utz": 1007,
      "ochen": 1008,
      "ellen": 1009,
      "Ġjetzt": 1010,
      "ĠRegionalpolitik": 1011,
      "Ġhabe": 1012,
      "ĠBeispiel": 1013,
      "gesetzt": 1014,
      "Ġsollte": 1015,
      "Ġentsp": 1016,
      "Ġbetrif": 1017,
      "ĠUmsetzung": 1018,
      "sichtlich": 1019,
      "ĠBeschÃ¤ftigung": 1020,
      "usses": 1021,
      "wendung": 1022,
      "ĠPrior": 1023,
      "Ġetw": 1024,
      "losigkeit": 1025,
      "Ġbetrifft": 1026,
      "ap": 1027,
      "luÃŁ": 1028,
      "punkt": 1029,
      "rin": 1030,
      "rÃ¼n": 1031,
      "sel": 1032,
      "ute": 1033,
      "xi": 1034,
      "Ġdoch": 1035,
      "ichten": 1036,
      "Ã¤ten": 1037,
      "Ã¤tig": 1038,
      "essen": 1039,
      "tischen": 1040,
      "tikel": 1041,
      "ĠSitu": 1042,
      "ĠBinnen": 1043,
      "gend": 1044,
      "rateg": 1045,
      "Ġnotwend": 1046,
      "ĠPolitik": 1047,
      "itÃ¤ten": 1048,
      "ĠDeshalb": 1049,
      "ĠhÃ¤t": 1050,
      "ĠRat": 1051,
      "Ġsol": 1052,
      "eht": 1053,
      "Ġverb": 1054,
      "ĠLÃ¤nder": 1055,
      "ĠStahl": 1056,
      "etzen": 1057,
      "ĠBerichts": 1058,
      "ĠArtikel": 1059,
      "ĠNamen": 1060,
      "Ġalso": 1061,
      "ffent": 1062,
      "gerung": 1063,
      "ĠParlaments": 1064,
      "ĠRegel": 1065,
      "Ġschon": 1066,
      "ĠAusschusses": 1067,
      "Ġsoziale": 1068,
      "forderungen": 1069,
      "folg": 1070,
      "Ġneuen": 1071,
      "ektor": 1072,
      "Ġwirtschaftlichen": 1073,
      "trÃ¤ge": 1074,
      "ĠMeinung": 1075,
      "arenz": 1076,
      "ĠTransparenz": 1077,
      "ĠRandlage": 1078,
      "ĠSituation": 1079,
      "cen": 1080,
      "di": 1081,
      "fach": 1082,
      "gut": 1083,
      "hem": 1084,
      "ksam": 1085,
      "mon": 1086,
      "ot": 1087,
      "osi": 1088,
      "qu": 1089,
      "tro": 1090,
      "treten": 1091,
      "ĠÃ¶": 1092,
      "ichte": 1093,
      "inden": 1094,
      "inde": 1095,
      "Ã¤re": 1096,
      "schlo": 1097,
      "Ġkomm": 1098,
      "egt": 1099,
      "issen": 1100,
      "recht": 1101,
      "ĠStaaten": 1102,
      "Ġstehen": 1103,
      "egionen": 1104,
      "ĠDies": 1105,
      "ĠDiese": 1106,
      "ahmen": 1107,
      "ĠEuropÃ¤ische": 1108,
      "Ã¤tz": 1109,
      "twickel": 1110,
      "ĠÃľ": 1111,
      "erenz": 1112,
      "Ġallem": 1113,
      "mittel": 1114,
      "reichen": 1115,
      "ichtigt": 1116,
      "runds": 1117,
      "nahme": 1118,
      "ĠSicherheits": 1119,
      "Ã¤chst": 1120,
      "ĠStraÃŁe": 1121,
      "ĠKohÃ¤sionsfonds": 1122,
      "ĠwÃ¼rde": 1123,
      "Ġnationalen": 1124,
      "ĠgefÃ¤hr": 1125,
      "Ġdeutlich": 1126,
      "schlossen": 1127,
      "ade": 1128,
      "fe": 1129,
      "len": 1130,
      "nisse": 1131,
      "rÃ¤n": 1132,
      "tei": 1133,
      "ven": 1134,
      "voll": 1135,
      "zent": 1136,
      "Ġ8": 1137,
      "Ġschaffen": 1138,
      "ers": 1139,
      "unÃ¤chst": 1140,
      "Ġwes": 1141,
      "Ġwill": 1142,
      "gelegen": 1143,
      "ande": 1144,
      "ÃŁer": 1145,
      "Ġeinzel": 1146,
      "Ġnun": 1147,
      "arbeit": 1148,
      "ichts": 1149,
      "ĠDank": 1150,
      "ĠRahmen": 1151,
      "tern": 1152,
      "ĠGes": 1153,
      "ĠVerein": 1154,
      "reffen": 1155,
      "ĠStand": 1156,
      "ĠThem": 1157,
      "ĠErgeb": 1158,
      "ĠPrÃ¤sidenten": 1159,
      "Ġ1999": 1160,
      "tragen": 1161,
      "nehmer": 1162,
      "stellung": 1163,
      "schied": 1164,
      "Ġhinsichtlich": 1165,
      "merksam": 1166,
      "Ġstaatliche": 1167,
      "strie": 1168,
      "Ġneue": 1169,
      "schlÃ¤": 1170,
      "Ġliegt": 1171,
      "schlieÃŁend": 1172,
      "Ġanderen": 1173,
      "ĠProbleme": 1174,
      "ĠArbeitslosigkeit": 1175,
      "ĠberÃ¼cksichtigt": 1176,
      "zeitig": 1177,
      "Ġeigen": 1178,
      "ĠGefahrgut": 1179,
      "ĠMenschen": 1180,
      "Ġetwas": 1181,
      "ĠÃľber": 1182,
      "Ġwesent": 1183,
      "bau": 1184,
      "fÃ¼": 1185,
      "ferenz": 1186,
      "hÃ¶r": 1187,
      "kun": 1188,
      "kommen": 1189,
      "lten": 1190,
      "lungen": 1191,
      "markt": 1192,
      "su": 1193,
      "sit": 1194,
      "zw": 1195,
      "zeich": 1196,
      "Ġdisk": 1197,
      "ichtige": 1198,
      "stand": 1199,
      "ĠwÃ¤re": 1200,
      "ĠSu": 1201,
      "ĠBet": 1202,
      "rag": 1203,
      "racht": 1204,
      "armon": 1205,
      "ĠWenn": 1206,
      "ĠKoch": 1207,
      "ats": 1208,
      "Ġkur": 1209,
      "dex": 1210,
      "Ġgere": 1211,
      "ischer": 1212,
      "ĠGÃ¼": 1213,
      "Ġerinn": 1214,
      "Ġange": 1215,
      "Ġbezug": 1216,
      "ĠUngleich": 1217,
      "ĠHerren": 1218,
      "ĠTeil": 1219,
      "wert": 1220,
      "Ġsicher": 1221,
      "roed": 1222,
      "ĠEuropas": 1223,
      "zip": 1224,
      "ĠSchluÃŁ": 1225,
      "ĠSchroed": 1226,
      "aupt": 1227,
      "gerungen": 1228,
      "Ġnachhal": 1229,
      "ĠÃĸ": 1230,
      "Ġdaran": 1231,
      "Ġdarum": 1232,
      "Ġaller": 1233,
      "Ġseiner": 1234,
      "verkehr": 1235,
      "zep": 1236,
      "Ã¤hrung": 1237,
      "Ġsowohl": 1238,
      "Ġrecht": 1239,
      "leist": 1240,
      "ĠWirtschafts": 1241,
      "ĠÃĦnderungsantrÃ¤ge": 1242,
      "ĠRaum": 1243,
      "sprochen": 1244,
      "falls": 1245,
      "fÃ¤higkeit": 1246,
      "ĠÃ¤uÃŁerster": 1247,
      "Ġbesonders": 1248,
      "Ġdisku": 1249,
      "ĠSchroedter": 1250,
      "01": 1251,
      "ak": 1252,
      "am": 1253,
      "eten": 1254,
      "grund": 1255,
      "hin": 1256,
      "han": 1257,
      "heiten": 1258,
      "hang": 1259,
      "kon": 1260,
      "land": 1261,
      "mÃ¶": 1262,
      "ni": 1263,
      "os": 1264,
      "ren": 1265,
      "richt": 1266,
      "tie": 1267,
      "walt": 1268,
      "Ġop": 1269,
      "chn": 1270,
      "eist": 1271,
      "geordn": 1272,
      "schein": 1273,
      "Ã¼b": 1274,
      "Ã¼f": 1275,
      "Ġbin": 1276,
      "Ġeinmal": 1277,
      "ĠSektor": 1278,
      "ĠBeit": 1279,
      "genden": 1280,
      "rak": 1281,
      "lichkeit": 1282,
      "Ġih": 1283,
      "arte": 1284,
      "aler": 1285,
      "ales": 1286,
      "Ġfor": 1287,
      "ĠDamen": 1288,
      "ĠRolle": 1289,
      "Ġges": 1290,
      "ĠPrÃ¼f": 1291,
      "ĠGel": 1292,
      "bene": 1293,
      "ehmen": 1294,
      "eicht": 1295,
      "ĠVerantwort": 1296,
      "Ġbestimm": 1297,
      "ĠstÃ¤rk": 1298,
      "Ġvorlie": 1299,
      "Ġunseren": 1300,
      "ĠAntrag": 1301,
      "ĠAngelegen": 1302,
      "Ġbeim": 1303,
      "ruck": 1304,
      "ĠAusbil": 1305,
      "ĠErw": 1306,
      "Ġ-,": 1307,
      "Ã¼nftig": 1308,
      "ĠdarÃ¼ber": 1309,
      "ĠunterstÃ¼t": 1310,
      "gesichts": 1311,
      "ĠUnterstÃ¼t": 1312,
      "vorschriften": 1313,
      "ĠWettbewerbsfÃ¤higkeit": 1314,
      "fÃ¼hrung": 1315,
      "Ġwaren": 1316,
      "ĠZeitra": 1317,
      "ĠgroÃŁe": 1318,
      "ĠgroÃŁen": 1319,
      "Ġgemeinsamen": 1320,
      "Ġklar": 1321,
      "Ġentwickel": 1322,
      "Ġhervor": 1323,
      "Ġbitte": 1324,
      "ĠGemeinschaft": 1325,
      "ĠArbeitsplÃ¤tze": 1326,
      "ĠWeise": 1327,
      "Ġentsprechen": 1328,
      "ĠÃ¶ffent": 1329,
      "ĠUnterstÃ¼tzung": 1330,
      "astr": 1331,
      "beiten": 1332,
      "durch": 1333,
      "fÃ¤": 1334,
      "ho": 1335,
      "hÃ¶": 1336,
      "ist": 1337,
      "lÃ¼ck": 1338,
      "mÃ¤ÃŁ": 1339,
      "nt": 1340,
      "pro": 1341,
      "rÃ¶": 1342,
      "tlich": 1343,
      "transp": 1344,
      "unktion": 1345,
      "inzip": 1346,
      "Ġwoll": 1347,
      "Ġak": 1348,
      "Ã¤d": 1349,
      "einen": 1350,
      "oren": 1351,
      "Ġzie": 1352,
      "llung": 1353,
      "ĠBeh": 1354,
      "licht": 1355,
      "ark": 1356,
      "ssicherheit": 1357,
      "Ġfol": 1358,
      "ĠDien": 1359,
      "ĠDurch": 1360,
      "Ġdenke": 1361,
      "Ã¼rlich": 1362,
      "att": 1363,
      "atastr": 1364,
      "atÃ¼rlich": 1365,
      "Ġkommen": 1366,
      "ĠHier": 1367,
      "ĠHarmon": 1368,
      "ierungs": 1369,
      "Ġerst": 1370,
      "Ġerforder": 1371,
      "ĠVertra": 1372,
      "ehrte": 1373,
      "ĠLÃ¤ndern": 1374,
      "Ġlei": 1375,
      "Ġstrateg": 1376,
      "ielen": 1377,
      "Ġvorge": 1378,
      "ĠAnsicht": 1379,
      "ienen": 1380,
      "rument": 1381,
      "zulegen": 1382,
      "ellschaft": 1383,
      "ĠNut": 1384,
      "ĠErfolg": 1385,
      "Ġja": 1386,
      "ĠSchw": 1387,
      "auf": 1388,
      "ĠAbgeordn": 1389,
      "Ġeff": 1390,
      "Ġallen": 1391,
      "Ġalles": 1392,
      "ordin": 1393,
      "Ġabge": 1394,
      "ĠÃĦnderung": 1395,
      "aÃŁt": 1396,
      "lieÃŁlich": 1397,
      "ĠJahren": 1398,
      "fÃ¼hren": 1399,
      "Ġkonn": 1400,
      "ĠKonferenz": 1401,
      "Ġhalten": 1402,
      "ĠZusammenhalt": 1403,
      "ĠZusammenhang": 1404,
      "mals": 1405,
      "ĠBeschÃ¤ftigungs": 1406,
      "Ġviele": 1407,
      "gangenen": 1408,
      "Ġwenig": 1409,
      "Ġ1998": 1410,
      "ĠLandwirtschaft": 1411,
      "Ġ2000": 1412,
      "Ġwirklich": 1413,
      "ĠModern": 1414,
      "indest": 1415,
      "Ġeinzelnen": 1416,
      "ĠThema": 1417,
      "ĠGefahrguttransp": 1418,
      "kunft": 1419,
      "mÃ¶glichen": 1420,
      "Ġopti": 1421,
      "atastrop": 1422,
      "Qu": 1423,
      "dungen": 1424,
      "gar": 1425,
      "gungen": 1426,
      "hung": 1427,
      "kung": 1428,
      "kte": 1429,
      "lÃ¤n": 1430,
      "our": 1431,
      "ogen": 1432,
      "pp": 1433,
      "ret": 1434,
      "riti": 1435,
      "tok": 1436,
      "uen": 1437,
      "zus": 1438,
      "ĠÃ¼b": 1439,
      "ĠQu": 1440,
      "unden": 1441,
      "iell": 1442,
      "onn": 1443,
      "gegen": 1444,
      "Ã¤u": 1445,
      "Ġvoll": 1446,
      "ÃŁt": 1447,
      "Ġbeh": 1448,
      "Ġbess": 1449,
      "Ġbzw": 1450,
      "ĠSit": 1451,
      "ĠSinn": 1452,
      "rauch": 1453,
      "Ġnie": 1454,
      "ĠnÃ¤m": 1455,
      "Ġihnen": 1456,
      "derung": 1457,
      "art": 1458,
      "alitÃ¤t": 1459,
      "ĠfÃ¼nf": 1460,
      "ĠDoch": 1461,
      "Ã¶s": 1462,
      "ĠWas": 1463,
      "ĠWales": 1464,
      "ĠgehÃ¶r": 1465,
      "ĠFr": 1466,
      "ĠFÃ¶rderung": 1467,
      "berat": 1468,
      "Ġgil": 1469,
      "Ġglau": 1470,
      "Ġgute": 1471,
      "ĠgrÃ¶": 1472,
      "ache": 1473,
      "Ġern": 1474,
      "Ġersten": 1475,
      "ĠermÃ¶glichen": 1476,
      "spro": 1477,
      "bedingungen": 1478,
      "Ġverschieden": 1479,
      "igten": 1480,
      "ĠLeben": 1481,
      "Ġwerde": 1482,
      "indet": 1483,
      "ĠInsel": 1484,
      "ĠProtok": 1485,
      "ĠArt": 1486,
      "Ġoffen": 1487,
      "Ġumf": 1488,
      "Ġihren": 1489,
      "Ġihrem": 1490,
      "Ġmeinen": 1491,
      "ĠVorschriften": 1492,
      "lexi": 1493,
      "Ġunterschied": 1494,
      "annt": 1495,
      "Ġpri": 1496,
      "Ġseinen": 1497,
      "gelegt": 1498,
      "zeÃŁ": 1499,
      "stellt": 1500,
      "Ġzwar": 1501,
      "006": 1502,
      "ĠÃĦnderungen": 1503,
      "blick": 1504,
      "schiede": 1505,
      "ĠJahre": 1506,
      "ĠJahres": 1507,
      "Ġspe": 1508,
      "esserung": 1509,
      "folgerungen": 1510,
      "Ġdanken": 1511,
      "ĠKontro": 1512,
      "Ġwobei": 1513,
      "ekte": 1514,
      "demokra": 1515,
      "ĠVerkehrs": 1516,
      "lanung": 1517,
      "ritt": 1518,
      "ĠStellung": 1519,
      "Ġgerade": 1520,
      "ĠGebieten": 1521,
      "ĠVerbesserung": 1522,
      "ĠInstitu": 1523,
      "ĠInstrument": 1524,
      "ĠSozialdemokra": 1525,
      "ĠGrundlage": 1526,
      "ĠEntscheidung": 1527,
      "ĠBinnenmarkt": 1528,
      "Ġnotwendig": 1529,
      "ĠhÃ¤tte": 1530,
      "Ġverbess": 1531,
      "ĠSicherheitsberat": 1532,
      "schlÃ¤ge": 1533,
      "ĠSub": 1534,
      "ĠSchluÃŁfolgerungen": 1535,
      "Ġwollen": 1536,
      "ĠSitzung": 1537,
      "ĠnÃ¤mlich": 1538,
      "Ġgilt": 1539,
      "ĠProtokoll": 1540,
      "EN": 1541,
      "ativen": 1542,
      "dr": 1543,
      "dungs": 1544,
      "druck": 1545,
      "ex": 1546,
      "eder": 1547,
      "grei": 1548,
      "gang": 1549,
      "gaben": 1550,
      "ha": 1551,
      "imm": 1552,
      "ko": 1553,
      "oten": 1554,
      "satz": 1555,
      "ug": 1556,
      "uer": 1557,
      "verst": 1558,
      "zt": 1559,
      "Ġ%": 1560,
      "Ġlassen": 1561,
      "engungen": 1562,
      "erten": 1563,
      "und": 1564,
      "iesen": 1565,
      "Ġwel": 1566,
      "Ġwettbewerb": 1567,
      "ĠwÃ¤hr": 1568,
      "Ġwissen": 1569,
      "schutz": 1570,
      "schrÃ¤n": 1571,
      "Ġseit": 1572,
      "esen": 1573,
      "esse": 1574,
      "tische": 1575,
      "orte": 1576,
      "anken": 1577,
      "Ġmorgen": 1578,
      "Ġben": 1579,
      "Ġblei": 1580,
      "ĠAber": 1581,
      "ĠAsp": 1582,
      "ĠBem": 1583,
      "ĠBeg": 1584,
      "ĠauÃŁer": 1585,
      "aly": 1586,
      "ital": 1587,
      "ĠhÃ¤": 1588,
      "Ã¼rfen": 1589,
      "ĠKoordin": 1590,
      "Ġgeben": 1591,
      "Ġgehen": 1592,
      "ĠMi": 1593,
      "ĠFonds": 1594,
      "ĠFinanz": 1595,
      "ĠIm": 1596,
      "ĠHil": 1597,
      "bericht": 1598,
      "ierten": 1599,
      "achst": 1600,
      "Ġerste": 1601,
      "Ġvertreten": 1602,
      "ĠVerwendung": 1603,
      "ĠVerwalt": 1604,
      "igt": 1605,
      "Ġbek": 1606,
      "olog": 1607,
      "opol": 1608,
      "ĠHeraus": 1609,
      "Ġstatt": 1610,
      "ĠBef": 1611,
      "ĠErklÃ¤r": 1612,
      "Ġhatte": 1613,
      "ĠScha": 1614,
      "rigen": 1615,
      "Ġdarf": 1616,
      "ĠAuch": 1617,
      "reichend": 1618,
      "Ġseine": 1619,
      "ĠUnterschiede": 1620,
      "Ġtun": 1621,
      "ffung": 1622,
      "ĠStrukturpolitik": 1623,
      "wirkungen": 1624,
      "Ġjeden": 1625,
      "Ġgeworden": 1626,
      "ĠUmw": 1627,
      "strengungen": 1628,
      "Ġkonk": 1629,
      "Ġliebe": 1630,
      "scheiden": 1631,
      "Ġzweite": 1632,
      "ĠVerkehrssicherheit": 1633,
      "ziehen": 1634,
      "gewiesen": 1635,
      "Ġgemeinschaft": 1636,
      "gangen": 1637,
      "Ġweniger": 1638,
      "ĠÃĦnderungsantrag": 1639,
      "ĠOr": 1640,
      "ĠberÃ¼cksichtigen": 1641,
      "izien": 1642,
      "Ġbesteht": 1643,
      "ĠGebiete": 1644,
      "ĠHinblick": 1645,
      "eriod": 1646,
      "eriode": 1647,
      "ĠRechtsvorschriften": 1648,
      "ĠMÃ¶glichkeit": 1649,
      "ĠPrioritÃ¤ten": 1650,
      "apital": 1651,
      "Ġkommt": 1652,
      "ĠgefÃ¤hrlicher": 1653,
      "Ġwesentlichen": 1654,
      "Ġkurz": 1655,
      "ĠGÃ¼ter": 1656,
      "ĠÃ¶ffentlichen": 1657,
      "ĠHarmonisierung": 1658,
      "Ġerforderlich": 1659,
      "ĠModernisierung": 1660,
      "Ġoptim": 1661,
      "ĠÃ¼brigen": 1662,
      "ĠSinne": 1663,
      "ĠLebens": 1664,
      "ĠwÃ¤hrend": 1665,
      "2006": 1666,
      "CO": 1667,
      "ad": 1668,
      "ative": 1669,
      "beh": 1670,
      "det": 1671,
      "dik": 1672,
      "fern": 1673,
      "hand": 1674,
      "haben": 1675,
      "komm": 1676,
      "lk": 1677,
      "nung": 1678,
      "prÃ¼": 1679,
      "regionen": 1680,
      "tz": 1681,
      "van": 1682,
      "wÃ¼n": 1683,
      "wegen": 1684,
      "zogen": 1685,
      "Ġ9": 1686,
      "Ġend": 1687,
      "erg": 1688,
      "ĠdÃ¼rfen": 1689,
      "eig": 1690,
      "unehmen": 1691,
      "stre": 1692,
      "Ġwi": 1693,
      "Ġwichtigen": 1694,
      "Ġwichtige": 1695,
      "Ġar": 1696,
      "gelung": 1697,
      "schn": 1698,
      "Ġsetzen": 1699,
      "tisch": 1700,
      "Ġdadurch": 1701,
      "ÃŁb": 1702,
      "Ġeindeu": 1703,
      "ĠAm": 1704,
      "ĠEff": 1705,
      "ĠEbene": 1706,
      "ĠPosi": 1707,
      "Ġfinanz": 1708,
      "ĠDonn": 1709,
      "Ġzusa": 1710,
      "Ã¶lk": 1711,
      "ĠWort": 1712,
      "Ġgelten": 1713,
      "atur": 1714,
      "ĠMindest": 1715,
      "bereich": 1716,
      "ĠPrinzip": 1717,
      "Ġaufgenommen": 1718,
      "Ġaufgrund": 1719,
      "lagen": 1720,
      "Ġgab": 1721,
      "ĠGer": 1722,
      "ĠGleich": 1723,
      "ĠGrunds": 1724,
      "Ġsogar": 1725,
      "ehm": 1726,
      "Ġnichts": 1727,
      "Ġangesichts": 1728,
      "ĠVerz": 1729,
      "igung": 1730,
      "Ġbedeu": 1731,
      "ĠUns": 1732,
      "Ġlok": 1733,
      "Ġstell": 1734,
      "Ġunser": 1735,
      "isen": 1736,
      "ĠBedingungen": 1737,
      "ĠAnwendung": 1738,
      "ĠAnforderungen": 1739,
      "ĠAnstrengungen": 1740,
      "iene": 1741,
      "andlung": 1742,
      "Ġbeiden": 1743,
      "ĠInter": 1744,
      "ĠInfra": 1745,
      "ĠArm": 1746,
      "ĠAuswirkungen": 1747,
      "roffen": 1748,
      "Ġoft": 1749,
      "ĠEnerg": 1750,
      "ĠzurÃ¼ck": 1751,
      "ĠPart": 1752,
      "erstag": 1753,
      "ĠSchiene": 1754,
      "ĠGew": 1755,
      "ĠAbschlieÃŁend": 1756,
      "ĠAbbau": 1757,
      "ĠschlieÃŁlich": 1758,
      "Ġallgem": 1759,
      "ĠUnternehmer": 1760,
      "verfahren": 1761,
      "omp": 1762,
      "Ġsprechen": 1763,
      "fordert": 1764,
      "schlagen": 1765,
      "ĠChan": 1766,
      "ĠCEN": 1767,
      "Ġgenau": 1768,
      "Ġwohl": 1769,
      "schluÃŁ": 1770,
      "Ġliegen": 1771,
      "ĠZukunft": 1772,
      "ĠZusammenarbeit": 1773,
      "ĠIhre": 1774,
      "ĠfÃ¼hrt": 1775,
      "ĠSteuer": 1776,
      "nerhalb": 1777,
      "ĠbegrÃ¼": 1778,
      "laufen": 1779,
      "ĠwÃ¼rden": 1780,
      "ĠmÃ¶glichst": 1781,
      "Ġeingehen": 1782,
      "ĠMÃ¶glichkeiten": 1783,
      "ĠPrioritÃ¤t": 1784,
      "ventionen": 1785,
      "ĠStandpunkt": 1786,
      "Ġsicherlich": 1787,
      "Ġdiskutieren": 1788,
      "010": 1789,
      "ĠBeitrag": 1790,
      "Ġfordern": 1791,
      "ĠPrÃ¼fung": 1792,
      "ĠVerantwortung": 1793,
      "ĠZeitraum": 1794,
      "lÃ¼ckwÃ¼n": 1795,
      "ĠDienst": 1796,
      "ielleicht": 1797,
      "Ġpriv": 1798,
      "greifen": 1799,
      "Ġwettbewerbs": 1800,
      "ĠKoordinierung": 1801,
      "ĠErklÃ¤rung": 1802,
      "ĠSchaffung": 1803,
      "ĠUmwelt": 1804,
      "ĠDonnerstag": 1805,
      "Ġzusammen": 1806,
      "ĠInfrastruktur": 1807,
      "))": 1808,
      ".)": 1809,
      "21": 1810,
      "Fra": 1811,
      "Regionen": 1812,
      "abe": 1813,
      "ckt": 1814,
      "dien": 1815,
      "fer": 1816,
      "ften": 1817,
      "hÃ¤n": 1818,
      "has": 1819,
      "haupt": 1820,
      "nommen": 1821,
      "reg": 1822,
      "richten": 1823,
      "so": 1824,
      "sweise": 1825,
      "tliche": 1826,
      "ue": 1827,
      "ustrie": 1828,
      "vÃ¶lk": 1829,
      "wo": 1830,
      "xp": 1831,
      "zÃ¼": 1832,
      "Ġte": 1833,
      "Ġtragen": 1834,
      "ennen": 1835,
      "Ġdort": 1836,
      "Ġdienen": 1837,
      "unkte": 1838,
      "stehen": 1839,
      "Ġwei": 1840,
      "Ã¼ss": 1841,
      "eine": 1842,
      "Ġsinn": 1843,
      "esp": 1844,
      "tiert": 1845,
      "Ġdaher": 1846,
      "ori": 1847,
      "ormen": 1848,
      "Ġzei": 1849,
      "ĠzunÃ¤chst": 1850,
      "Ġvier": 1851,
      "tens": 1852,
      "Ġbrin": 1853,
      "Ġeinigen": 1854,
      "urf": 1855,
      "uro": 1856,
      "urs": 1857,
      "ĠBar": 1858,
      "ragen": 1859,
      "ĠnatÃ¼rlich": 1860,
      "ĠEuro": 1861,
      "arf": 1862,
      "arten": 1863,
      "aritÃ¤t": 1864,
      "ĠKl": 1865,
      "ĠKatastrop": 1866,
      "Ġfre": 1867,
      "Ġfindet": 1868,
      "Ġzug": 1869,
      "ĠzustÃ¤nd": 1870,
      "ĠWeg": 1871,
      "ĠWoch": 1872,
      "ĠWahl": 1873,
      "ĠWÃ¤hrung": 1874,
      "ĠWachst": 1875,
      "ĠKom": 1876,
      "Ġgeb": 1877,
      "Ġgeehrte": 1878,
      "ĠMal": 1879,
      "ĠMehr": 1880,
      "ĠFeb": 1881,
      "ĠVielen": 1882,
      "Ġkomp": 1883,
      "egiti": 1884,
      "Ġaufmerksam": 1885,
      "ierte": 1886,
      "ierungen": 1887,
      "Ġgar": 1888,
      "Ġgern": 1889,
      "Ġerreich": 1890,
      "ehe": 1891,
      "ĠZw": 1892,
      "ĠZum": 1893,
      "ĠZwei": 1894,
      "ĠZunÃ¤chst": 1895,
      "Ġangenommen": 1896,
      "Ġvern": 1897,
      "Ġverst": 1898,
      "Ġverab": 1899,
      "Ġvergangenen": 1900,
      "Ġdeshalb": 1901,
      "ĠBerichte": 1902,
      "Ġstark": 1903,
      "sidi": 1904,
      "ĠTex": 1905,
      "industrie": 1906,
      "ĠBewert": 1907,
      "ĠBevÃ¶lk": 1908,
      "ruar": 1909,
      "ĠProzeÃŁ": 1910,
      "zufÃ¼hren": 1911,
      "ĠÃ¼berhaupt": 1912,
      "ĠAusdruck": 1913,
      "rotz": 1914,
      "Ġoh": 1915,
      "ĠNotwend": 1916,
      "Ġausreichend": 1917,
      "entra": 1918,
      "zif": 1919,
      "euer": 1920,
      "erstra": 1921,
      "Ã¼ng": 1922,
      "ennt": 1923,
      "ĠJetzt": 1924,
      "stimmen": 1925,
      "Ġdarin": 1926,
      "Ġschw": 1927,
      "Ġunterb": 1928,
      "Ġpro": 1929,
      "Ġpoliti": 1930,
      "Ġposi": 1931,
      "Ġprak": 1932,
      "ĠFrauen": 1933,
      "ĠkÃ¶nn": 1934,
      "Ġsollen": 1935,
      "Ġbereit": 1936,
      "gelt": 1937,
      "ffe": 1938,
      "rang": 1939,
      "stimmt": 1940,
      "Ġbetreffen": 1941,
      "Ġjeder": 1942,
      "gebot": 1943,
      "Ġhinweisen": 1944,
      "Ġhingewiesen": 1945,
      "essour": 1946,
      "fÃ¼hrt": 1947,
      "Ġgemacht": 1948,
      "ufig": 1949,
      "Ġgenommen": 1950,
      "same": 1951,
      "hÃ¤lt": 1952,
      "Ġrela": 1953,
      "ekten": 1954,
      "ikation": 1955,
      "Ã¤chlich": 1956,
      "Ã¤chsten": 1957,
      "ĠBereiche": 1958,
      "ĠBereichen": 1959,
      "trags": 1960,
      "Ġandere": 1961,
      "pfung": 1962,
      "ĠMarktwirtschaft": 1963,
      "ĠAufmerksam": 1964,
      "dings": 1965,
      "ĠbeglÃ¼ckwÃ¼n": 1966,
      "assung": 1967,
      "asserstra": 1968,
      "gemessen": 1969,
      "ĠForsch": 1970,
      "Ġbestehen": 1971,
      "frage": 1972,
      "Ġeigenen": 1973,
      "veau": 1974,
      "Ġbitten": 1975,
      "Ġbisher": 1976,
      "ĠMonopol": 1977,
      "Ġgleichzeitig": 1978,
      "Ġhoffe": 1979,
      "ĠEntscheidungen": 1980,
      "dustrie": 1981,
      "Ã¤tigkeit": 1982,
      "Ġsolche": 1983,
      "ĠStahlindustrie": 1984,
      "ĠRegeln": 1985,
      "ĠRegelungen": 1986,
      "zentra": 1987,
      "ĠGesellschaft": 1988,
      "Ġeigentlich": 1989,
      "suchen": 1990,
      "sitzen": 1991,
      "zeichne": 1992,
      "Ġgerecht": 1993,
      "konom": 1994,
      "Ġihn": 1995,
      "Ġbestimmten": 1996,
      "ĠAngelegenheit": 1997,
      "ĠAusbildung": 1998,
      "Ġentwickelten": 1999,
      "Ġakzep": 2000,
      "Ġziehen": 2001,
      "Ġfolgt": 2002,
      "ĠAbgeordneten": 2003,
      "Ġeffek": 2004,
      "zusetzen": 2005,
      "Ġbesser": 2006,
      "raucher": 2007,
      "Ġglaube": 2008,
      "ĠgrÃ¶ÃŁ": 2009,
      "ĠSicherheitsberater": 2010,
      "ĠBemer": 2011,
      "ĠBefÃ¶rderung": 2012,
      "Ġeindeutig": 2013,
      "Ġstellt": 2014,
      "roffenen": 2015,
      "ĠPartner": 2016,
      "Fraktion": 2017,
      "hase": 2018,
      "ĠWoche": 2019,
      "ĠFebruar": 2020,
      "ĠBewertung": 2021,
      "ĠNotwendigkeit": 2022,
      "essourcen": 2023,
      "ĠAufmerksamkeit": 2024,
      "IP": 2025,
      "age": 2026,
      "ate": 2027,
      "dlich": 2028,
      "dlichen": 2029,
      "eck": 2030,
      "fel": 2031,
      "fiz": 2032,
      "gung": 2033,
      "hungen": 2034,
      "heb": 2035,
      "im": 2036,
      "iber": 2037,
      "iff": 2038,
      "ister": 2039,
      "liz": 2040,
      "min": 2041,
      "net": 2042,
      "nÃ¶": 2043,
      "sk": 2044,
      "tin": 2045,
      "uten": 2046,
      "uar": 2047,
      "uchen": 2048,
      "wor": 2049,
      "wasserstra": 2050,
      "yst": 2051,
      "ziel": 2052,
      "ĠÃ¤ndern": 2053,
      "enden": 2054,
      "Ġdrei": 2055,
      "unsch": 2056,
      "unter": 2057,
      "unikation": 2058,
      "ichtet": 2059,
      "ingt": 2060,
      "ĠwÃ¼n": 2061,
      "gehen": 2062,
      "Ã¤l": 2063,
      "schw": 2064,
      "schuÃŁ": 2065,
      "einbar": 2066,
      "Ġsei": 2067,
      "Ġsorgen": 2068,
      "Ġdabei": 2069,
      "org": 2070,
      "orm": 2071,
      "ange": 2072,
      "anuar": 2073,
      "Ġzentra": 2074,
      "Ġbeit": 2075,
      "Ġeinheit": 2076,
      "Ġeingeb": 2077,
      "Ġeinfach": 2078,
      "ĠSe": 2079,
      "ĠSp": 2080,
      "ĠSicht": 2081,
      "ĠSelbst": 2082,
      "ĠBr": 2083,
      "gende": 2084,
      "raft": 2085,
      "rachten": 2086,
      "denken": 2087,
      "denverkehr": 2088,
      "eitung": 2089,
      "eiterung": 2090,
      "dert": 2091,
      "ĠEm": 2092,
      "ĠEvan": 2093,
      "ĠPf": 2094,
      "ĠPlen": 2095,
      "ĠPlanung": 2096,
      "ĠPeriod": 2097,
      "ĠPunkte": 2098,
      "arbei": 2099,
      "arbeiten": 2100,
      "Ġinnerhalb": 2101,
      "ĠKarte": 2102,
      "Ġfort": 2103,
      "ĠfrÃ¼": 2104,
      "ĠDi": 2105,
      "ĠDaten": 2106,
      "ĠDisk": 2107,
      "ember": 2108,
      "emdenverkehr": 2109,
      "ets": 2110,
      "ĠWunsch": 2111,
      "ĠFÃ¤": 2112,
      "ĠFÃ¼r": 2113,
      "ĠFest": 2114,
      "ĠFlexi": 2115,
      "ĠkÃ¼nftig": 2116,
      "Ġkriti": 2117,
      "ĠHaupt": 2118,
      "laut": 2119,
      "Ġgut": 2120,
      "Ġgrunds": 2121,
      "ĠGrÃ¼n": 2122,
      "achsen": 2123,
      "Ġerg": 2124,
      "Ġerhalten": 2125,
      "Ġangemessen": 2126,
      "Ġverm": 2127,
      "Ġverweisen": 2128,
      "igkeiten": 2129,
      "ĠLÃ¶s": 2130,
      "Ġbesch": 2131,
      "ĠbefÃ¼r": 2132,
      "ĠBerÃ¼cks": 2133,
      "Ġlang": 2134,
      "Ġstellen": 2135,
      "Ġsteht": 2136,
      "ĠstÃ¤d": 2137,
      "twurf": 2138,
      "uropÃ¤ischen": 2139,
      "Ġvorzulegen": 2140,
      "Ġvorrang": 2141,
      "ĠFragen": 2142,
      "ĠTer": 2143,
      "ĠBek": 2144,
      "ĠBeschl": 2145,
      "ĠAngleich": 2146,
      "ĠAnaly": 2147,
      "ungsvor": 2148,
      "ĠProj": 2149,
      "ĠProdu": 2150,
      "ĠProdi": 2151,
      "ĠErreich": 2152,
      "ĠErhÃ¶": 2153,
      "Ġumgesetzt": 2154,
      "ĠjÃ¼ng": 2155,
      "rist": 2156,
      "Ġmeinem": 2157,
      "Ġ15": 2158,
      "sagt": 2159,
      "ĠJanuar": 2160,
      "ĠAuff": 2161,
      "Ġschwer": 2162,
      "gesehen": 2163,
      "fordern": 2164,
      "Ġallein": 2165,
      "reiche": 2166,
      "Ġrichtig": 2167,
      "Ġtats": 2168,
      "Ġtrotz": 2169,
      "Ġentscheiden": 2170,
      "ichtigung": 2171,
      "runde": 2172,
      "stellten": 2173,
      "ĠÃĦnderungsvor": 2174,
      "lob": 2175,
      "losen": 2176,
      "ĠbetrÃ¤": 2177,
      "Ġbetroffenen": 2178,
      "ĠKollege": 2179,
      "ĠProgrammp": 2180,
      "oku": 2181,
      "Ġhinaus": 2182,
      "ĠFraktionen": 2183,
      "bare": 2184,
      "baren": 2185,
      "folge": 2186,
      "Ġweiteren": 2187,
      "ĠKommissarin": 2188,
      "beihilfen": 2189,
      "schland": 2190,
      "ĠLassen": 2191,
      "ika": 2192,
      "heben": 2193,
      "Ġvielen": 2194,
      "ĠProblemen": 2195,
      "ritori": 2196,
      "ĠeuropÃ¤ische": 2197,
      "Ġwirtschaftliche": 2198,
      "ĠMarktes": 2199,
      "Ã¤ÃŁt": 2200,
      "ĠBÃ¼rokra": 2201,
      "ĠMeine": 2202,
      "bilitÃ¤t": 2203,
      "sterreich": 2204,
      "ĠForm": 2205,
      "ĠVerbraucher": 2206,
      "Ġausgezeichne": 2207,
      "Ġbefassen": 2208,
      "vesti": 2209,
      "Ġbedarf": 2210,
      "formation": 2211,
      "ĠBÃ¼rgern": 2212,
      "ĠArbeitsplÃ¤tzen": 2213,
      "ĠDeut": 2214,
      "Ġgestern": 2215,
      "ĠBinnenwasserstra": 2216,
      "ĠhÃ¤tten": 2217,
      "Ġkomme": 2218,
      "Ġstehenden": 2219,
      "mitteln": 2220,
      "teilung": 2221,
      "ĠErgebnis": 2222,
      "ĠErgebnisse": 2223,
      "Ġerinnern": 2224,
      "Ġnachhaltigen": 2225,
      "ĠÃĸsterreich": 2226,
      "Ġallerdings": 2227,
      "Ġvorliegenden": 2228,
      "ĠunterstÃ¼tzen": 2229,
      "mÃ¤ÃŁig": 2230,
      "unktionieren": 2231,
      "ĠVertrauen": 2232,
      "ĠNutzung": 2233,
      "Ġkonnte": 2234,
      "ĠFremdenverkehr": 2235,
      "Ġverschiedenen": 2236,
      "Ġumfassen": 2237,
      "Ġspezif": 2238,
      "ĠKontrolle": 2239,
      "ĠInstitutionen": 2240,
      "ĠSozialdemokratischen": 2241,
      "ĠSubsidi": 2242,
      "kodex": 2243,
      "Ġbekannt": 2244,
      "COS": 2245,
      "schnit": 2246,
      "ĠGrundsatz": 2247,
      "ĠVerzÃ¶": 2248,
      "Ġbedeutet": 2249,
      "ĠArmut": 2250,
      "ĠEnergie": 2251,
      "ĠDienstleist": 2252,
      "Ġtechn": 2253,
      "Ã¼sse": 2254,
      "Ġohne": 2255,
      "ystem": 2256,
      "ĠEvans": 2257,
      "ĠFlexibilitÃ¤t": 2258,
      "ĠgrundsÃ¤tz": 2259,
      "ĠBerÃ¼cksichtigung": 2260,
      "ĠAnalyse": 2261,
      "ĠErhÃ¶hung": 2262,
      "ĠtatsÃ¤chlich": 2263,
      "ĠBÃ¼rokratie": 2264,
      "ĠSubsidiaritÃ¤t": 2265,
      "Das": 2266,
      "EG": 2267,
      "KO": 2268,
      "ay": 2269,
      "axi": 2270,
      "da": 2271,
      "des": 2272,
      "dliche": 2273,
      "fte": 2274,
      "fell": 2275,
      "falt": 2276,
      "gri": 2277,
      "gabe": 2278,
      "hend": 2279,
      "heren": 2280,
      "hner": 2281,
      "jen": 2282,
      "ktiv": 2283,
      "lÃ¤": 2284,
      "leg": 2285,
      "ligen": 2286,
      "letzt": 2287,
      "nel": 2288,
      "ogenen": 2289,
      "periode": 2290,
      "sw": 2291,
      "sol": 2292,
      "tan": 2293,
      "tret": 2294,
      "ugend": 2295,
      "von": 2296,
      "volle": 2297,
      "wand": 2298,
      "zer": 2299,
      "zeu": 2300,
      "zahl": 2301,
      "Ġ5": 2302,
      "Ġeh": 2303,
      "enken": 2304,
      "erien": 2305,
      "eim": 2306,
      "eite": 2307,
      "eiden": 2308,
      "eihe": 2309,
      "unsten": 2310,
      "unnel": 2311,
      "strateg": 2312,
      "Ġdiejen": 2313,
      "inge": 2314,
      "onen": 2315,
      "gessen": 2316,
      "Ã¤um": 2317,
      "Ġderen": 2318,
      "Ġderar": 2319,
      "Ġunbe": 2320,
      "ĠunnÃ¶": 2321,
      "Ġsehen": 2322,
      "ĠsÃ¤m": 2323,
      "Ġsehe": 2324,
      "Ġdavon": 2325,
      "anden": 2326,
      "Ġvielleicht": 2327,
      "Ġmacht": 2328,
      "tent": 2329,
      "Ġbra": 2330,
      "Ġbesondere": 2331,
      "Ġeinig": 2332,
      "Ġeinzu": 2333,
      "ĠAll": 2334,
      "ĠSehr": 2335,
      "ĠSech": 2336,
      "ĠSache": 2337,
      "Ġneg": 2338,
      "ĠnÃ¤chsten": 2339,
      "ĠEigen": 2340,
      "ĠEisen": 2341,
      "arum": 2342,
      "altet": 2343,
      "alisierung": 2344,
      "Ġindem": 2345,
      "ssetz": 2346,
      "ĠKapital": 2347,
      "Ġfeh": 2348,
      "ĠfÃ¶r": 2349,
      "ĠDenn": 2350,
      "Ġhei": 2351,
      "ionen": 2352,
      "emp": 2353,
      "eta": 2354,
      "Ã¶konom": 2355,
      "ĠWog": 2356,
      "ĠRÃ¼ck": 2357,
      "ĠRessourcen": 2358,
      "ĠReihe": 2359,
      "ĠKosten": 2360,
      "Ġgebe": 2361,
      "Ġgesam": 2362,
      "Ġgeschaffen": 2363,
      "Ġgeschlossen": 2364,
      "Ġgesagt": 2365,
      "ĠMin": 2366,
      "ĠMir": 2367,
      "ĠMÃ¤rk": 2368,
      "ĠFÃ¼nf": 2369,
      "ĠIde": 2370,
      "tert": 2371,
      "ĠPresse": 2372,
      "ĠGen": 2373,
      "achten": 2374,
      "Ġerlau": 2375,
      "ĠerklÃ¤r": 2376,
      "Ġerheb": 2377,
      "ĠUhr": 2378,
      "ehnt": 2379,
      "spunkt": 2380,
      "Ġanzu": 2381,
      "Ġversch": 2382,
      "Ġverlan": 2383,
      "Ġverurs": 2384,
      "ĠVers": 2385,
      "ĠVerfÃ¼": 2386,
      "ĠVerhand": 2387,
      "ĠVertret": 2388,
      "iglich": 2389,
      "Ġdessen": 2390,
      "Ġbean": 2391,
      "Ġbezie": 2392,
      "ĠBerend": 2393,
      "rete": 2394,
      "regel": 2395,
      "Ġwerte": 2396,
      "ĠUnzu": 2397,
      "Ġled": 2398,
      "Ġlegiti": 2399,
      "tigt": 2400,
      "schaften": 2401,
      "ĠStaat": 2402,
      "ĠStad": 2403,
      "Ġstets": 2404,
      "twoch": 2405,
      "Ġvorlegen": 2406,
      "Ġvorgelegt": 2407,
      "Ġvorgesehen": 2408,
      "ĠTats": 2409,
      "isierungs": 2410,
      "indung": 2411,
      "ĠBezie": 2412,
      "ĠAngebot": 2413,
      "ienti": 2414,
      "Ġbeige": 2415,
      "Ġbeispiel": 2416,
      "ĠIniti": 2417,
      "ĠInhalt": 2418,
      "ĠIndik": 2419,
      "ĠIndustrie": 2420,
      "ĠInformation": 2421,
      "zustellen": 2422,
      "ĠNun": 2423,
      "ĠNie": 2424,
      "ĠNatur": 2425,
      "ĠErn": 2426,
      "Ã¤tzen": 2427,
      "ĠausschlieÃŁ": 2428,
      "ĠPartei": 2429,
      "ĠMittwoch": 2430,
      "Ġhatten": 2431,
      "weis": 2432,
      "weiligen": 2433,
      "Ã¼nsch": 2434,
      "gere": 2435,
      "gern": 2436,
      "Ġihres": 2437,
      "Ġmeines": 2438,
      "ĠVorgaben": 2439,
      "ĠVorsitzen": 2440,
      "ĠGeschÃ¤": 2441,
      "stens": 2442,
      "ĠRede": 2443,
      "ĠReform": 2444,
      "ĠJugend": 2445,
      "ĠAbsatz": 2446,
      "sequ": 2447,
      "Ġexp": 2448,
      "stigen": 2449,
      "ĠAugen": 2450,
      "lex": 2451,
      "Ã¶rden": 2452,
      "annten": 2453,
      "ĠprÃ¼": 2454,
      "Ã¤ren": 2455,
      "Ã¤rken": 2456,
      "ĠZielsetzung": 2457,
      "Ġseinem": 2458,
      "Ġteil": 2459,
      "geleg": 2460,
      "zept": 2461,
      "Ġentschieden": 2462,
      "Ġabzu": 2463,
      "ĠEine": 2464,
      "ĠEinfÃ¼hrung": 2465,
      "vorhaben": 2466,
      "Ġmehrere": 2467,
      "Ġmehrfach": 2468,
      "Ġjeweiligen": 2469,
      "reite": 2470,
      "reibt": 2471,
      "stete": 2472,
      "forderung": 2473,
      "Ġ20": 2474,
      "ĠWettbewerbsbericht": 2475,
      "Ġgewiss": 2476,
      "ĠgewÃ¼nsch": 2477,
      "Ġkonst": 2478,
      "Ã¤hnt": 2479,
      "Ġgenehm": 2480,
      "Ġkeinen": 2481,
      "spolitiken": 2482,
      "ikan": 2483,
      "ĠZustimmung": 2484,
      "ĠZeitpunkt": 2485,
      "ĠlÃ¤ndliche": 2486,
      "ĠRichtung": 2487,
      "ĠIhrer": 2488,
      "achteil": 2489,
      "ult": 2490,
      "gewicht": 2491,
      "Ġgemeinsame": 2492,
      "altung": 2493,
      "ĠStraÃŁen": 2494,
      "ĠStrateg": 2495,
      "Ġkleinen": 2496,
      "Ġwichtigsten": 2497,
      "rieben": 2498,
      "ĠgegenÃ¼ber": 2499,
      "ĠForderung": 2500,
      "Ã¤mpfung": 2501,
      "zeitra": 2502,
      "ĠbefaÃŁt": 2503,
      "ĠWieder": 2504,
      "Ġhoffen": 2505,
      "Ġhohen": 2506,
      "ĠRegierung": 2507,
      "ĠRegierungen": 2508,
      "Ġbedau": 2509,
      "egenheit": 2510,
      "ĠWeiÃŁb": 2511,
      "Ġgestaltet": 2512,
      "Ġerwarten": 2513,
      "ĠerwÃ¤hnt": 2514,
      "Ġentspre": 2515,
      "Ġnotwendige": 2516,
      "ĠPolitiken": 2517,
      "zentr": 2518,
      "ĠVereinbar": 2519,
      "sucht": 2520,
      "Ġerinnert": 2521,
      "ĠUngleichheiten": 2522,
      "Ġnachhaltige": 2523,
      "niveau": 2524,
      "richtung": 2525,
      "Ġihm": 2526,
      "Ġgesehen": 2527,
      "ĠGelder": 2528,
      "ĠGelegenheit": 2529,
      "ĠstÃ¤rksten": 2530,
      "ĠAngelegenheiten": 2531,
      "ĠAusbildungs": 2532,
      "ĠErweiterung": 2533,
      "ĠunterstÃ¼tzt": 2534,
      "Ġentwickeln": 2535,
      "Ġentsprechenden": 2536,
      "Ġentsprechende": 2537,
      "fÃ¤lle": 2538,
      "programm": 2539,
      "ĠBehandlung": 2540,
      "ĠDurchfÃ¼hrung": 2541,
      "ĠVertrages": 2542,
      "Ġleider": 2543,
      "Ġvorgeschlagen": 2544,
      "ĠNutzen": 2545,
      "Ġkonnten": 2546,
      "ĠZusammenhalts": 2547,
      "ĠGefahrguttransport": 2548,
      "ĠGefahrguttransporte": 2549,
      "ĠQualitÃ¤t": 2550,
      "ĠgehÃ¶rt": 2551,
      "ĠgehÃ¶ren": 2552,
      "Ġernst": 2553,
      "ĠInseln": 2554,
      "drÃ¼ck": 2555,
      "immt": 2556,
      "verstÃ¤nd": 2557,
      "Ġwelche": 2558,
      "Ġbenachteil": 2559,
      "Ġbleibt": 2560,
      "ĠhÃ¤ufig": 2561,
      "ĠHilfe": 2562,
      "ĠVerwaltungs": 2563,
      "izienz": 2564,
      "kommt": 2565,
      "prÃ¼ft": 2566,
      "Ġwider": 2567,
      "ĠEffizienz": 2568,
      "Ġallgemeinen": 2569,
      "ĠChancen": 2570,
      "ĠwettbewerbsfÃ¤h": 2571,
      "Ġsinnvoll": 2572,
      "Ġbringen": 2573,
      "ĠKatastrophe": 2574,
      "ĠWahlperiode": 2575,
      "ĠWachstum": 2576,
      "Ġerreicht": 2577,
      "ĠvernÃ¼nftig": 2578,
      "enntnis": 2579,
      "Ġpolitischen": 2580,
      "ĠbeglÃ¼ckwÃ¼nschen": 2581,
      "ĠForschung": 2582,
      "ĠBemerkungen": 2583,
      "arbeitet": 2584,
      "ĠKartell": 2585,
      "ĠDiskuss": 2586,
      "ĠGrÃ¼nde": 2587,
      "ĠbefÃ¼rwor": 2588,
      "ĠstÃ¤dtischen": 2589,
      "ĠBekÃ¤mpfung": 2590,
      "ĠBeschlÃ¼sse": 2591,
      "ĠAngleichung": 2592,
      "ĠErreichung": 2593,
      "ĠAuffassung": 2594,
      "ĠÃĦnderungsvorschlÃ¤ge": 2595,
      "ĠbetrÃ¤cht": 2596,
      "okument": 2597,
      "ĠDeutschland": 2598,
      "KOM": 2599,
      "fellos": 2600,
      "Ġeher": 2601,
      "Ġdiejenigen": 2602,
      "ĠfÃ¶rdern": 2603,
      "ĠWogau": 2604,
      "Ġerheblich": 2605,
      "ĠVerhandlungen": 2606,
      "Ġlediglich": 2607,
      "Ġlegitim": 2608,
      "ĠTatsache": 2609,
      "Ġbeispielsweise": 2610,
      "ĠIndikat": 2611,
      "ĠGeschÃ¤ft": 2612,
      "ĠprÃ¼fen": 2613,
      "ĠWeiÃŁbuch": 2614,
      "II": 2615,
      "Ver": 2616,
      "ac": 2617,
      "aut": 2618,
      "bzeit": 2619,
      "ce": 2620,
      "don": 2621,
      "dingt": 2622,
      "frei": 2623,
      "fang": 2624,
      "finden": 2625,
      "gÃ¼": 2626,
      "id": 2627,
      "ium": 2628,
      "izep": 2629,
      "katastrop": 2630,
      "kay": 2631,
      "ler": 2632,
      "lungs": 2633,
      "lick": 2634,
      "lÃ¤nder": 2635,
      "lÃ¤u": 2636,
      "mehr": 2637,
      "maÃŁ": 2638,
      "maÃŁnahmen": 2639,
      "netz": 2640,
      "nern": 2641,
      "normen": 2642,
      "ov": 2643,
      "ox": 2644,
      "pte": 2645,
      "pkay": 2646,
      "ron": 2647,
      "rÃ¤siden": 2648,
      "reiten": 2649,
      "resp": 2650,
      "sin": 2651,
      "san": 2652,
      "sieren": 2653,
      "seits": 2654,
      "sÃ¤tz": 2655,
      "tl": 2656,
      "taus": 2657,
      "umen": 2658,
      "uft": 2659,
      "win": 2660,
      "wÃ¼r": 2661,
      "weg": 2662,
      "wÃ¤r": 2663,
      "zunehmen": 2664,
      "zember": 2665,
      "³n": 2666,
      "Ã³n": 2667,
      "Ġ3": 2668,
      "Ġung": 2669,
      "Ġter": 2670,
      "Ġel": 2671,
      "ĠÃ¤r": 2672,
      "ende": 2673,
      "erte": 2674,
      "erungs": 2675,
      "chend": 2676,
      "Ġdrin": 2677,
      "eider": 2678,
      "eisten": 2679,
      "eisen": 2680,
      "eigerung": 2681,
      "ies": 2682,
      "staat": 2683,
      "onck": 2684,
      "Ġweder": 2685,
      "Ġachten": 2686,
      "gestellten": 2687,
      "Ã¤den": 2688,
      "Ġunrecht": 2689,
      "eint": 2690,
      "eintrÃ¤": 2691,
      "Ġsach": 2692,
      "Ġsech": 2693,
      "eswegen": 2694,
      "timmen": 2695,
      "Ġdagegen": 2696,
      "orge": 2697,
      "orten": 2698,
      "Ġzerst": 2699,
      "Ġzahl": 2700,
      "Ġzunehmen": 2701,
      "ĠmÃ¼n": 2702,
      "ĠmaÃŁ": 2703,
      "Ġmaxi": 2704,
      "Ġmeisten": 2705,
      "ĠeinrÃ¤": 2706,
      "Ġeiniger": 2707,
      "Ġeinverst": 2708,
      "ĠAgra": 2709,
      "llt": 2710,
      "ĠSri": 2711,
      "ĠSeite": 2712,
      "ĠBes": 2713,
      "ĠBIP": 2714,
      "ĠBlick": 2715,
      "rad": 2716,
      "rat": 2717,
      "Ġnut": 2718,
      "ĠnÃ¶r": 2719,
      "Ġnehmen": 2720,
      "Ġnimmt": 2721,
      "derungen": 2722,
      "ĠEG": 2723,
      "ĠPo": 2724,
      "ĠPal": 2725,
      "ĠPers": 2726,
      "arischen": 2727,
      "arlament": 2728,
      "alsch": 2729,
      "alten": 2730,
      "albzeit": 2731,
      "ĠKÃ¶n": 2732,
      "ĠKrit": 2733,
      "ĠKraft": 2734,
      "ĠKenntnis": 2735,
      "Ġfrei": 2736,
      "Ġfinden": 2737,
      "Ġflexi": 2738,
      "Ġfalsch": 2739,
      "ĠDar": 2740,
      "ĠDinge": 2741,
      "ĠDokument": 2742,
      "ĠDeswegen": 2743,
      "Ġhoch": 2744,
      "Ġzuge": 2745,
      "Ġzukommt": 2746,
      "ĠzusÃ¤tz": 2747,
      "ĠWelt": 2748,
      "ĠWarum": 2749,
      "ĠRande": 2750,
      "ĠKodex": 2751,
      "Ġgek": 2752,
      "Ġgesch": 2753,
      "Ġgelin": 2754,
      "Ġgetan": 2755,
      "atten": 2756,
      "ĠMan": 2757,
      "ĠMill": 2758,
      "ĠFol": 2759,
      "ĠFre": 2760,
      "ĠFern": 2761,
      "ĠFort": 2762,
      "ĠFrist": 2763,
      "ĠVizep": 2764,
      "Ġko": 2765,
      "ĠHand": 2766,
      "ĠHalbzeit": 2767,
      "egis": 2768,
      "bereitung": 2769,
      "teren": 2770,
      "terventionen": 2771,
      "lagerung": 2772,
      "iere": 2773,
      "ierigkeiten": 2774,
      "isches": 2775,
      "ĠGren": 2776,
      "ĠGrunde": 2777,
      "Ġsomit": 2778,
      "ĠerÃ¶r": 2779,
      "Ġerfolg": 2780,
      "Ġerreichen": 2781,
      "ĠerhÃ¶": 2782,
      "splan": 2783,
      "speriode": 2784,
      "ĠKommunikation": 2785,
      "Ġangew": 2786,
      "Ġanschein": 2787,
      "Ġverk": 2788,
      "Ġverfol": 2789,
      "Ġverpf": 2790,
      "Ġverhin": 2791,
      "Ġvergessen": 2792,
      "ĠVerordnung": 2793,
      "ĠVerfahren": 2794,
      "ĠLie": 2795,
      "ĠLank": 2796,
      "ĠLiber": 2797,
      "Ġbew": 2798,
      "Ġbevor": 2799,
      "Ġbedeut": 2800,
      "ĠBereit": 2801,
      "opf": 2802,
      "opp": 2803,
      "Ã¤nde": 2804,
      "ĠHerzen": 2805,
      "ĠlÃ¤ÃŁt": 2806,
      "ĠStÃ¼r": 2807,
      "ĠSteigerung": 2808,
      "Ġstruktur": 2809,
      "ĠstÃ¤nd": 2810,
      "asis": 2811,
      "Ġvorher": 2812,
      "ĠTo": 2813,
      "ĠTran": 2814,
      "ĠTÃ¤tigkeit": 2815,
      "ĠTunnel": 2816,
      "ĠTemp": 2817,
      "ĠAngesichts": 2818,
      "ĠAnreg": 2819,
      "Ġmittel": 2820,
      "Ġmittl": 2821,
      "Ġbeide": 2822,
      "ĠIntern": 2823,
      "rupp": 2824,
      "ĠÃ¼berw": 2825,
      "Ġsicherst": 2826,
      "ĠAusfÃ¼hr": 2827,
      "Ġoste": 2828,
      "ĠNur": 2829,
      "ĠNicht": 2830,
      "ĠNation": 2831,
      "ĠNatÃ¼rlich": 2832,
      "ĠNorm": 2833,
      "ĠErfahr": 2834,
      "Ã¤tze": 2835,
      "Ġausger": 2836,
      "Ġausgew": 2837,
      "Ġjeg": 2838,
      "euerung": 2839,
      "ĠSchwer": 2840,
      "ĠSchul": 2841,
      "ĠSchÃ¤den": 2842,
      "aussetz": 2843,
      "Ã¼nst": 2844,
      "gert": 2845,
      "ĠVorstellung": 2846,
      "ĠVorschlÃ¤ge": 2847,
      "ĠVoraussetz": 2848,
      "ĠGest": 2849,
      "Ġ12": 2850,
      "Ġ18": 2851,
      "ĠRed": 2852,
      "ĠJonck": 2853,
      "ĠAbsicht": 2854,
      "ĠAbschluÃŁ": 2855,
      "ĠArbeitsplan": 2856,
      "stige": 2857,
      "Ġdarstellen": 2858,
      "Ã¶rt": 2859,
      "Ġunternommen": 2860,
      "hilfe": 2861,
      "Ġpa": 2862,
      "Ġpers": 2863,
      "Ġparlament": 2864,
      "formen": 2865,
      "anzÃ¶s": 2866,
      "ĠEntwicklungs": 2867,
      "ĠZielen": 2868,
      "Ġrichtige": 2869,
      "Ġberaten": 2870,
      "Ġtreten": 2871,
      "ĠtÃ¤tig": 2872,
      "Ġtreffen": 2873,
      "verb": 2874,
      "Ġentspr": 2875,
      "Ġentgegen": 2876,
      "Ġdurchschnit": 2877,
      "Ġabgesetzt": 2878,
      "Ã¤hrungs": 2879,
      "Ġnochmals": 2880,
      "wirken": 2881,
      "rÃ¤gt": 2882,
      "ĠProgramms": 2883,
      "reiben": 2884,
      "gebaut": 2885,
      "Ġsozio": 2886,
      "barg": 2887,
      "Ġ25": 2888,
      "essan": 2889,
      "ĠZusÃ¤tz": 2890,
      "ĠWettbewerbsrecht": 2891,
      "ĠWettbewerbsbedingungen": 2892,
      "ĠgewÃ¤hr": 2893,
      "ĠUmstruktur": 2894,
      "Ġweitere": 2895,
      "Ġweiterer": 2896,
      "ĠCresp": 2897,
      "Ġkonzentr": 2898,
      "Ã¤hlt": 2899,
      "Ġgenannten": 2900,
      "ĠLadung": 2901,
      "Ġheutigen": 2902,
      "ĠZustÃ¤nd": 2903,
      "Ġregionale": 2904,
      "Ġregionaler": 2905,
      "abil": 2906,
      "schlieÃŁen": 2907,
      "schlieÃŁung": 2908,
      "Ġzweifellos": 2909,
      "gleichheit": 2910,
      "heer": 2911,
      "ĠgroÃŁ": 2912,
      "Ã¶rdert": 2913,
      "pfeh": 2914,
      "pflicht": 2915,
      "ritte": 2916,
      "haltung": 2917,
      "ĠArbeitslosen": 2918,
      "gewichte": 2919,
      "ĠStelle": 2920,
      "ĠStellen": 2921,
      "trÃ¤gen": 2922,
      "ĠbegrÃ¼n": 2923,
      "asser": 2924,
      "ĠRaums": 2925,
      "ĠRapkay": 2926,
      "bildung": 2927,
      "rieb": 2928,
      "ĠOffen": 2929,
      "ĠgegenwÃ¤r": 2930,
      "ĠForderungen": 2931,
      "Ġebenfalls": 2932,
      "splÃ¤n": 2933,
      "Ġ1997": 2934,
      "fragen": 2935,
      "Ġausgehen": 2936,
      "Ġausgesprochen": 2937,
      "echsel": 2938,
      "ĠLandes": 2939,
      "gebenen": 2940,
      "Ġeingegangen": 2941,
      "ĠGemeinsamen": 2942,
      "ĠRegister": 2943,
      "Ġletztendlich": 2944,
      "teilen": 2945,
      "ĠDezember": 2946,
      "Ġaufgefordert": 2947,
      "Ġaufgegri": 2948,
      "utzt": 2949,
      "ĠRates": 2950,
      "Ġsolch": 2951,
      "quellen": 2952,
      "ĠDieser": 2953,
      "vention": 2954,
      "erseits": 2955,
      "andelt": 2956,
      "ĠVereinigten": 2957,
      "ĠÃľberein": 2958,
      "ĠBetracht": 2959,
      "ĠUngleichgewichte": 2960,
      "ĠÃĸffent": 2961,
      "Ġrechtzeitig": 2962,
      "leistet": 2963,
      "Ġdiskutiert": 2964,
      "akten": 2965,
      "ĠSektoren": 2966,
      "ĠZeitraums": 2967,
      "ĠBehÃ¶rden": 2968,
      "Ġleisten": 2969,
      "Ġstrategischen": 2970,
      "Ġstrategische": 2971,
      "ĠSchwierigkeiten": 2972,
      "Ġeffizien": 2973,
      "lÃ¤ngerung": 2974,
      "Ġnieder": 2975,
      "sprogramm": 2976,
      "Ġumfang": 2977,
      "Ġunterschiedlichen": 2978,
      "Ġspezie": 2979,
      "ĠStellungnahmen": 2980,
      "ĠStellungnahme": 2981,
      "ĠInstitution": 2982,
      "ĠBinnenmarktes": 2983,
      "Ġverbessern": 2984,
      "ĠSitzungsperiode": 2985,
      "Ġbleiben": 2986,
      "ĠAspekt": 2987,
      "ĠBeginn": 2988,
      "ĠFinanzierung": 2989,
      "ologien": 2990,
      "ĠHerausforderungen": 2991,
      "ĠHerausforderung": 2992,
      "Ġkonkret": 2993,
      "ĠOrgan": 2994,
      "Ġoptimalen": 2995,
      "ĠLebensbedingungen": 2996,
      "Ġ94": 2997,
      "Ġarmen": 2998,
      "ĠPosition": 2999,
      "ĠPositionen": 3000,
      "ĠMindestnormen": 3001,
      "ĠUnsere": 3002,
      "Ġunseres": 3003,
      "Ġprivaten": 3004,
      "ĠUmweltschutz": 3005,
      "wohner": 3006,
      "ĠweiÃŁ": 3007,
      "ĠBarÃ³n": 3008,
      "Ġfreue": 3009,
      "Ġzugunsten": 3010,
      "ĠzustÃ¤ndigen": 3011,
      "ĠKomp": 3012,
      "ĠMehrheit": 3013,
      "Ġkompliz": 3014,
      "ĠZweitens": 3015,
      "ĠBevÃ¶lkerung": 3016,
      "ĠkÃ¶nnten": 3017,
      "Ġbetreffend": 3018,
      "Ġrelativen": 3019,
      "ĠMonopole": 3020,
      "Ġakzeptieren": 3021,
      "Ġeinheitliche": 3022,
      "ĠEmpfeh": 3023,
      "ĠPlenum": 3024,
      "ĠPeriodischen": 3025,
      "Ġvermeiden": 3026,
      "ĠLÃ¶sung": 3027,
      "ĠProjekte": 3028,
      "ĠjÃ¼ngsten": 3029,
      "ĠProgrammplanung": 3030,
      "vestitionen": 3031,
      "ĠBinnenwasserstraÃŁen": 3032,
      "strategie": 3033,
      "ĠheiÃŁt": 3034,
      "Ã¶konomische": 3035,
      "Ġgebeten": 3036,
      "ĠMÃ¤rkte": 3037,
      "Ġerlaubt": 3038,
      "ĠVerfÃ¼gung": 3039,
      "ĠStadt": 3040,
      "ĠBeziehungen": 3041,
      "Ġbeigetragen": 3042,
      "ĠNieder": 3043,
      "ĠNaturkatastrop": 3044,
      "sequen": 3045,
      "Ġteilweise": 3046,
      "Ġgewisser": 3047,
      "ultur": 3048,
      "ĠStrategie": 3049,
      "Ġentsprechend": 3050,
      "ĠVereinbarungen": 3051,
      "ĠChancengleichheit": 3052,
      "ĠDiskussion": 3053,
      "ĠbefÃ¼rwortet": 3054,
      "acio": 3055,
      "gÃ¼l": 3056,
      "rÃ¤sidentin": 3057,
      "Ġterritori": 3058,
      "ĠÃ¤rm": 3059,
      "eintrÃ¤ch": 3060,
      "Ġeinverstanden": 3061,
      "ĠAgrar": 3062,
      "ĠPalacio": 3063,
      "ĠKriterien": 3064,
      "Ġgelingt": 3065,
      "ĠVizeprÃ¤sidentin": 3066,
      "egisla": 3067,
      "ĠerÃ¶rtert": 3068,
      "Ġanscheinend": 3069,
      "Ġverpflich": 3070,
      "ĠLanka": 3071,
      "ĠTransit": 3072,
      "Ġsicherstellen": 3073,
      "ĠAusfÃ¼hrungen": 3074,
      "ĠosteuropÃ¤ischen": 3075,
      "ĠJonckheer": 3076,
      "ĠpersÃ¶n": 3077,
      "Ġparlamentarischen": 3078,
      "Ġentspricht": 3079,
      "ĠCrespo": 3080,
      "Ġaufgegriffen": 3081,
      "-,": 3082,
      "20": 3083,
      "40": 3084,
      "AG": 3085,
      "DE": 3086,
      "In": 3087,
      "KS": 3088,
      "Kopf": 3089,
      "PE": 3090,
      "Region": 3091,
      "SE": 3092,
      "VP": 3093,
      "ast": 3094,
      "aum": 3095,
      "affen": 3096,
      "atisch": 3097,
      "bten": 3098,
      "bah": 3099,
      "digen": 3100,
      "dak": 3101,
      "danken": 3102,
      "fl": 3103,
      "fs": 3104,
      "fin": 3105,
      "fung": 3106,
      "fek": 3107,
      "finanz": 3108,
      "fassen": 3109,
      "fikan": 3110,
      "gien": 3111,
      "grÃ¼n": 3112,
      "grupp": 3113,
      "hte": 3114,
      "if": 3115,
      "ite": 3116,
      "immen": 3117,
      "jahr": 3118,
      "jÃ¤hr": 3119,
      "kten": 3120,
      "kreich": 3121,
      "ln": 3122,
      "lÃ¤nd": 3123,
      "leiten": 3124,
      "legt": 3125,
      "mlich": 3126,
      "met": 3127,
      "mber": 3128,
      "mus": 3129,
      "mÃ¶glich": 3130,
      "nÃ¼": 3131,
      "nÃ¤h": 3132,
      "nissen": 3133,
      "osen": 3134,
      "odex": 3135,
      "ofern": 3136,
      "pu": 3137,
      "pfen": 3138,
      "politi": 3139,
      "parte": 3140,
      "paÃŁt": 3141,
      "rbeit": 3142,
      "rÃ¼ck": 3143,
      "ranzÃ¶s": 3144,
      "sd": 3145,
      "sich": 3146,
      "seh": 3147,
      "swer": 3148,
      "sordnung": 3149,
      "siert": 3150,
      "slosigkeit": 3151,
      "skodex": 3152,
      "tung": 3153,
      "tlichen": 3154,
      "ude": 3155,
      "ufen": 3156,
      "ucht": 3157,
      "uisen": 3158,
      "viel": 3159,
      "vis": 3160,
      "wan": 3161,
      "wohl": 3162,
      "wesen": 3163,
      "yn": 3164,
      "yner": 3165,
      "zah": 3166,
      "Âº": 3167,
      "Ġu": 3168,
      "Ġur": 3169,
      "Ġem": 3170,
      "Ġus": 3171,
      "Ġlaufen": 3172,
      "ender": 3173,
      "erf": 3174,
      "erdem": 3175,
      "eratur": 3176,
      "Ġdra": 3177,
      "ĠdrÃ¤n": 3178,
      "Ġdeta": 3179,
      "undert": 3180,
      "iet": 3181,
      "stet": 3182,
      "storen": 3183,
      "steuer": 3184,
      "inst": 3185,
      "inus": 3186,
      "inger": 3187,
      "inute": 3188,
      "investitionen": 3189,
      "Ġwahr": 3190,
      "Ġweshalb": 3191,
      "ĠwÃ¤ren": 3192,
      "gesch": 3193,
      "gesam": 3194,
      "gefÃ¼hrt": 3195,
      "gehend": 3196,
      "Ã¤tigen": 3197,
      "Ã¤storen": 3198,
      "scher": 3199,
      "schan": 3200,
      "schul": 3201,
      "Ã¼ht": 3202,
      "Ġunein": 3203,
      "Ġunzu": 3204,
      "Ġunver": 3205,
      "Ġunmittel": 3206,
      "Ġsig": 3207,
      "Ġseiten": 3208,
      "Ġsuchen": 3209,
      "esung": 3210,
      "esien": 3211,
      "esweg": 3212,
      "tik": 3213,
      "orienti": 3214,
      "angen": 3215,
      "ander": 3216,
      "anforderungen": 3217,
      "Ġzeit": 3218,
      "Ġmen": 3219,
      "Ġminus": 3220,
      "tensi": 3221,
      "Ġbes": 3222,
      "Ġbal": 3223,
      "Ġbem": 3224,
      "ĠbÃ¼r": 3225,
      "Ġeinh": 3226,
      "Ġeinbe": 3227,
      "Ġeinzi": 3228,
      "Ġeinger": 3229,
      "Ġeinstimm": 3230,
      "ĠeinschlieÃŁ": 3231,
      "ure": 3232,
      "ĠAuÃŁ": 3233,
      "ĠAls": 3234,
      "ĠAktiv": 3235,
      "llig": 3236,
      "ĠSan": 3237,
      "ĠSoll": 3238,
      "ĠSorge": 3239,
      "ĠSyner": 3240,
      "ĠBo": 3241,
      "ĠBund": 3242,
      "ĠBasis": 3243,
      "rachte": 3244,
      "ragend": 3245,
      "rarbeit": 3246,
      "Ġnennen": 3247,
      "lichem": 3248,
      "irekt": 3249,
      "eiter": 3250,
      "ĠES": 3251,
      "ĠEind": 3252,
      "ĠEVP": 3253,
      "ĠErarbeit": 3254,
      "ĠPlan": 3255,
      "ĠPPE": 3256,
      "ard": 3257,
      "artet": 3258,
      "Ġinter": 3259,
      "Ġinteg": 3260,
      "Ġintern": 3261,
      "Ġinfolge": 3262,
      "ssel": 3263,
      "ssystem": 3264,
      "itÃ¤r": 3265,
      "ĠKunden": 3266,
      "Ġfall": 3267,
      "Ġfunktionieren": 3268,
      "ĠfranzÃ¶s": 3269,
      "ĠDen": 3270,
      "ĠDau": 3271,
      "ĠDuisen": 3272,
      "Ġhe": 3273,
      "ĠhÃ¶": 3274,
      "Ġhandelt": 3275,
      "Ġzustimmen": 3276,
      "Ġzuletzt": 3277,
      "ement": 3278,
      "etter": 3279,
      "etho": 3280,
      "Ġdenken": 3281,
      "Ã¼rger": 3282,
      "Ã¼rze": 3283,
      "Ã¶st": 3284,
      "ĠWert": 3285,
      "ĠWeshalb": 3286,
      "ĠWochen": 3287,
      "ĠWorten": 3288,
      "ĠWÃ¤hrungs": 3289,
      "ĠWasser": 3290,
      "ĠWaffen": 3291,
      "ĠRi": 3292,
      "ĠRett": 3293,
      "ĠReicht": 3294,
      "ĠResp": 3295,
      "Ġgelei": 3296,
      "Ġgehalten": 3297,
      "ĠgeÃ¤uÃŁ": 3298,
      "Ġgelungen": 3299,
      "Ġgestellt": 3300,
      "Ġgeeig": 3301,
      "ĠgeprÃ¼ft": 3302,
      "Ġgegebenen": 3303,
      "Ġgeleistet": 3304,
      "atzi": 3305,
      "ĠMa": 3306,
      "ĠFeh": 3307,
      "ĠFro": 3308,
      "ĠFran": 3309,
      "ĠFÃ¶rder": 3310,
      "ĠFunktionieren": 3311,
      "ĠFakten": 3312,
      "ĠViel": 3313,
      "ĠVielleicht": 3314,
      "mension": 3315,
      "Ġkennen": 3316,
      "Ġkaum": 3317,
      "ĠHÃ¤n": 3318,
      "ĠHÃ¤l": 3319,
      "ĠHeim": 3320,
      "ĠHatzi": 3321,
      "berg": 3322,
      "Ġdiesbe": 3323,
      "ĠPrÃ¤": 3324,
      "lauf": 3325,
      "usschuÃŁ": 3326,
      "ission": 3327,
      "Ġging": 3328,
      "Ġguten": 3329,
      "Ġglob": 3330,
      "Ġgrat": 3331,
      "ĠGro": 3332,
      "ĠGlob": 3333,
      "ktor": 3334,
      "Ġerne": 3335,
      "Ġerster": 3336,
      "Ġerlassen": 3337,
      "ĠerfÃ¼": 3338,
      "Ġerschein": 3339,
      "Ġersuchen": 3340,
      "Ġerheben": 3341,
      "Ġerarbeitet": 3342,
      "umt": 3343,
      "spru": 3344,
      "spekt": 3345,
      "sprechen": 3346,
      "sphase": 3347,
      "ĠZahl": 3348,
      "Ġangeb": 3349,
      "Ġanmer": 3350,
      "ĠanschlieÃŁend": 3351,
      "Ġanstre": 3352,
      "bezie": 3353,
      "beschrÃ¤n": 3354,
      "Ġverl": 3355,
      "Ġvert": 3356,
      "Ġverw": 3357,
      "Ġverdeut": 3358,
      "Ġverlassen": 3359,
      "Ġverfahren": 3360,
      "Ġverantwort": 3361,
      "Ġverehrte": 3362,
      "Ġverdien": 3363,
      "Ġvereinbar": 3364,
      "ftrag": 3365,
      "ĠVerÃ¤nder": 3366,
      "ĠVerab": 3367,
      "ĠVerhalten": 3368,
      "ĠVergangen": 3369,
      "ĠVertrags": 3370,
      "ĠVerlÃ¤ngerung": 3371,
      "igeren": 3372,
      "igreich": 3373,
      "ĠLeist": 3374,
      "ĠLuft": 3375,
      "ĠLeider": 3376,
      "ĠLegisla": 3377,
      "ĠLesung": 3378,
      "Ġbela": 3379,
      "Ġbewer": 3380,
      "Ġbeantw": 3381,
      "Ġbeschlossen": 3382,
      "ĠbeschrÃ¤n": 3383,
      "ĠBerichten": 3384,
      "rede": 3385,
      "reche": 3386,
      "regende": 3387,
      "Ã¤nge": 3388,
      "Ã¤nger": 3389,
      "Ġlog": 3390,
      "Ġlehnt": 3391,
      "ĠStu": 3392,
      "ĠStÃ¤d": 3393,
      "Ġstar": 3394,
      "Ġstimmen": 3395,
      "tweder": 3396,
      "ielt": 3397,
      "Ġvoraus": 3398,
      "Ġvorange": 3399,
      "ĠTech": 3400,
      "isation": 3401,
      "ismus": 3402,
      "ĠBest": 3403,
      "ĠBestimm": 3404,
      "ĠBeacht": 3405,
      "ĠBedenken": 3406,
      "ĠAns": 3407,
      "ĠAnnahme": 3408,
      "ĠAnfrage": 3409,
      "ĠAnfang": 3410,
      "ĠAnnÃ¤h": 3411,
      "ungsbe": 3412,
      "ungsvoll": 3413,
      "ungsbereich": 3414,
      "ungsverfahren": 3415,
      "ĠIndon": 3416,
      "ĠÃ¼bernommen": 3417,
      "ĠÃ¼bermitteln": 3418,
      "ĠÃ¼berzeu": 3419,
      "ĠArbeiten": 3420,
      "ĠAusarbeit": 3421,
      "ĠAusrichtung": 3422,
      "ĠAusmaÃŁ": 3423,
      "endet": 3424,
      "ments": 3425,
      "ĠNi": 3426,
      "ĠEntwurf": 3427,
      "ĠmÃ¶chten": 3428,
      "ĠErreichen": 3429,
      "ĠErschein": 3430,
      "ĠEreig": 3431,
      "ĠErika": 3432,
      "ĠErstens": 3433,
      "Ġausm": 3434,
      "ĠausdrÃ¼ck": 3435,
      "Ġjen": 3436,
      "ĠjÃ¤hr": 3437,
      "heitsw": 3438,
      "ĠMitteilung": 3439,
      "weist": 3440,
      "weigem": 3441,
      "ĠSchu": 3442,
      "ĠSchutz": 3443,
      "ĠSchlieÃŁlich": 3444,
      "ĠSchritt": 3445,
      "ĠSchiff": 3446,
      "ĠSchweigem": 3447,
      "bewertung": 3448,
      "dernis": 3449,
      "rift": 3450,
      "ĠBeihilfe": 3451,
      "Ġnachvoll": 3452,
      "ĠVorbereitung": 3453,
      "ĠGegen": 3454,
      "ĠGedanken": 3455,
      "Ġ11": 3456,
      "Ġ16": 3457,
      "Ġeinerseits": 3458,
      "sausschuÃŁ": 3459,
      "ĠRechn": 3460,
      "ĠRegelung": 3461,
      "ĠJul": 3462,
      "ĠAbÃ¤nder": 3463,
      "seei": 3464,
      "ĠArbeitnehmer": 3465,
      "Ġdargelegt": 3466,
      "Ġdarstellt": 3467,
      "leben": 3468,
      "Ġschn": 3469,
      "Ġscheint": 3470,
      "Ġschrift": 3471,
      "Ġuntersucht": 3472,
      "hilfek": 3473,
      "Ġpass": 3474,
      "Ġperiod": 3475,
      "Ġperf": 3476,
      "Ã¤rkt": 3477,
      "Ġallzu": 3478,
      "grammen": 3479,
      "mitglie": 3480,
      "tragt": 3481,
      "ĠZiels": 3482,
      "Ġzumindest": 3483,
      "ausschuÃŁ": 3484,
      "Ġtut": 3485,
      "Ġtransp": 3486,
      "glichkeit": 3487,
      "glichkeiten": 3488,
      "verordnung": 3489,
      "Ġenthalten": 3490,
      "Ġentschlossen": 3491,
      "ĠenthÃ¤lt": 3492,
      "Ġdurchaus": 3493,
      "ĠdurchzufÃ¼hren": 3494,
      "ĠabschlieÃŁend": 3495,
      "Ġabzusetzen": 3496,
      "Ġabsol": 3497,
      "Ġabgebaut": 3498,
      "ĠEinkl": 3499,
      "ĠEinzel": 3500,
      "ĠEinhaltung": 3501,
      "ĠEinbezie": 3502,
      "ordnungs": 3503,
      "ĠMitglieder": 3504,
      "ĠStrukturen": 3505,
      "wirte": 3506,
      "wirkt": 3507,
      "wirkung": 3508,
      "schiedung": 3509,
      "rÃ¤ge": 3510,
      "Ġbetrachte": 3511,
      "angs": 3512,
      "ĠMitgliedstaat": 3513,
      "stechn": 3514,
      "ĠspÃ¼r": 3515,
      "ĠspÃ¤t": 3516,
      "Ġspricht": 3517,
      "Ġspreche": 3518,
      "Ġspielt": 3519,
      "Ġdanke": 3520,
      "ĠgemÃ¤ÃŁ": 3521,
      "ĠCha": 3522,
      "ĠCox": 3523,
      "Ġneuer": 3524,
      "beihilfek": 3525,
      "ĠgenÃ¼": 3526,
      "Ġgenug": 3527,
      "Ġkeinesweg": 3528,
      "Ġreag": 3529,
      "Ġrechten": 3530,
      "Ġinsofern": 3531,
      "Ġinsgesam": 3532,
      "Ġwarum": 3533,
      "ĠSomit": 3534,
      "Ġregional": 3535,
      "illen": 3536,
      "Ġsonst": 3537,
      "Ġganzen": 3538,
      "Ġdezentra": 3539,
      "Ġdefin": 3540,
      "Ġanderer": 3541,
      "Ġandererseits": 3542,
      "Ġvieler": 3543,
      "ĠIhren": 3544,
      "ĠIhres": 3545,
      "haltungen": 3546,
      "ĠEnthaltungen": 3547,
      "ĠArbeitszeit": 3548,
      "ĠAufschw": 3549,
      "ĠKohÃ¤sionspolitik": 3550,
      "Ġkleine": 3551,
      "Ġwenigen": 3552,
      "Ġletzte": 3553,
      "Ġletzter": 3554,
      "ĠÃĦnderungsantrÃ¤gen": 3555,
      "gemÃ¤ÃŁ": 3556,
      "sprinzip": 3557,
      "riebene": 3558,
      "ĠOpf": 3559,
      "Ġebenso": 3560,
      "zeige": 3561,
      "zeigt": 3562,
      "Ġeng": 3563,
      "Ġheraus": 3564,
      "ĠKollegin": 3565,
      "Ġgeraten": 3566,
      "Ġgeringer": 3567,
      "ĠGebiet": 3568,
      "ĠSozialist": 3569,
      "Ġnationaler": 3570,
      "ĠHinsicht": 3571,
      "ĠTransport": 3572,
      "ĠMitteln": 3573,
      "veaus": 3574,
      "ĠMenge": 3575,
      "ĠMonti": 3576,
      "ĠMonaten": 3577,
      "ĠMonate": 3578,
      "ĠHauses": 3579,
      "ĠHaushalt": 3580,
      "zugs": 3581,
      "Ġweiterhin": 3582,
      "Ġwirklichen": 3583,
      "Ġbedanken": 3584,
      "Ġbesonderen": 3585,
      "ĠDamit": 3586,
      "ĠDabei": 3587,
      "ĠDeparte": 3588,
      "ĠBeispiele": 3589,
      "Ġetwa": 3590,
      "ĠRats": 3591,
      "Ġsolchen": 3592,
      "Ġverbunden": 3593,
      "ĠStahlbeihilfen": 3594,
      "ĠStahlbeihilfek": 3595,
      "fachung": 3596,
      "troll": 3597,
      "Ġstehende": 3598,
      "Ġ88": 3599,
      "Ġeinzelstaat": 3600,
      "arbeitslosigkeit": 3601,
      "schiedet": 3602,
      "ĠÃľbergang": 3603,
      "Ġwesentliche": 3604,
      "standard": 3605,
      "ĠBetrieb": 3606,
      "Ġkurzen": 3607,
      "Ġgeregelt": 3608,
      "ĠGÃ¼tern": 3609,
      "Ġangesprochen": 3610,
      "ĠTeilen": 3611,
      "Ġrechtfer": 3612,
      "ĠRaumordnung": 3613,
      "amt": 3614,
      "nifikan": 3615,
      "richtungen": 3616,
      "ĠSektors": 3617,
      "rakter": 3618,
      "Ġgesellschaft": 3619,
      "Ġbestimmte": 3620,
      "ĠstÃ¤rker": 3621,
      "Ġvorliegt": 3622,
      "Ġvorliegende": 3623,
      "Ġbeimessen": 3624,
      "ĠErwart": 3625,
      "Ġhervorge": 3626,
      "Ġhervorragend": 3627,
      "ĠGemeinschaftsin": 3628,
      "fÃ¤llen": 3629,
      "Ġziemlich": 3630,
      "ĠDienste": 3631,
      "ĠSchwe": 3632,
      "Ġabgestimmt": 3633,
      "ĠBeschÃ¤ftigungsstrategie": 3634,
      "lÃ¤nglichkeiten": 3635,
      "ĠQuÃ¤storen": 3636,
      "Ã¤umen": 3637,
      "Ã¤ude": 3638,
      "Ġniemals": 3639,
      "Ġniedr": 3640,
      "Ġerneuer": 3641,
      "sprozeÃŁ": 3642,
      "ĠInselregionen": 3643,
      "ritts": 3644,
      "Ġverbessert": 3645,
      "ĠSicherheitsberatern": 3646,
      "ĠSubventionen": 3647,
      "ĠProtokolls": 3648,
      "ĠbenÃ¶": 3649,
      "ĠAspekte": 3650,
      "ĠauÃŁerhalb": 3651,
      "ĠauÃŁerdem": 3652,
      "ĠhÃ¤lt": 3653,
      "ĠMitent": 3654,
      "ĠVerwaltung": 3655,
      "Ġkonkrete": 3656,
      "Ġgemeinschaftlichen": 3657,
      "Ġgemeinschaftliche": 3658,
      "Ġoptimale": 3659,
      "ĠLebensstandard": 3660,
      "Ġendlich": 3661,
      "ĠendgÃ¼l": 3662,
      "Ġwid": 3663,
      "ĠAmster": 3664,
      "Ġfinanzie": 3665,
      "ĠWortlaut": 3666,
      "Ġgeltenden": 3667,
      "ĠMindestanforderungen": 3668,
      "ĠPrinzipien": 3669,
      "ĠGerade": 3670,
      "ĠUnser": 3671,
      "Ġlokaler": 3672,
      "Ġunserem": 3673,
      "ĠInteresse": 3674,
      "ĠzurÃ¼ckzu": 3675,
      "ĠGewÃ¤hrung": 3676,
      "ĠChance": 3677,
      "ĠbegrÃ¼ÃŁe": 3678,
      "ĠbegrÃ¼ÃŁen": 3679,
      "Ġprivate": 3680,
      "greifenden": 3681,
      ")).": 3682,
      "212": 3683,
      "hÃ¤nge": 3684,
      "zÃ¼glich": 3685,
      "Ġzeigen": 3686,
      "Ġzeigt": 3687,
      "Ġfreuen": 3688,
      "ĠZweck": 3689,
      "Ġangenommenen": 3690,
      "ĠverstÃ¤rken": 3691,
      "Ġverabschieden": 3692,
      "Ġverabschiedet": 3693,
      "ĠText": 3694,
      "ĠBevÃ¶lkerungs": 3695,
      "Ġunterbreite": 3696,
      "Ġpositiv": 3697,
      "Ġpositiven": 3698,
      "Ġpraktische": 3699,
      "ĠkÃ¶nnte": 3700,
      "Ġrelativ": 3701,
      "Ġbestehenden": 3702,
      "zentration": 3703,
      "Ġakzepti": 3704,
      "Ġeffektive": 3705,
      "ĠgrÃ¶ÃŁere": 3706,
      "ĠPartnerschaft": 3707,
      "fizierung": 3708,
      "ima": 3709,
      "ziele": 3710,
      "unternehmen": 3711,
      "ĠwÃ¼nsche": 3712,
      "Ġbeitragen": 3713,
      "ĠSepte": 3714,
      "ĠBrand": 3715,
      "ĠPflicht": 3716,
      "ĠfrÃ¼heren": 3717,
      "ĠDimension": 3718,
      "ĠFÃ¤lle": 3719,
      "ĠFÃ¤llen": 3720,
      "ĠFeststellung": 3721,
      "ĠergÃ¤n": 3722,
      "Ġergibt": 3723,
      "Ġangemessene": 3724,
      "Ġbeschreibt": 3725,
      "ĠTermin": 3726,
      "Ġ158": 3727,
      "Ġausgezeichnete": 3728,
      "Ġausgezeichneten": 3729,
      "Ġspezifischen": 3730,
      "ĠVerzÃ¶gerung": 3731,
      "ĠVerzÃ¶gerungen": 3732,
      "ĠDienstleistungen": 3733,
      "ĠgrundsÃ¤tzlich": 3734,
      "lÃ¤ss": 3735,
      "legungen": 3736,
      "Ġderartige": 3737,
      "Ġunbedingt": 3738,
      "ĠunnÃ¶tig": 3739,
      "ĠsÃ¤mtliche": 3740,
      "Ġbrauchen": 3741,
      "ĠSechste": 3742,
      "Ġnegativen": 3743,
      "ĠEisenbah": 3744,
      "ĠKapitalsteuer": 3745,
      "Ġfehlen": 3746,
      "Ġgesamte": 3747,
      "ĠIdee": 3748,
      "ĠVertreter": 3749,
      "Ġbeantragt": 3750,
      "Ġbeziehe": 3751,
      "regeln": 3752,
      "ĠUnzulÃ¤nglichkeiten": 3753,
      "ĠErneuerung": 3754,
      "ĠausschlieÃŁliche": 3755,
      "ĠVorsitzende": 3756,
      "gelegten": 3757,
      "ĠgewÃ¼nschten": 3758,
      "Ġkonstru": 3759,
      "zeitraum": 3760,
      "Ġbedauere": 3761,
      "Ġbenachteiligten": 3762,
      "ĠIndikatoren": 3763,
      "ĠGeschÃ¤ftsordnung": 3764,
      "Vertrags": 3765,
      "netze": 3766,
      "winkel": 3767,
      "Ġdringend": 3768,
      "Ġzahlreiche": 3769,
      "ĠmÃ¼ndliche": 3770,
      "ĠmaÃŁgeb": 3771,
      "ĠBlickwinkel": 3772,
      "Ġnutzen": 3773,
      "ĠnÃ¶rdlichen": 3774,
      "ĠPoetter": 3775,
      "ĠPersonen": 3776,
      "ĠKÃ¶nigreich": 3777,
      "ĠzusÃ¤tzliche": 3778,
      "ĠFreude": 3779,
      "ĠFortsch": 3780,
      "ĠHalbzeitbewertung": 3781,
      "Ġverfolgen": 3782,
      "ĠstÃ¤ndig": 3783,
      "ĠTemperatur": 3784,
      "ĠAnregungen": 3785,
      "Ġmittleren": 3786,
      "ĠInternet": 3787,
      "Ġausgewogenen": 3788,
      "Ġjeglichen": 3789,
      "ĠVoraussetzungen": 3790,
      "verbot": 3791,
      "bargos": 3792,
      "ĠZusÃ¤tzlichkeit": 3793,
      "ĠUmstrukturierung": 3794,
      "Ġkonzentrieren": 3795,
      "ĠZustÃ¤ndigkeit": 3796,
      "ĠbegrÃ¼nden": 3797,
      "ĠOffenheit": 3798,
      "ĠgegenwÃ¤rtig": 3799,
      "Ġsolcher": 3800,
      "ĠÃĸffentlichkeit": 3801,
      "ĠniederlÃ¤nd": 3802,
      "ĠKompeten": 3803,
      "ĠEmpfehlungen": 3804,
      "ĠNaturkatastrophen": 3805,
      "Ġterritorialen": 3806,
      "Ġverpflichtet": 3807,
      "dakis": 3808,
      "sichern": 3809,
      "zahlung": 3810,
      "Ġurspr": 3811,
      "Ġempf": 3812,
      "Ġusw": 3813,
      "Ġlaufenden": 3814,
      "Ġdetaill": 3815,
      "schancen": 3816,
      "Ġsignifikan": 3817,
      "Ġseitens": 3818,
      "Ġbald": 3819,
      "ĠbemÃ¼ht": 3820,
      "ĠbÃ¼rokra": 3821,
      "Ġeinstimmig": 3822,
      "ĠeinschlieÃŁlich": 3823,
      "ĠAuÃŁerdem": 3824,
      "ĠAktivitÃ¤ten": 3825,
      "ĠBundes": 3826,
      "ĠEindruck": 3827,
      "ĠErarbeitung": 3828,
      "ĠPlanungs": 3829,
      "Ġinteressan": 3830,
      "Ġintegr": 3831,
      "Ġinternation": 3832,
      "ĠDauer": 3833,
      "ĠDuisenberg": 3834,
      "ĠRettung": 3835,
      "ĠReichtum": 3836,
      "ĠRespekt": 3837,
      "Ġgeleistete": 3838,
      "Ġgegebenenfalls": 3839,
      "ĠFrost": 3840,
      "ĠFrankreich": 3841,
      "ĠHÃ¤nsch": 3842,
      "ĠHÃ¤lfte": 3843,
      "ĠHeimat": 3844,
      "ĠHatzidakis": 3845,
      "Ġgratul": 3846,
      "ĠGroÃŁ": 3847,
      "ĠGlobalisierung": 3848,
      "Ġerneut": 3849,
      "Ġerscheint": 3850,
      "spruch": 3851,
      "Ġanmerken": 3852,
      "Ġverdient": 3853,
      "ĠVerÃ¤nderungen": 3854,
      "ĠVerabschiedung": 3855,
      "ĠVergangenheit": 3856,
      "ĠLegislativ": 3857,
      "Ġlogisch": 3858,
      "Ġvorangegangenen": 3859,
      "ĠTechn": 3860,
      "ĠBeachtung": 3861,
      "ĠAnnÃ¤herung": 3862,
      "ĠIndonesien": 3863,
      "ĠAusarbeitung": 3864,
      "ĠEreignisse": 3865,
      "ĠSchweigeminute": 3866,
      "ĠRechnung": 3867,
      "ĠJuli": 3868,
      "ĠAbÃ¤nderungsan": 3869,
      "ĠEinklang": 3870,
      "ĠEinbeziehung": 3871,
      "ĠCharakter": 3872,
      "Ġkeineswegs": 3873,
      "Ġinsgesamt": 3874,
      "ĠAufschwung": 3875,
      "ĠSozialistischen": 3876,
      "ĠDepartements": 3877,
      "ĠStahlbeihilfekodex": 3878,
      "Ġrechtfertigen": 3879,
      "ĠErwartungen": 3880,
      "Ġerneuerbaren": 3881,
      "ĠMitentschei": 3882,
      "ĠSeptember": 3883,
      "ĠPoettering": 3884,
      "ĠTemperaturen": 3885,
      "..": 3886,
      "199": 3887,
      "22": 3888,
      "35": 3889,
      "43": 3890,
      "55": 3891,
      "96": 3892,
      "An": 3893,
      "Be": 3894,
      "Ber": 3895,
      "Bei": 3896,
      "BIP": 3897,
      "BÃ¼rger": 3898,
      "Cart": 3899,
      "FL": 3900,
      "FÃ¶rder": 3901,
      "Geb": 3902,
      "Mat": 3903,
      "Re": 3904,
      "St": 3905,
      "Stimmen": 3906,
      "Tech": 3907,
      "VII": 3908,
      "XX": 3909,
      "ack": 3910,
      "ativ": 3911,
      "atische": 3912,
      "atik": 3913,
      "aktor": 3914,
      "bo": 3915,
      "bie": 3916,
      "bung": 3917,
      "bur": 3918,
      "bal": 3919,
      "bet": 3920,
      "bungen": 3921,
      "ble": 3922,
      "banken": 3923,
      "bwÃ¼r": 3924,
      "cCart": 3925,
      "dal": 3926,
      "dig": 3927,
      "dlung": 3928,
      "diger": 3929,
      "drÃ¤n": 3930,
      "digung": 3931,
      "dsprogramm": 3932,
      "ege": 3933,
      "ete": 3934,
      "estigen": 3935,
      "fon": 3936,
      "fein": 3937,
      "fft": 3938,
      "fri": 3939,
      "ftigen": 3940,
      "fert": 3941,
      "frie": 3942,
      "fluÃŁ": 3943,
      "funktion": 3944,
      "faÃŁt": 3945,
      "gte": 3946,
      "gig": 3947,
      "gliche": 3948,
      "gren": 3949,
      "geist": 3950,
      "hn": 3951,
      "hy": 3952,
      "hes": 3953,
      "hol": 3954,
      "heil": 3955,
      "hies": 3956,
      "iÃŁ": 3957,
      "ial": 3958,
      "ide": 3959,
      "iges": 3960,
      "iver": 3961,
      "ks": 3962,
      "kbar": 3963,
      "ktive": 3964,
      "kapital": 3965,
      "kraft": 3966,
      "kzept": 3967,
      "kultur": 3968,
      "lp": 3969,
      "lu": 3970,
      "leh": 3971,
      "lehr": 3972,
      "ltig": 3973,
      "lang": 3974,
      "limm": 3975,
      "lÃ¤ÃŁt": 3976,
      "mann": 3977,
      "male": 3978,
      "no": 3979,
      "nal": 3980,
      "nier": 3981,
      "ou": 3982,
      "ote": 3983,
      "ober": 3984,
      "oben": 3985,
      "ock": 3986,
      "ogra": 3987,
      "ph": 3988,
      "plan": 3989,
      "prÃ¤gt": 3990,
      "reit": 3991,
      "rem": 3992,
      "rungen": 3993,
      "ressourcen": 3994,
      "sei": 3995,
      "setzt": 3996,
      "srecht": 3997,
      "swert": 3998,
      "squellen": 3999,
      "ta": 4000,
      "tes": 4001,
      "tal": 4002,
      "thalb": 4003,
      "tlicher": 4004,
      "tag": 4005,
      "tums": 4006,
      "tvolle": 4007,
      "tschaften": 4008,
      "ub": 4009,
      "ugt": 4010,
      "uert": 4011,
      "vat": 4012,
      "vier": 4013,
      "vest": 4014,
      "wie": 4015,
      "wes": 4016,
      "weich": 4017,
      "wuÃŁ": 4018,
      "will": 4019,
      "wissen": 4020,
      "windung": 4021,
      "wechsel": 4022,
      "xt": 4023,
      "xis": 4024,
      "yp": 4025,
      "zur": 4026,
      "zum": 4027,
      "zwei": 4028,
      "zern": 4029,
      "zwert": 4030,
      "zielen": 4031,
      "zogenen": 4032,
      "zÃ¤hlt": 4033,
      "zmann": 4034,
      "Ã©": 4035,
      "Ġ)": 4036,
      "Ġ,": 4037,
      "Ġ4": 4038,
      "Ġ6": 4039,
      "Ġ7": 4040,
      "Ġc": 4041,
      "Ġra": 4042,
      "Ġir": 4043,
      "Ġscha": 4044,
      "Ġru": 4045,
      "Ġqu": 4046,
      "Ġreichen": 4047,
      "ĠÂº": 4048,
      "Ġordnungs": 4049,
      "ĠXX": 4050,
      "enti": 4051,
      "ensi": 4052,
      "entwickel": 4053,
      "erk": 4054,
      "erv": 4055,
      "erwer": 4056,
      "ches": 4057,
      "Ġdeu": 4058,
      "Ġdebat": 4059,
      "Ġdiff": 4060,
      "Ġdritte": 4061,
      "Ġdirekt": 4062,
      "Ġdiver": 4063,
      "eiger": 4064,
      "eigt": 4065,
      "eitet": 4066,
      "uns": 4067,
      "union": 4068,
      "unigen": 4069,
      "unkten": 4070,
      "ieg": 4071,
      "iegel": 4072,
      "ietet": 4073,
      "ieverfahren": 4074,
      "iedlung": 4075,
      "ichen": 4076,
      "stau": 4077,
      "staaten": 4078,
      "stieg": 4079,
      "ine": 4080,
      "inie": 4081,
      "inkt": 4082,
      "indern": 4083,
      "Ġwor": 4084,
      "Ġwachsen": 4085,
      "Ġal": 4086,
      "Ġakt": 4087,
      "Ġamer": 4088,
      "Ġapp": 4089,
      "gehalten": 4090,
      "getreten": 4091,
      "gestellt": 4092,
      "geschrÃ¤n": 4093,
      "Ã¤glich": 4094,
      "Ã¤chen": 4095,
      "Ã¤ischer": 4096,
      "Ã¤llt": 4097,
      "Ġderer": 4098,
      "Ġderzei": 4099,
      "scht": 4100,
      "sches": 4101,
      "schÃ¶": 4102,
      "schÃ¤t": 4103,
      "schliche": 4104,
      "schÃ¤tzen": 4105,
      "Ã¼ÃŁ": 4106,
      "Ã¼den": 4107,
      "Ã¼hungen": 4108,
      "einrichtungen": 4109,
      "Ġsicht": 4110,
      "Ġsensi": 4111,
      "Ġsinkt": 4112,
      "eser": 4113,
      "esprogramm": 4114,
      "tiz": 4115,
      "tiken": 4116,
      "tifizierung": 4117,
      "tifunktion": 4118,
      "Ġdassel": 4119,
      "ortiert": 4120,
      "ano": 4121,
      "anen": 4122,
      "anti": 4123,
      "anach": 4124,
      "anischen": 4125,
      "antieren": 4126,
      "antie": 4127,
      "antisch": 4128,
      "ĠzÃ¼": 4129,
      "Ġzeh": 4130,
      "ĠzÃ¤hlt": 4131,
      "ĠvÃ¶": 4132,
      "ÃŁverstÃ¤nd": 4133,
      "teten": 4134,
      "tels": 4135,
      "Ġmo": 4136,
      "Ġmon": 4137,
      "Ġmal": 4138,
      "Ġmach": 4139,
      "Ġmul": 4140,
      "Ġmessen": 4141,
      "Ġbau": 4142,
      "Ġbriti": 4143,
      "Ġbietet": 4144,
      "Ġeinhalten": 4145,
      "Ġeingesetzt": 4146,
      "Ġeinwand": 4147,
      "urbe": 4148,
      "urteil": 4149,
      "ĠAlle": 4150,
      "ĠAktion": 4151,
      "ĠAmer": 4152,
      "ĠAlex": 4153,
      "ĠAkzept": 4154,
      "ĠSti": 4155,
      "ĠSig": 4156,
      "ĠSwo": 4157,
      "ĠSorg": 4158,
      "ĠSystem": 4159,
      "ĠStimmen": 4160,
      "ĠSender": 4161,
      "ĠSÃ¼den": 4162,
      "ĠBel": 4163,
      "ĠBil": 4164,
      "ĠBran": 4165,
      "ĠBesonder": 4166,
      "ĠBrie": 4167,
      "rach": 4168,
      "raus": 4169,
      "raxis": 4170,
      "ĠnÃ¶": 4171,
      "Ġnah": 4172,
      "Ġneben": 4173,
      "denkt": 4174,
      "Ġauss": 4175,
      "Ġaussp": 4176,
      "eitag": 4177,
      "dere": 4178,
      "dergrund": 4179,
      "ĠEl": 4180,
      "ĠEt": 4181,
      "ĠEben": 4182,
      "ĠErachten": 4183,
      "ĠEAG": 4184,
      "mma": 4185,
      "mmt": 4186,
      "ĠPer": 4187,
      "ĠPrak": 4188,
      "ĠPonn": 4189,
      "ĠPoten": 4190,
      "ĠPhase": 4191,
      "ĠPraxis": 4192,
      "are": 4193,
      "artig": 4194,
      "arheit": 4195,
      "artigen": 4196,
      "arium": 4197,
      "arantie": 4198,
      "alog": 4199,
      "alist": 4200,
      "Ġinn": 4201,
      "Ġinform": 4202,
      "Ġindik": 4203,
      "Ġindustrie": 4204,
      "ssektor": 4205,
      "ssage": 4206,
      "itin": 4207,
      "itten": 4208,
      "ĠKum": 4209,
      "ĠKrÃ¤": 4210,
      "ĠKam": 4211,
      "ĠKriti": 4212,
      "ĠKultur": 4213,
      "ĠKno": 4214,
      "Ġfra": 4215,
      "Ġfand": 4216,
      "Ġfinn": 4217,
      "Ġfinde": 4218,
      "Ġfragen": 4219,
      "Ġfestigen": 4220,
      "ĠfÃ¤llt": 4221,
      "ĠDah": 4222,
      "ĠDrit": 4223,
      "ĠDrin": 4224,
      "ĠDeta": 4225,
      "ĠDanach": 4226,
      "Ġharmon": 4227,
      "Ġhist": 4228,
      "ĠhÃ¶rt": 4229,
      "Ġzuzu": 4230,
      "Ġzuvor": 4231,
      "Ġzukunft": 4232,
      "eter": 4233,
      "etten": 4234,
      "Ã¶gert": 4235,
      "ĠWichtig": 4236,
      "ĠWul": 4237,
      "ĠWohl": 4238,
      "ĠWorte": 4239,
      "ĠWechsel": 4240,
      "ĠWeiter": 4241,
      "ĠWillen": 4242,
      "ĠWege": 4243,
      "ĠReich": 4244,
      "ĠRuÃŁ": 4245,
      "ĠRom": 4246,
      "ĠKomit": 4247,
      "ĠKofinanz": 4248,
      "Ġgeehr": 4249,
      "Ġgeschen": 4250,
      "Ġgeordn": 4251,
      "Ġgehe": 4252,
      "Ġgelan": 4253,
      "Ġgefall": 4254,
      "Ġgetro": 4255,
      "Ġgekommen": 4256,
      "Ġgesprochen": 4257,
      "Ġgezogen": 4258,
      "Ġgefordert": 4259,
      "Ġgestimmt": 4260,
      "ĠgefÃ¼hrt": 4261,
      "Ġgeogra": 4262,
      "ater": 4263,
      "atanen": 4264,
      "ĠMÃ¤n": 4265,
      "ĠMaÃŁ": 4266,
      "ĠMetho": 4267,
      "ĠMcCart": 4268,
      "ĠFus": 4269,
      "ĠFlei": 4270,
      "ĠFrÃ¼": 4271,
      "ĠFischer": 4272,
      "ĠFunktion": 4273,
      "ĠFlaut": 4274,
      "ĠVoll": 4275,
      "ĠVatanen": 4276,
      "mente": 4277,
      "Ġkor": 4278,
      "Ġkamen": 4279,
      "Ġkalt": 4280,
      "ĠkÃ¤m": 4281,
      "ĠItal": 4282,
      "ĠHo": 4283,
      "ĠHÃ¶": 4284,
      "ĠHig": 4285,
      "ĠHol": 4286,
      "ĠHeu": 4287,
      "ĠHande": 4288,
      "ĠHaltung": 4289,
      "ĠHundert": 4290,
      "bereiten": 4291,
      "berichten": 4292,
      "deurop": 4293,
      "Ġdiesel": 4294,
      "terungen": 4295,
      "ĠPreisen": 4296,
      "Ġauffordern": 4297,
      "Ġaufzunehmen": 4298,
      "lag": 4299,
      "laÃŁ": 4300,
      "laus": 4301,
      "ierter": 4302,
      "ierigen": 4303,
      "ĠgÃ¤": 4304,
      "Ġgig": 4305,
      "ĠgÃ¼n": 4306,
      "Ġgrund": 4307,
      "ĠgrÃ¼n": 4308,
      "ĠGrie": 4309,
      "ĠGrad": 4310,
      "Ġsogen": 4311,
      "Ġerk": 4312,
      "Ġerstellen": 4313,
      "Ġerfahren": 4314,
      "Ġerho": 4315,
      "Ġerrichten": 4316,
      "Ġerachten": 4317,
      "Ġerleben": 4318,
      "Ġersetzt": 4319,
      "Ġerzielen": 4320,
      "bend": 4321,
      "spoliti": 4322,
      "spekten": 4323,
      "ĠZur": 4324,
      "ĠKomment": 4325,
      "Ġannehmen": 4326,
      "Ġanaly": 4327,
      "Ġangewiesen": 4328,
      "Ġanstehen": 4329,
      "Ġansprechen": 4330,
      "Ġanwes": 4331,
      "bels": 4332,
      "beau": 4333,
      "beziehen": 4334,
      "bestre": 4335,
      "bewohner": 4336,
      "bezogenen": 4337,
      "cken": 4338,
      "Ġverz": 4339,
      "Ġverehr": 4340,
      "Ġvertra": 4341,
      "Ġverste": 4342,
      "Ġverlei": 4343,
      "ĠverÃ¤nder": 4344,
      "Ġvergeben": 4345,
      "Ġverteil": 4346,
      "Ġverzeich": 4347,
      "ĠverlÃ¤n": 4348,
      "Ġversuchen": 4349,
      "Ġverarbeiten": 4350,
      "Ġverletzt": 4351,
      "Ġversucht": 4352,
      "Ġversichern": 4353,
      "ĠVerf": 4354,
      "ĠVerstÃ¤nd": 4355,
      "ĠVertrÃ¤ge": 4356,
      "ĠVerhÃ¤lt": 4357,
      "ĠVerteilung": 4358,
      "ĠVerlagerung": 4359,
      "ĠVerpflicht": 4360,
      "igere": 4361,
      "ĠLehr": 4362,
      "ĠLau": 4363,
      "ĠLegiti": 4364,
      "ĠLyn": 4365,
      "ĠLangen": 4366,
      "ĠLinie": 4367,
      "ĠbeÃ¤n": 4368,
      "Ġbesten": 4369,
      "ĠbeschÃ¤": 4370,
      "ĠbeschÃ¤ftig": 4371,
      "Ġbekommen": 4372,
      "Ġbescheiden": 4373,
      "Ġbeziehen": 4374,
      "ĠbeschlieÃŁen": 4375,
      "ĠbeeintrÃ¤ch": 4376,
      "ĠbezÃ¼glich": 4377,
      "olks": 4378,
      "reform": 4379,
      "regelung": 4380,
      "repu": 4381,
      "Ġwertvolle": 4382,
      "ĠUnfall": 4383,
      "ĠUnfÃ¤lle": 4384,
      "ĠUnfÃ¤llen": 4385,
      "eln": 4386,
      "elek": 4387,
      "eldet": 4388,
      "Ġland": 4389,
      "Ġlegen": 4390,
      "Ġleben": 4391,
      "Ġlesen": 4392,
      "Ġlange": 4393,
      "Ġlenken": 4394,
      "ĠlÃ¤nger": 4395,
      "tiger": 4396,
      "tigung": 4397,
      "tigungen": 4398,
      "ĠKommissionsd": 4399,
      "ĠStÃ¼ck": 4400,
      "ĠStabil": 4401,
      "ĠStock": 4402,
      "Ġstri": 4403,
      "Ġstren": 4404,
      "Ġstimm": 4405,
      "ĠstÃ¤rken": 4406,
      "twort": 4407,
      "utt": 4408,
      "Ġvorzu": 4409,
      "Ġvorgeb": 4410,
      "Ġvorank": 4411,
      "Ġvorstellen": 4412,
      "Ġvorhan": 4413,
      "Ġvorbereiten": 4414,
      "ĠTat": 4415,
      "ĠTank": 4416,
      "ĠTÃ¤tig": 4417,
      "ĠTelek": 4418,
      "werk": 4419,
      "werden": 4420,
      "werfen": 4421,
      "werbe": 4422,
      "werke": 4423,
      "iszip": 4424,
      "ĠBed": 4425,
      "ĠBevor": 4426,
      "ĠBeweis": 4427,
      "ĠBeeintrÃ¤ch": 4428,
      "ĠAnp": 4429,
      "ĠAnmer": 4430,
      "ĠAnfragen": 4431,
      "ĠAnzeige": 4432,
      "ĠAnhÃ¤nge": 4433,
      "ĠAnspruch": 4434,
      "ĠAntwort": 4435,
      "ungsvorschriften": 4436,
      "Ġmitteilen": 4437,
      "Ġmittels": 4438,
      "Ġbeizu": 4439,
      "ĠIns": 4440,
      "ĠIndem": 4441,
      "ĠInnerhalb": 4442,
      "ĠInvesti": 4443,
      "ĠInkraft": 4444,
      "ĠProf": 4445,
      "ĠProgrammen": 4446,
      "zuhalten": 4447,
      "zuwirken": 4448,
      "liegt": 4449,
      "ĠÃ¼berein": 4450,
      "ĠÃ¼beraus": 4451,
      "ĠÃ¼berprÃ¼": 4452,
      "ĠÃ¼berprÃ¼ft": 4453,
      "ĠÃ¼berseei": 4454,
      "ĠAusw": 4455,
      "ĠAusnah": 4456,
      "ĠAusnahmen": 4457,
      "ĠAusnahme": 4458,
      "ĠAusgang": 4459,
      "ĠAuslaufen": 4460,
      "ĠAusgren": 4461,
      "ĠWirkung": 4462,
      "ĠWirtschaften": 4463,
      "elles": 4464,
      "elliere": 4465,
      "ĠNik": 4466,
      "ĠNormen": 4467,
      "ĠNov": 4468,
      "ĠEnde": 4469,
      "ĠEntweder": 4470,
      "ĠErinn": 4471,
      "ĠErlÃ¤u": 4472,
      "ĠErschlieÃŁung": 4473,
      "ĠErlaÃŁ": 4474,
      "ĠausfÃ¼hr": 4475,
      "Ġausrichten": 4476,
      "Ġumstr": 4477,
      "Ġumzusetzen": 4478,
      "Ġjungen": 4479,
      "heitlich": 4480,
      "ĠMitb": 4481,
      "ĠMitte": 4482,
      "ĠMitwirkung": 4483,
      "ĠSchienen": 4484,
      "auern": 4485,
      "riff": 4486,
      "ĠPrÃ¤sidentschaft": 4487,
      "Ġnachfrage": 4488,
      "ĠnachdrÃ¼ck": 4489,
      "enne": 4490,
      "twicklung": 4491,
      "twickelt": 4492,
      "ĠVorlage": 4493,
      "ĠVorschlÃ¤": 4494,
      "ĠVordergrund": 4495,
      "ĠGefÃ¤lle": 4496,
      "ĠGewerbe": 4497,
      "Ġ10": 4498,
      "Ġ13": 4499,
      "Ġ17": 4500,
      "Ġ19": 4501,
      "sagen": 4502,
      "samer": 4503,
      "eilen": 4504,
      "eiler": 4505,
      "eiligt": 4506,
      "eiligung": 4507,
      "ĠReden": 4508,
      "ĠRevis": 4509,
      "ĠJa": 4510,
      "ĠJun": 4511,
      "ĠAbkehr": 4512,
      "ĠAbwan": 4513,
      "ĠAbleh": 4514,
      "Ġex": 4515,
      "Ġechte": 4516,
      "Ġdarzulegen": 4517,
      "ĠAuft": 4518,
      "ĠAussage": 4519,
      "leunigen": 4520,
      "Ã¶ren": 4521,
      "Ġschle": 4522,
      "ĠschÃ¶n": 4523,
      "Ġschlage": 4524,
      "Ġschlagen": 4525,
      "Ġschlimm": 4526,
      "Ġunterst": 4527,
      "Ġunternehmen": 4528,
      "Ġunterstr": 4529,
      "Ġunterzogen": 4530,
      "annte": 4531,
      "Ġpoten": 4532,
      "gesetz": 4533,
      "Ġsiebten": 4534,
      "Ã¤rfen": 4535,
      "mitÃ¤t": 4536,
      "tragenen": 4537,
      "anzut": 4538,
      "reicht": 4539,
      "ĠEntwicklungen": 4540,
      "ĠZielsetz": 4541,
      "Ġzumal": 4542,
      "tiver": 4543,
      "Ġrie": 4544,
      "Ġrein": 4545,
      "Ġretten": 4546,
      "ortug": 4547,
      "Ġberu": 4548,
      "Ġtie": 4549,
      "gelmÃ¤ÃŁig": 4550,
      "gelehnt": 4551,
      "gelÃ¶st": 4552,
      "ĠEntwicklungspolitik": 4553,
      "ffnung": 4554,
      "ĠBeihilfenbericht": 4555,
      "ĠBeihilfenniveau": 4556,
      "verantwort": 4557,
      "verzer": 4558,
      "verlagerung": 4559,
      "Ġentsprochen": 4560,
      "Ġentziehen": 4561,
      "Ġentstehen": 4562,
      "Ġdurchgesetzt": 4563,
      "ĠdurchgefÃ¼hrt": 4564,
      "Ġabgeben": 4565,
      "Ġabstimmen": 4566,
      "Ġabgelehnt": 4567,
      "stellungen": 4568,
      "Ã¤hrleist": 4569,
      "Ġzweck": 4570,
      "Ġzwangs": 4571,
      "000": 4572,
      "007": 4573,
      "008": 4574,
      "ĠEinige": 4575,
      "ĠEinkommen": 4576,
      "ĠEingreifen": 4577,
      "ĠEinheitsw": 4578,
      "ĠEinfluÃŁ": 4579,
      "ĠEinschÃ¤t": 4580,
      "Ġwenngleich": 4581,
      "ĠMitglieds": 4582,
      "bler": 4583,
      "blik": 4584,
      "losion": 4585,
      "chenland": 4586,
      "icherung": 4587,
      "ĠStrukturmaÃŁnahmen": 4588,
      "ĠStrukturfon": 4589,
      "vorsitzen": 4590,
      "Ġmehrheitlich": 4591,
      "Ġbeteiligt": 4592,
      "Ġjede": 4593,
      "ĠProgrammierung": 4594,
      "fahrt": 4595,
      "reize": 4596,
      "reitet": 4597,
      "gebiet": 4598,
      "Ġhinzu": 4599,
      "lieÃŁen": 4600,
      "ĠJahrtaus": 4601,
      "Ġsozialer": 4602,
      "Ġsprach": 4603,
      "barer": 4604,
      "Ġ23": 4605,
      "Ġ299": 4606,
      "Ġhierher": 4607,
      "ĠZusÃ¤tzen": 4608,
      "ĠWettbewerbsbeschrÃ¤n": 4609,
      "ĠWettbewerbsregeln": 4610,
      "ĠWettbewerbsverzer": 4611,
      "folgere": 4612,
      "fÃ¼hrungs": 4613,
      "schlagenen": 4614,
      "Ġdankbar": 4615,
      "Ġgemeldet": 4616,
      "Ġgewal": 4617,
      "ĠgewÃ¤h": 4618,
      "Ġgewisse": 4619,
      "Ġgewesen": 4620,
      "Ġgewid": 4621,
      "ordentlich": 4622,
      "Ġkonsequen": 4623,
      "Ġkontroll": 4624,
      "Ġneues": 4625,
      "ĠKons": 4626,
      "ĠKonzer": 4627,
      "ĠKonzept": 4628,
      "ĠKonsequen": 4629,
      "ĠKonzentration": 4630,
      "ĠBerichterstatters": 4631,
      "Ġgenannt": 4632,
      "Ġgenutzt": 4633,
      "ektron": 4634,
      "Ġrealen": 4635,
      "ĠregelmÃ¤ÃŁig": 4636,
      "Ġmangelt": 4637,
      "ĠSicherheitsa": 4638,
      "Ġwarten": 4639,
      "ĠLasten": 4640,
      "ĠLapp": 4641,
      "ĠZusage": 4642,
      "eku": 4643,
      "setzen": 4644,
      "setzbare": 4645,
      "scheidet": 4646,
      "Ġsagte": 4647,
      "ĠZugang": 4648,
      "illigen": 4649,
      "ĠRechtssicherheit": 4650,
      "abhÃ¤n": 4651,
      "Ġdecken": 4652,
      "Ġanderem": 4653,
      "Ġanderthalb": 4654,
      "ĠBeschÃ¤ftigungsan": 4655,
      "hlen": 4656,
      "Ã¼tzen": 4657,
      "Ġvielmehr": 4658,
      "ĠgroÃŁer": 4659,
      "ritten": 4660,
      "zieht": 4661,
      "ĠIhrem": 4662,
      "ĠEntfern": 4663,
      "ĠEntschlieÃŁung": 4664,
      "ĠArbeitsschutz": 4665,
      "ulierung": 4666,
      "ĠTag": 4667,
      "ĠTagung": 4668,
      "Ġgemeinsam": 4669,
      "Ġwirtschaftlicher": 4670,
      "ĠGebÃ¤ude": 4671,
      "ĠAufgabe": 4672,
      "ĠStrukturfondsmittel": 4673,
      "ĠAusschuÃŁmitglie": 4674,
      "ĠAusschuÃŁvorsitzen": 4675,
      "bstÃ¤tigkeit": 4676,
      "ommunikation": 4677,
      "ĠKohÃ¤sions": 4678,
      "Ġklein": 4679,
      "Ġklima": 4680,
      "Ġdaraus": 4681,
      "Ġbeginnen": 4682,
      "ĠbegnÃ¼": 4683,
      "nete": 4684,
      "Ġwichtiger": 4685,
      "Ġwichtigste": 4686,
      "ĠRack": 4687,
      "igerweise": 4688,
      "Ġobgleich": 4689,
      "Ġobwohl": 4690,
      "Ġobliegt": 4691,
      "ĠOb": 4692,
      "Ġenorm": 4693,
      "Ġentwickelt": 4694,
      "Ġfestlegen": 4695,
      "Ġfeststellen": 4696,
      "Ġfestzulegen": 4697,
      "Ġfestgelegt": 4698,
      "Ġfestgelegten": 4699,
      "Ġfestgestellt": 4700,
      "Ġfestzuhalten": 4701,
      "Ġherum": 4702,
      "Ġgerichtet": 4703,
      "ĠbestÃ¤tigen": 4704,
      "Ġ1993": 4705,
      "Ġ1994": 4706,
      "Ġ1996": 4707,
      "Ġjedes": 4708,
      "fragt": 4709,
      "wendet": 4710,
      "ĠGemÃ¤ÃŁ": 4711,
      "ĠNachdem": 4712,
      "ĠNachdruck": 4713,
      "ĠNachfrage": 4714,
      "ĠNachfolgere": 4715,
      "ĠSozialfonds": 4716,
      "ĠSozialwirtschaft": 4717,
      "ĠTagesordnungspunkt": 4718,
      "agung": 4719,
      "uchung": 4720,
      "ĠÃ¤uÃŁern": 4721,
      "Ġnationale": 4722,
      "ĠHindernis": 4723,
      "ĠLandwirte": 4724,
      "Ġbefinden": 4725,
      "ĠbefÃ¶rdert": 4726,
      "Ġbefugt": 4727,
      "Ġwiederge": 4728,
      "Ġwiederauf": 4729,
      "Ġbislang": 4730,
      "ĠRandregionen": 4731,
      "ĠPrivat": 4732,
      "Ġgleichen": 4733,
      "Ġgleicher": 4734,
      "Ġ2001": 4735,
      "Ġ2003": 4736,
      "Ġweiterzu": 4737,
      "Ġweitergehen": 4738,
      "ĠRegierungs": 4739,
      "ĠMode": 4740,
      "ĠModal": 4741,
      "Ã¼nftige": 4742,
      "ĠRechtsvoll": 4743,
      "Ġdeutschen": 4744,
      "dukt": 4745,
      "teile": 4746,
      "ĠDazu": 4747,
      "ĠDafÃ¼r": 4748,
      "ĠDadurch": 4749,
      "ĠDaraus": 4750,
      "Ġgestatten": 4751,
      "ĠgestÃ¤rkt": 4752,
      "Ġaufgeschlossen": 4753,
      "Ġaufgezw": 4754,
      "Ġerwarte": 4755,
      "Ġerwartet": 4756,
      "ĠBeschÃ¤ftigungschancen": 4757,
      "app": 4758,
      "Ã¤tigung": 4759,
      "ĠBerichtszeitraum": 4760,
      "ĠSituationen": 4761,
      "otum": 4762,
      "qualitÃ¤t": 4763,
      "ĠÃ¶konom": 4764,
      "ichteten": 4765,
      "ĠDieses": 4766,
      "ĠgefÃ¤hrlich": 4767,
      "ĠgefÃ¤hrlichen": 4768,
      "teils": 4769,
      "Ġ81": 4770,
      "Ġ85": 4771,
      "Ġ86": 4772,
      "Ġ87": 4773,
      "Ġnunmehr": 4774,
      "ĠRahmenbedingungen": 4775,
      "ĠGesetz": 4776,
      "ĠGesund": 4777,
      "ĠGesamt": 4778,
      "ĠVereinfachung": 4779,
      "ĠThemas": 4780,
      "ĠErgebnissen": 4781,
      "Ġeigene": 4782,
      "Ġeigentliche": 4783,
      "ĠÃľberwindung": 4784,
      "Ġwesentlich": 4785,
      "bauen": 4786,
      "fÃ¼gen": 4787,
      "hÃ¶ren": 4788,
      "zeichen": 4789,
      "zeichnet": 4790,
      "stands": 4791,
      "ĠBeteiligung": 4792,
      "Ġerinnere": 4793,
      "Ġangek": 4794,
      "ĠangepaÃŁt": 4795,
      "ĠUngleichbeh": 4796,
      "Ġsicherzustellen": 4797,
      "Ġnachhaltig": 4798,
      "ĠÃĸlp": 4799,
      "zepte": 4800,
      "ĠWirtschaftsstruktur": 4801,
      "ĠWirtschaftskomm": 4802,
      "akte": 4803,
      "ambal": 4804,
      "hant": 4805,
      "konferenz": 4806,
      "niveaus": 4807,
      "scheinlich": 4808,
      "Ã¼bung": 4809,
      "ĠBeitrÃ¤ge": 4810,
      "ĠBeitritts": 4811,
      "Ġgesonder": 4812,
      "Ġgesetzt": 4813,
      "ĠPrÃ¼fungsvorschriften": 4814,
      "Ġbestimmter": 4815,
      "ĠstÃ¤rkere": 4816,
      "ĠErwÃ¤": 4817,
      "Ġklare": 4818,
      "Ġhervorheben": 4819,
      "ĠGemeinschaftspolitiken": 4820,
      "ĠÃ¶ffentliche": 4821,
      "hof": 4822,
      "how": 4823,
      "hoben": 4824,
      "mÃ¤ÃŁige": 4825,
      "proj": 4826,
      "Ġaktive": 4827,
      "arkassen": 4828,
      "Ġfolgen": 4829,
      "Ġfolgenden": 4830,
      "ĠDurchsetzung": 4831,
      "Ġkommenden": 4832,
      "Ġkommentieren": 4833,
      "ĠHarmonisierungs": 4834,
      "Ġerstmals": 4835,
      "Ġstrategisch": 4836,
      "Ġvorgesch": 4837,
      "aufnahme": 4838,
      "aufgaben": 4839,
      "ĠAbgeordnete": 4840,
      "ĠAbgeordneter": 4841,
      "Ġabgeschlossen": 4842,
      "ĠBeschÃ¤ftigungsmÃ¶glich": 4843,
      "Ġwenigsten": 4844,
      "ĠModernisierungs": 4845,
      "Ġoptimal": 4846,
      "Ġvollendet": 4847,
      "Ġvollzieht": 4848,
      "Ġbehau": 4849,
      "Ġbeheben": 4850,
      "Ġbehande": 4851,
      "Ġbehindern": 4852,
      "ĠFreitag": 4853,
      "ĠgrÃ¶ÃŁer": 4854,
      "Ġoffenbar": 4855,
      "Ġunterschiedlich": 4856,
      "Ġunterschiedlicher": 4857,
      "ĠJahresbericht": 4858,
      "ĠVerkehrsbereich": 4859,
      "ĠVerkehrswesen": 4860,
      "ĠInstrumentarium": 4861,
      "ĠSozialdemokraten": 4862,
      "ĠSozialdemokratische": 4863,
      "Ġverbesserte": 4864,
      "dungsverfahren": 4865,
      "ugnisse": 4866,
      "Ġwelches": 4867,
      "ĠAspekten": 4868,
      "ĠBemÃ¼hungen": 4869,
      "ĠBegriff": 4870,
      "ĠauÃŁerordentlich": 4871,
      "ĠMiÃŁb": 4872,
      "ĠMiÃŁverstÃ¤nd": 4873,
      "ĠFinanzierungs": 4874,
      "ĠHilfen": 4875,
      "ĠHilfs": 4876,
      "Ġvertretenen": 4877,
      "Ġbeklagen": 4878,
      "ologischen": 4879,
      "ologieverfahren": 4880,
      "Ġstattfinden": 4881,
      "ĠStrukturpolitiken": 4882,
      "Ġjedenfalls": 4883,
      "Ġkonkreten": 4884,
      "Ġgemeinschaftlicher": 4885,
      "ĠOrienti": 4886,
      "COD": 4887,
      "behalten": 4888,
      "habenden": 4889,
      "nunglÃ¼ck": 4890,
      "Ġ95": 4891,
      "Ġarbeiten": 4892,
      "Ġfinanziell": 4893,
      "ĠGleichzeitig": 4894,
      "ĠGleichgewicht": 4895,
      "ehmigung": 4896,
      "Ġbedeuten": 4897,
      "Ġlokalen": 4898,
      "Ġlokale": 4899,
      "ĠInteressen": 4900,
      "ĠEnergien": 4901,
      "ĠGewicht": 4902,
      "ĠGewÃ¤hrleist": 4903,
      "Ġallgemein": 4904,
      "Ġwohlhabenden": 4905,
      "ĠSteuerzahl": 4906,
      "ĠbegrÃ¼ÃŁt": 4907,
      "0104": 4908,
      "0105": 4909,
      "0107": 4910,
      "ĠUmweltpolitik": 4911,
      "210": 4912,
      "abel": 4913,
      "fertigt": 4914,
      "zÃ¼glichen": 4915,
      "ĠBarnier": 4916,
      "ĠKlarheit": 4917,
      "ĠKatastrophen": 4918,
      "ĠzustÃ¤ndige": 4919,
      "ĠWachstums": 4920,
      "ĠKomite": 4921,
      "Ġgebill": 4922,
      "Ġgebracht": 4923,
      "Ġgeboten": 4924,
      "Ġkompen": 4925,
      "Ġgarantieren": 4926,
      "Ġgerne": 4927,
      "ĠZwar": 4928,
      "ĠZweifel": 4929,
      "ĠvernÃ¼nftige": 4930,
      "ĠverstÃ¤rk": 4931,
      "Ġverstehe": 4932,
      "ĠTexte": 4933,
      "ĠTexas": 4934,
      "Ġschwierigen": 4935,
      "Ġunterbreiten": 4936,
      "Ġpolitische": 4937,
      "Ġpraktiz": 4938,
      "Ġbereitgestellten": 4939,
      "Ġjederzeit": 4940,
      "ĠForschungs": 4941,
      "Ġbisherigen": 4942,
      "ĠMonopolunternehmen": 4943,
      "Ġeffektiven": 4944,
      "ĠgrÃ¶ÃŁte": 4945,
      "ĠBemerkung": 4946,
      "lizit": 4947,
      "ĠwÃ¼nschen": 4948,
      "schwachen": 4949,
      "Ġseien": 4950,
      "orgnis": 4951,
      "Ġzentral": 4952,
      "Ġzentrale": 4953,
      "Ġzentralen": 4954,
      "Ġeingebracht": 4955,
      "Ġeingebrachten": 4956,
      "ĠSparkassen": 4957,
      "ĠSelbstverstÃ¤nd": 4958,
      "ĠBrutt": 4959,
      "ĠEmbargos": 4960,
      "ĠPfeiler": 4961,
      "ĠPeriodische": 4962,
      "ĠfrÃ¼her": 4963,
      "Ġkritisiert": 4964,
      "Ġgutes": 4965,
      "achsenen": 4966,
      "ĠLÃ¶sungen": 4967,
      "Ġbeschleunigen": 4968,
      "Ġvorrangig": 4969,
      "Ġvorrangiges": 4970,
      "ĠTerritori": 4971,
      "ĠProduktion": 4972,
      "ĠProduktiv": 4973,
      "ĠjÃ¼ngster": 4974,
      "Ġschwerwie": 4975,
      "Ġentscheidenden": 4976,
      "Ġentscheidender": 4977,
      "ĠProgrammphase": 4978,
      "ĠVerbraucherpolitik": 4979,
      "ĠBinnenwasserstraÃŁe": 4980,
      "Ġumfassenden": 4981,
      "Ġumfassender": 4982,
      "ĠGrundsatzes": 4983,
      "Ġtechnischer": 4984,
      "ĠgrundsÃ¤tzlichen": 4985,
      "ĠSubsidiaritÃ¤tsprinzip": 4986,
      "damer": 4987,
      "lÃ¤ufig": 4988,
      "legung": 4989,
      "Ġ50": 4990,
      "Ã¤umnis": 4991,
      "ĠunnÃ¶tige": 4992,
      "Ġbraucht": 4993,
      "Ġeinzubeziehen": 4994,
      "ĠSechsten": 4995,
      "Ġnegative": 4996,
      "ĠDennoch": 4997,
      "ĠRÃ¼ckverlagerung": 4998,
      "Ġgesamten": 4999,
      "ĠMinuten": 5000,
      "ĠFÃ¼nftel": 5001,
      "ĠFÃ¼nfjahr": 5002,
      "ĠGenehmigung": 5003,
      "ĠerklÃ¤rt": 5004,
      "ĠerklÃ¤ren": 5005,
      "ĠverschÃ¤rfen": 5006,
      "Ġverlangen": 5007,
      "Ġverlangt": 5008,
      "Ġverursachten": 5009,
      "ĠVersuchung": 5010,
      "ĠVersÃ¤umnis": 5011,
      "ĠVertretern": 5012,
      "Ġbezieht": 5013,
      "regelungen": 5014,
      "ĠStaats": 5015,
      "ĠStaatliche": 5016,
      "ĠInitiativen": 5017,
      "ĠInitiative": 5018,
      "ĠVorsitzenden": 5019,
      "ĠJugendliche": 5020,
      "Ġexplizit": 5021,
      "lexen": 5022,
      "gelegte": 5023,
      "Ġabzugeben": 5024,
      "Ġabzubauen": 5025,
      "ĠgewÃ¼nscht": 5026,
      "Ġgenehmigen": 5027,
      "Ġgenehmigt": 5028,
      "zeitraums": 5029,
      "ĠWiederaufnahme": 5030,
      "Ġernstes": 5031,
      "Ġbenachteiligt": 5032,
      "ĠVerwaltungsreform": 5033,
      "ĠwettbewerbsfÃ¤hige": 5034,
      "Ġsinnvoller": 5035,
      "ĠvernÃ¼nftiger": 5036,
      "ĠKartellrecht": 5037,
      "ĠbetrÃ¤chtlichen": 5038,
      "ĠIndikator": 5039,
      "ĠungÃ¼nst": 5040,
      "Ġelement": 5041,
      "Ġelektron": 5042,
      "ĠunrechtmÃ¤ÃŁig": 5043,
      "Ġsechsten": 5044,
      "ĠzerstÃ¶rt": 5045,
      "Ġmaximal": 5046,
      "ĠeinrÃ¤umen": 5047,
      "ĠeinrÃ¤umt": 5048,
      "ĠEGKS": 5049,
      "Ġfreien": 5050,
      "ĠDarÃ¼ber": 5051,
      "Ġzugestimmt": 5052,
      "Ġgekenn": 5053,
      "Ġgeschehen": 5054,
      "ĠMillionen": 5055,
      "ĠFolge": 5056,
      "ĠFolgen": 5057,
      "ĠFerner": 5058,
      "Ġkoordin": 5059,
      "ĠGrenzwert": 5060,
      "Ġerfolgreich": 5061,
      "Ġerfolgreichen": 5062,
      "ĠerhÃ¶hte": 5063,
      "Ġangewand": 5064,
      "Ġverhindern": 5065,
      "Ġverhindert": 5066,
      "ĠLiberalen": 5067,
      "ĠLiberale": 5068,
      "Ġbewegt": 5069,
      "Ġbedeutsamen": 5070,
      "ĠBereitschaft": 5071,
      "ĠBereitstellung": 5072,
      "ĠStÃ¼rmen": 5073,
      "ĠStÃ¼rme": 5074,
      "Ġstrukturschwachen": 5075,
      "ĠmittelstÃ¤nd": 5076,
      "ĠÃ¼berwachen": 5077,
      "ĠNormung": 5078,
      "ĠErfahrung": 5079,
      "ĠErfahrungen": 5080,
      "Ġausgerichteten": 5081,
      "ĠSchwerpunkt": 5082,
      "ĠSchuld": 5083,
      "ĠGestaltung": 5084,
      "ĠGestatten": 5085,
      "ĠRedner": 5086,
      "Ġpaar": 5087,
      "Ġdurchschnittliche": 5088,
      "ĠgewÃ¤hrt": 5089,
      "ĠgroÃŁem": 5090,
      "splÃ¤ne": 5091,
      "splÃ¤nen": 5092,
      "ĠLandesbanken": 5093,
      "ĠRegisters": 5094,
      "ĠÃľbereinstimmung": 5095,
      "ĠÃľbereinkommen": 5096,
      "Ġeffizienter": 5097,
      "sprogramme": 5098,
      "Ġumfangreich": 5099,
      "Ġumfangreiche": 5100,
      "Ġspezielle": 5101,
      "Ġkonkreter": 5102,
      "ĠOrganisation": 5103,
      "Ġkompliziert": 5104,
      "Ġkomplizierte": 5105,
      "ĠÃ¤rmsten": 5106,
      "ĠÃ¤rmeren": 5107,
      "ĠAgrarregionen": 5108,
      "ĠTransitlÃ¤nder": 5109,
      "ĠpersÃ¶nlich": 5110,
      "Interventionen": 5111,
      "SEK": 5112,
      "gruppen": 5113,
      "jÃ¤hrige": 5114,
      "Ġdram": 5115,
      "ĠdrÃ¤ngen": 5116,
      "Ġwahrscheinlich": 5117,
      "ĠuneingeschrÃ¤n": 5118,
      "ĠunzulÃ¤ss": 5119,
      "Ġunmittelbare": 5120,
      "orientierte": 5121,
      "Ġmenschliche": 5122,
      "tensive": 5123,
      "Ġbesit": 5124,
      "Ġeinhell": 5125,
      "Ġeinbezogen": 5126,
      "Ġeinziges": 5127,
      "ĠSynergien": 5128,
      "ĠBoden": 5129,
      "ĠESF": 5130,
      "Ġfallen": 5131,
      "ĠfranzÃ¶sischen": 5132,
      "ĠhÃ¶heren": 5133,
      "ĠWasserwegen": 5134,
      "ĠWaffenem": 5135,
      "ĠRisi": 5136,
      "ĠgeÃ¤uÃŁerten": 5137,
      "Ġgeeignete": 5138,
      "ĠMai": 5139,
      "ĠFehler": 5140,
      "ĠFÃ¶rdermitteln": 5141,
      "ĠVielfalt": 5142,
      "ĠdiesbezÃ¼glichen": 5143,
      "Ġglobale": 5144,
      "ĠerfÃ¼llen": 5145,
      "ĠZahlen": 5146,
      "Ġanstreben": 5147,
      "Ġvertrete": 5148,
      "Ġverdeutlichen": 5149,
      "Ġverantwortungsbe": 5150,
      "Ġvereinbart": 5151,
      "ĠVerhaltenskodex": 5152,
      "ĠLeistungs": 5153,
      "Ġbelastet": 5154,
      "ĠbeschrÃ¤nkt": 5155,
      "ĠStudien": 5156,
      "ĠStÃ¤dte": 5157,
      "Ġstarken": 5158,
      "ĠBestÃ¤tigung": 5159,
      "ĠBestimmungen": 5160,
      "ĠÃ¼berzeugt": 5161,
      "ĠAusmaÃŁe": 5162,
      "ĠNiveau": 5163,
      "ĠEntwurfs": 5164,
      "ĠErscheinung": 5165,
      "Ġausmacht": 5166,
      "Ġjene": 5167,
      "Ġnachvollziehen": 5168,
      "Ġschriftlich": 5169,
      "Ġpassiert": 5170,
      "Ġperiodische": 5171,
      "Ġperfekten": 5172,
      "Ġtransportiert": 5173,
      "Ġabsolut": 5174,
      "Ġbetrachtet": 5175,
      "ĠgenÃ¼gend": 5176,
      "Ġreagieren": 5177,
      "Ġregionalpoliti": 5178,
      "Ġdezentrale": 5179,
      "Ġdefinierten": 5180,
      "Ġvielerlei": 5181,
      "ĠOpfer": 5182,
      "ĠRatsverordnung": 5183,
      "Ġverbundenen": 5184,
      "Ġeinzelstaatliche": 5185,
      "ĠÃľbergangs": 5186,
      "Ġgesellschaftlichen": 5187,
      "Ġhervorgeht": 5188,
      "ĠGemeinschaftsinterventionen": 5189,
      "ĠSchweden": 5190,
      "Ġniedrigeren": 5191,
      "ĠbenÃ¶tigen": 5192,
      "ĠendgÃ¼ltigen": 5193,
      "Ġwidmen": 5194,
      "ĠAmsterdamer": 5195,
      "Ġfinanziellen": 5196,
      "ĠzurÃ¼ckzufordern": 5197,
      "Ġunterbreitete": 5198,
      "Ġakzeptiere": 5199,
      "ĠBrandschutz": 5200,
      "ĠergÃ¤nzen": 5201,
      "ĠEisenbahnunglÃ¼ck": 5202,
      "ĠmaÃŁgeblich": 5203,
      "ĠKÃ¶nigreichs": 5204,
      "ĠFortschritte": 5205,
      "ĠKompetenz": 5206,
      "ĠursprÃ¼n": 5207,
      "Ġsignifikant": 5208,
      "ĠbÃ¼rokratischen": 5209,
      "ĠBundesrepu": 5210,
      "Ġinteressante": 5211,
      "Ġintegrierten": 5212,
      "Ġgratulieren": 5213,
      "ĠGroÃŁteil": 5214,
      "ĠLegislativprogramm": 5215,
      "ĠTechnologien": 5216,
      "ĠAbÃ¤nderungsantrag": 5217,
      "ĠMitentscheidungsverfahren": 5218,
      "Bericht": 5219,
      "Beifall": 5220,
      "Mathies": 5221,
      "VIII": 5222,
      "boda": 5223,
      "burg": 5224,
      "drÃ¤ngt": 5225,
      "fristige": 5226,
      "frieden": 5227,
      "hese": 5228,
      "wuÃŁt": 5229,
      "Ġschafft": 5230,
      "ĠÂºC": 5231,
      "ĠXXVIII": 5232,
      "Ġdeutet": 5233,
      "Ġdebattieren": 5234,
      "Ġdifferenz": 5235,
      "Ġamerikan": 5236,
      "Ġappelliere": 5237,
      "schÃ¶pfung": 5238,
      "Ġsichtbar": 5239,
      "Ġdasselbe": 5240,
      "Ġzehn": 5241,
      "ĠvÃ¶llig": 5242,
      "Ġmachbar": 5243,
      "Ġbauen": 5244,
      "Ġeinwandfrei": 5245,
      "urteilten": 5246,
      "ĠAmerika": 5247,
      "ĠAlexander": 5248,
      "ĠAkzeptanz": 5249,
      "ĠSignal": 5250,
      "ĠSwoboda": 5251,
      "ĠSorgfalt": 5252,
      "ĠBesonders": 5253,
      "Ġnahe": 5254,
      "Ġaussprechen": 5255,
      "ĠEbenso": 5256,
      "ĠErachtens": 5257,
      "ĠEAGFL": 5258,
      "ĠPraktiken": 5259,
      "ĠPonnambal": 5260,
      "ĠPotenti": 5261,
      "Ġindikative": 5262,
      "ssektors": 5263,
      "ĠKampf": 5264,
      "ĠKritik": 5265,
      "ĠKnow": 5266,
      "ĠDaher": 5267,
      "ĠDrittens": 5268,
      "ĠDringlichkeit": 5269,
      "ĠDetail": 5270,
      "Ġharmonis": 5271,
      "Ġhistor": 5272,
      "ĠWulf": 5273,
      "ĠRuÃŁland": 5274,
      "ĠRomano": 5275,
      "ĠKomitologieverfahren": 5276,
      "ĠKofinanzierung": 5277,
      "Ġgeehrter": 5278,
      "Ġgeschenkt": 5279,
      "Ġgefallen": 5280,
      "Ġgetroffen": 5281,
      "Ġgeograph": 5282,
      "ĠMÃ¤nnern": 5283,
      "ĠMaÃŁe": 5284,
      "ĠMcCarthy": 5285,
      "ĠFleiÃŁ": 5286,
      "ĠFischerei": 5287,
      "ĠFlautre": 5288,
      "ĠkÃ¤mpfen": 5289,
      "ĠItalien": 5290,
      "ĠHigh": 5291,
      "ĠHolzmann": 5292,
      "ĠHeute": 5293,
      "ĠHunderttaus": 5294,
      "Ġgigantisch": 5295,
      "Ġgrundlegen": 5296,
      "ĠGriechenland": 5297,
      "spolitischer": 5298,
      "Ġanalysieren": 5299,
      "Ġanwesend": 5300,
      "beauftrag": 5301,
      "bestrebungen": 5302,
      "Ġverehrten": 5303,
      "Ġverteilt": 5304,
      "Ġverzeichnen": 5305,
      "Ġverarbeitenden": 5306,
      "ĠVerstÃ¤ndnis": 5307,
      "ĠVerpflichtung": 5308,
      "ĠLaufe": 5309,
      "ĠLegitimitÃ¤t": 5310,
      "ĠLynne": 5311,
      "ĠbeÃ¤ng": 5312,
      "ĠbeschÃ¤ftigen": 5313,
      "Ġbescheidenen": 5314,
      "Ġlandwirtschaft": 5315,
      "ĠStabilitÃ¤t": 5316,
      "Ġstimme": 5317,
      "Ġvorankommen": 5318,
      "Ġvorhanden": 5319,
      "ĠTÃ¤tigkeiten": 5320,
      "ĠTelekommunikation": 5321,
      "isziplin": 5322,
      "ĠBeeintrÃ¤chtigungen": 5323,
      "ĠAnmerkungen": 5324,
      "ĠAnzeigepflicht": 5325,
      "Ġbeizubehalten": 5326,
      "ĠInvestition": 5327,
      "ĠInkrafttreten": 5328,
      "ĠÃ¼berprÃ¼fen": 5329,
      "ĠÃ¼berseeischen": 5330,
      "ĠAusnahm": 5331,
      "ĠAusgangspunkt": 5332,
      "ĠAusgrenzung": 5333,
      "ĠNikitin": 5334,
      "ĠNovember": 5335,
      "ĠErinnerung": 5336,
      "ĠErlÃ¤uterungen": 5337,
      "Ġumstritten": 5338,
      "ĠnachdrÃ¼cklich": 5339,
      "ĠVorschlÃ¤gen": 5340,
      "ĠRevision": 5341,
      "ĠAbwanderung": 5342,
      "ĠAblehnung": 5343,
      "Ġunterstrichen": 5344,
      "ĠZielsetzungen": 5345,
      "ĠzwangslÃ¤ufig": 5346,
      "ĠEinkommensquellen": 5347,
      "ĠEingreifens": 5348,
      "ĠEinheitswÃ¤hrung": 5349,
      "ĠEinschÃ¤tzung": 5350,
      "ĠStrukturfondsprogramm": 5351,
      "ĠJahrtausend": 5352,
      "ĠWettbewerbsbeschrÃ¤nkungen": 5353,
      "ĠWettbewerbsverzerrungen": 5354,
      "ĠgewÃ¤hlten": 5355,
      "Ġgewidmet": 5356,
      "Ġkonsequenten": 5357,
      "Ġkontrollieren": 5358,
      "ĠLappland": 5359,
      "abhÃ¤ng": 5360,
      "ĠAusschuÃŁmitglieder": 5361,
      "ĠAusschuÃŁvorsitzende": 5362,
      "Ġklimatischen": 5363,
      "ĠbegnÃ¼gen": 5364,
      "ĠNachfolgeregelung": 5365,
      "Ġweitergehende": 5366,
      "ĠRegierungskonferenz": 5367,
      "ĠModalitÃ¤ten": 5368,
      "ĠRechtsvollzugs": 5369,
      "Ġaufgezwungen": 5370,
      "ĠÃ¶konomischen": 5371,
      "ĠUngleichbehandlung": 5372,
      "ĠÃĸlpest": 5373,
      "ĠWirtschaftskommission": 5374,
      "ĠHarmonisierungsbestrebungen": 5375,
      "ĠBeschÃ¤ftigungsmÃ¶glichkeiten": 5376,
      "ĠModernisierungsvorhaben": 5377,
      "ĠMiÃŁbrauch": 5378,
      "ĠOrientierung": 5379,
      "ĠGewÃ¤hrleistung": 5380,
      "ĠTerritoriums": 5381,
      "ĠProduktivitÃ¤t": 5382,
      "ĠFÃ¼nfjahresprogramm": 5383,
      "ĠverantwortungsbewuÃŁt": 5384,
      "ĠBundesrepublik": 5385,
      "ĠPonnambalam": 5386,
      ");": 5387,
      ".,": 5388,
      "020": 5389,
      "10": 5390,
      "25": 5391,
      "34": 5392,
      "48": 5393,
      "496": 5394,
      "89": 5395,
      "Aus": 5396,
      "BC": 5397,
      "Bug": 5398,
      "CM": 5399,
      "CEN": 5400,
      "DR": 5401,
      "Die": 5402,
      "ED": 5403,
      "ER": 5404,
      "EU": 5405,
      "FÃ¶rderung": 5406,
      "Garantie": 5407,
      "Ko": 5408,
      "Kon": 5409,
      "Komm": 5410,
      "Leitlinien": 5411,
      "LÃ¤ndern": 5412,
      "Leist": 5413,
      "MU": 5414,
      "Man": 5415,
      "Mit": 5416,
      "Millen": 5417,
      "Pro": 5418,
      "REU": 5419,
      "SA": 5420,
      "SO": 5421,
      "SS": 5422,
      "Ste": 5423,
      "Sektor": 5424,
      "TCM": 5425,
      "VG": 5426,
      "Wachst": 5427,
      "WÃ¤hrungs": 5428,
      "av": 5429,
      "aw": 5430,
      "az": 5431,
      "aun": 5432,
      "agen": 5433,
      "ara": 5434,
      "ail": 5435,
      "ammen": 5436,
      "alle": 5437,
      "ager": 5438,
      "agt": 5439,
      "atel": 5440,
      "adem": 5441,
      "ateg": 5442,
      "atieren": 5443,
      "aure": 5444,
      "aspekt": 5445,
      "ammt": 5446,
      "aspekten": 5447,
      "bs": 5448,
      "bin": 5449,
      "bÃ¼": 5450,
      "bem": 5451,
      "bat": 5452,
      "bnen": 5453,
      "bischen": 5454,
      "bran": 5455,
      "brin": 5456,
      "binden": 5457,
      "bracht": 5458,
      "bour": 5459,
      "bindet": 5460,
      "bschluÃŁ": 5461,
      "basis": 5462,
      "brÃ¼ck": 5463,
      "cum": 5464,
      "ciert": 5465,
      "cial": 5466,
      "cou": 5467,
      "dd": 5468,
      "do": 5469,
      "dach": 5470,
      "dische": 5471,
      "digkeit": 5472,
      "dacht": 5473,
      "dam": 5474,
      "dland": 5475,
      "dienen": 5476,
      "digt": 5477,
      "dnung": 5478,
      "darf": 5479,
      "ev": 5480,
      "ez": 5481,
      "eer": 5482,
      "eti": 5483,
      "eur": 5484,
      "elle": 5485,
      "eau": 5486,
      "eere": 5487,
      "ektion": 5488,
      "eff": 5489,
      "everkehr": 5490,
      "eckt": 5491,
      "ezif": 5492,
      "emma": 5493,
      "ebels": 5494,
      "ecum": 5495,
      "fi": 5496,
      "fst": 5497,
      "ficht": 5498,
      "fre": 5499,
      "fiti": 5500,
      "fere": 5501,
      "fachen": 5502,
      "fÃ¶rder": 5503,
      "facht": 5504,
      "fÃ¶rderung": 5505,
      "fnisse": 5506,
      "flicht": 5507,
      "fielen": 5508,
      "funden": 5509,
      "fassung": 5510,
      "findung": 5511,
      "flex": 5512,
      "fron": 5513,
      "fgreifenden": 5514,
      "faktor": 5515,
      "fugnisse": 5516,
      "gg": 5517,
      "gei": 5518,
      "gie": 5519,
      "gst": 5520,
      "gnen": 5521,
      "gischen": 5522,
      "gungs": 5523,
      "gbar": 5524,
      "gab": 5525,
      "giger": 5526,
      "grunds": 5527,
      "gumen": 5528,
      "gÃ¤nge": 5529,
      "gÃ¤nger": 5530,
      "het": 5531,
      "hig": 5532,
      "herst": 5533,
      "here": 5534,
      "hern": 5535,
      "hbar": 5536,
      "hab": 5537,
      "hnt": 5538,
      "higt": 5539,
      "heim": 5540,
      "hnern": 5541,
      "hjahr": 5542,
      "hundert": 5543,
      "ij": 5544,
      "ip": 5545,
      "iv": 5546,
      "ix": 5547,
      "iden": 5548,
      "ider": 5549,
      "iar": 5550,
      "ikt": 5551,
      "iment": 5552,
      "iffen": 5553,
      "isten": 5554,
      "itel": 5555,
      "imer": 5556,
      "iste": 5557,
      "ipf": 5558,
      "iÃŁt": 5559,
      "ickt": 5560,
      "ifiz": 5561,
      "ice": 5562,
      "jun": 5563,
      "jack": 5564,
      "ker": 5565,
      "kungs": 5566,
      "kand": 5567,
      "kri": 5568,
      "kern": 5569,
      "kstell": 5570,
      "kok": 5571,
      "krei": 5572,
      "ktiven": 5573,
      "kolle": 5574,
      "kap": 5575,
      "klichkeit": 5576,
      "klicht": 5577,
      "komp": 5578,
      "kannten": 5579,
      "kurbe": 5580,
      "kologischen": 5581,
      "ld": 5582,
      "lm": 5583,
      "lem": 5584,
      "lat": 5585,
      "lien": 5586,
      "lver": 5587,
      "leitlinien": 5588,
      "lÃ¤ÃŁ": 5589,
      "lÃ¤ndern": 5590,
      "latt": 5591,
      "lug": 5592,
      "liber": 5593,
      "lgehen": 5594,
      "leitung": 5595,
      "lÃ¶st": 5596,
      "lisation": 5597,
      "lgischen": 5598,
      "liment": 5599,
      "mo": 5600,
      "mp": 5601,
      "ms": 5602,
      "mu": 5603,
      "mun": 5604,
      "mar": 5605,
      "mel": 5606,
      "mungs": 5607,
      "mand": 5608,
      "mau": 5609,
      "malen": 5610,
      "machen": 5611,
      "mul": 5612,
      "mums": 5613,
      "morgen": 5614,
      "machten": 5615,
      "miÃŁ": 5616,
      "nie": 5617,
      "nten": 5618,
      "nlich": 5619,
      "nach": 5620,
      "nÃ¼t": 5621,
      "nÃ¤chst": 5622,
      "nad": 5623,
      "nnetze": 5624,
      "napp": 5625,
      "nhof": 5626,
      "oin": 5627,
      "oge": 5628,
      "out": 5629,
      "ozi": 5630,
      "oeb": 5631,
      "ockt": 5632,
      "oij": 5633,
      "ps": 5634,
      "per": 5635,
      "pti": 5636,
      "pten": 5637,
      "put": 5638,
      "ptiven": 5639,
      "passen": 5640,
      "pha": 5641,
      "perten": 5642,
      "ptisch": 5643,
      "punkte": 5644,
      "pack": 5645,
      "punkten": 5646,
      "para": 5647,
      "rz": 5648,
      "rum": 5649,
      "rig": 5650,
      "rand": 5651,
      "rger": 5652,
      "rochen": 5653,
      "richtet": 5654,
      "ropf": 5655,
      "reser": 5656,
      "sv": 5657,
      "sst": 5658,
      "sde": 5659,
      "sre": 5660,
      "sent": 5661,
      "sges": 5662,
      "sgra": 5663,
      "sichtig": 5664,
      "sehen": 5665,
      "sgeb": 5666,
      "sfÃ¤h": 5667,
      "such": 5668,
      "sweisen": 5669,
      "sichtigt": 5670,
      "sverkehr": 5671,
      "sschutz": 5672,
      "sbereich": 5673,
      "sÃ¤chlich": 5674,
      "slosen": 5675,
      "svorhaben": 5676,
      "sniveau": 5677,
      "siere": 5678,
      "sÃ¤tze": 5679,
      "smitglie": 5680,
      "snetze": 5681,
      "sartigen": 5682,
      "sbezogenen": 5683,
      "saufgaben": 5684,
      "sorientierte": 5685,
      "tor": 5686,
      "tten": 5687,
      "tum": 5688,
      "talen": 5689,
      "tom": 5690,
      "tÃ¤tig": 5691,
      "treffen": 5692,
      "tativen": 5693,
      "tunnel": 5694,
      "ttent": 5695,
      "triebene": 5696,
      "tritts": 5697,
      "tropf": 5698,
      "ux": 5699,
      "uhr": 5700,
      "umm": 5701,
      "uier": 5702,
      "uungen": 5703,
      "ussen": 5704,
      "uell": 5705,
      "uern": 5706,
      "uierung": 5707,
      "uver": 5708,
      "uhe": 5709,
      "upt": 5710,
      "uellen": 5711,
      "uumt": 5712,
      "val": 5713,
      "vol": 5714,
      "vent": 5715,
      "vern": 5716,
      "vort": 5717,
      "vieren": 5718,
      "wettbewerb": 5719,
      "wann": 5720,
      "wahl": 5721,
      "wunden": 5722,
      "wachst": 5723,
      "wurf": 5724,
      "wenden": 5725,
      "wÃ¤l": 5726,
      "weiterung": 5727,
      "wende": 5728,
      "wÃ¤nde": 5729,
      "wider": 5730,
      "xten": 5731,
      "xeku": 5732,
      "yzentr": 5733,
      "zÃ": 5734,
      "zten": 5735,
      "zlich": 5736,
      "zut": 5737,
      "zis": 5738,
      "zierung": 5739,
      "zieren": 5740,
      "zisierung": 5741,
      "ziger": 5742,
      "zoren": 5743,
      "zesse": 5744,
      "zonen": 5745,
      "zeilen": 5746,
      "zstands": 5747,
      "¡le": 5748,
      "ÃŃ": 5749,
      "Ġch": 5750,
      "ĠÃ¼": 5751,
      "Ġor": 5752,
      "Ġungen": 5753,
      "Ġehr": 5754,
      "Ġtra": 5755,
      "Ġreich": 5756,
      "ĠÃ¤h": 5757,
      "Ġul": 5758,
      "Ġlagen": 5759,
      "Ġlaut": 5760,
      "Ġemp": 5761,
      "Ġ40": 5762,
      "Ġ..": 5763,
      "Ġlag": 5764,
      "Ġ000": 5765,
      "enkt": 5766,
      "enkung": 5767,
      "entwurf": 5768,
      "enov": 5769,
      "enbezogenen": 5770,
      "ernen": 5771,
      "erischen": 5772,
      "erell": 5773,
      "erieren": 5774,
      "erlicher": 5775,
      "erhalten": 5776,
      "erdings": 5777,
      "erlegt": 5778,
      "erregende": 5779,
      "erbet": 5780,
      "ertifizierung": 5781,
      "erlÃ¤ÃŁ": 5782,
      "chischen": 5783,
      "chse": 5784,
      "chtigen": 5785,
      "chmal": 5786,
      "chtern": 5787,
      "chteren": 5788,
      "chverbot": 5789,
      "Ġdor": 5790,
      "ĠdÃ¤n": 5791,
      "ĠdÃ¼n": 5792,
      "Ġdopp": 5793,
      "Ġdritten": 5794,
      "eid": 5795,
      "eira": 5796,
      "eila": 5797,
      "eiben": 5798,
      "eils": 5799,
      "eise": 5800,
      "eiste": 5801,
      "eistigen": 5802,
      "eisniveau": 5803,
      "unen": 5804,
      "unru": 5805,
      "unha": 5806,
      "iete": 5807,
      "ieten": 5808,
      "iegen": 5809,
      "ieden": 5810,
      "ieds": 5811,
      "iegelt": 5812,
      "ichti": 5813,
      "ichpunkt": 5814,
      "stra": 5815,
      "stÃ¶": 5816,
      "stat": 5817,
      "steil": 5818,
      "strÃ¤": 5819,
      "stuf": 5820,
      "stieren": 5821,
      "stdeut": 5822,
      "stÃ¤rk": 5823,
      "steht": 5824,
      "streichen": 5825,
      "stÃ¤d": 5826,
      "stmÃ¶glichen": 5827,
      "stha": 5828,
      "steine": 5829,
      "stÃ¤nde": 5830,
      "stabil": 5831,
      "stÃ¼rze": 5832,
      "steigt": 5833,
      "stockt": 5834,
      "steils": 5835,
      "iner": 5836,
      "ingen": 5837,
      "inder": 5838,
      "inter": 5839,
      "initi": 5840,
      "iniert": 5841,
      "inellen": 5842,
      "inderung": 5843,
      "information": 5844,
      "intensive": 5845,
      "onal": 5846,
      "onach": 5847,
      "onnen": 5848,
      "onischen": 5849,
      "onsten": 5850,
      "ontan": 5851,
      "ondon": 5852,
      "onta": 5853,
      "onabhÃ¤ng": 5854,
      "ontalen": 5855,
      "onzÃ": 5856,
      "Ġwiss": 5857,
      "Ġwach": 5858,
      "ĠwÃ¶r": 5859,
      "Ġwegen": 5860,
      "ĠwÃ¤hrung": 5861,
      "Ġwalten": 5862,
      "ĠwÃ¼ÃŁ": 5863,
      "Ġweckt": 5864,
      "Ġwichti": 5865,
      "Ġwonach": 5866,
      "ungfern": 5867,
      "ungunsten": 5868,
      "ungssektors": 5869,
      "ungspolitischer": 5870,
      "Ġacht": 5871,
      "Ġalten": 5872,
      "Ġabend": 5873,
      "Ġadd": 5874,
      "Ġagg": 5875,
      "gell": 5876,
      "geber": 5877,
      "gemer": 5878,
      "gefÃ¼hr": 5879,
      "gefÃ¼": 5880,
      "gesprochen": 5881,
      "gegangen": 5882,
      "geschn": 5883,
      "geschlagen": 5884,
      "gezahl": 5885,
      "gewirkt": 5886,
      "gezÃ¤hlt": 5887,
      "gewerke": 5888,
      "gedacht": 5889,
      "gefunden": 5890,
      "gegnen": 5891,
      "Ã¤te": 5892,
      "Ã¤ss": 5893,
      "Ã¤ter": 5894,
      "Ã¤fen": 5895,
      "Ã¤che": 5896,
      "Ã¤ÃŁe": 5897,
      "Ã¤lt": 5898,
      "Ã¤isches": 5899,
      "Ã¤stige": 5900,
      "Ã¤gewerke": 5901,
      "Ġderzeit": 5902,
      "Ġderart": 5903,
      "scheh": 5904,
      "schort": 5905,
      "schÃ¼ssen": 5906,
      "schusses": 5907,
      "schichten": 5908,
      "schÃ¤tz": 5909,
      "schienen": 5910,
      "schritt": 5911,
      "Ã¼ste": 5912,
      "Ã¼ÃŁen": 5913,
      "Ã¼genden": 5914,
      "Ã¼ÃŁt": 5915,
      "Ã¼ckt": 5916,
      "Ã¼hner": 5917,
      "Ã¼deurop": 5918,
      "Ã¼hlen": 5919,
      "Ã¼chse": 5920,
      "Ġunum": 5921,
      "Ġunann": 5922,
      "Ġunvor": 5923,
      "Ġunab": 5924,
      "Ġunert": 5925,
      "Ġunkon": 5926,
      "Ġunschul": 5927,
      "Ġunheil": 5928,
      "Ġunzur": 5929,
      "Ġunzwei": 5930,
      "ĠunnÃ¼t": 5931,
      "ĠunerlÃ¤ÃŁ": 5932,
      "einhal": 5933,
      "einglie": 5934,
      "einhalb": 5935,
      "einerung": 5936,
      "eingenommen": 5937,
      "einheiten": 5938,
      "einvorhaben": 5939,
      "einfl": 5940,
      "einander": 5941,
      "einfachung": 5942,
      "einfacht": 5943,
      "Ġsah": 5944,
      "Ġsetzt": 5945,
      "Ġske": 5946,
      "Ġsektor": 5947,
      "Ġsenden": 5948,
      "Ġsorg": 5949,
      "Ġsystem": 5950,
      "ĠsÃ¤um": 5951,
      "Ġsub": 5952,
      "Ġsumm": 5953,
      "ĠsÃ¼deurop": 5954,
      "esiegel": 5955,
      "tiÃ¤r": 5956,
      "tierung": 5957,
      "tierten": 5958,
      "Ġdavor": 5959,
      "Ġdahin": 5960,
      "Ġdamals": 5961,
      "Ġdauert": 5962,
      "ory": 5963,
      "oral": 5964,
      "orter": 5965,
      "orischen": 5966,
      "orien": 5967,
      "ortet": 5968,
      "organ": 5969,
      "oriz": 5970,
      "orme": 5971,
      "orsel": 5972,
      "oritÃ¤ten": 5973,
      "orwegen": 5974,
      "oritÃ¤r": 5975,
      "ordeurop": 5976,
      "orld": 5977,
      "ante": 5978,
      "anla": 5979,
      "anis": 5980,
      "anzu": 5981,
      "anger": 5982,
      "angem": 5983,
      "angelegen": 5984,
      "anfÃ¼hrung": 5985,
      "anstrengungen": 5986,
      "anspruch": 5987,
      "anressourcen": 5988,
      "angelegte": 5989,
      "Ġziel": 5990,
      "Ġziti": 5991,
      "Ġzeu": 5992,
      "Ġzeig": 5993,
      "ĠzÃ¶gert": 5994,
      "Ġvage": 5995,
      "Ġvolks": 5996,
      "ÃŁes": 5997,
      "tem": 5998,
      "tektion": 5999,
      "testete": 6000,
      "text": 6001,
      "Ġmischen": 6002,
      "ĠmÃ¤ch": 6003,
      "Ġmass": 6004,
      "Ġminde": 6005,
      "Ġmeist": 6006,
      "Ġmark": 6007,
      "Ġmorg": 6008,
      "Ġmetho": 6009,
      "ĠmÃ¼ÃŁ": 6010,
      "Ġmoral": 6011,
      "tenviel": 6012,
      "tentwicklung": 6013,
      "tenteils": 6014,
      "Ġbir": 6015,
      "ĠbÃ¶": 6016,
      "Ġbil": 6017,
      "Ġbinden": 6018,
      "Ġbret": 6019,
      "Ġbindet": 6020,
      "Ġbreite": 6021,
      "ĠbiÃŁ": 6022,
      "Ġbreit": 6023,
      "Ġbrem": 6024,
      "Ġbeinhal": 6025,
      "Ġeingel": 6026,
      "Ġeinnehmen": 6027,
      "ĠeinschlÃ¤": 6028,
      "ĠeinfÃ¼hren": 6029,
      "Ġeinzus": 6030,
      "Ġeinschn": 6031,
      "Ġeinrichten": 6032,
      "ĠeinzufÃ¼hren": 6033,
      "Ġeinzusetzen": 6034,
      "Ġeinleiten": 6035,
      "Ġeinsei": 6036,
      "Ġeinzur": 6037,
      "ĠeinschÃ¤tzen": 6038,
      "Ġeingesetz": 6039,
      "Ġeinsetzen": 6040,
      "Ġeinbindet": 6041,
      "Ġeinfachen": 6042,
      "Ġeinstreichen": 6043,
      "ures": 6044,
      "urcht": 6045,
      "urger": 6046,
      "urist": 6047,
      "urtz": 6048,
      "urteilen": 6049,
      "urzum": 6050,
      "urteils": 6051,
      "urms": 6052,
      "ĠAd": 6053,
      "ĠAsi": 6054,
      "ĠAlten": 6055,
      "ĠAhn": 6056,
      "ĠABC": 6057,
      "ĠADR": 6058,
      "ĠAhern": 6059,
      "ĠAlm": 6060,
      "ĠAttent": 6061,
      "ĠAzoren": 6062,
      "llel": 6063,
      "lligerweise": 6064,
      "llorgan": 6065,
      "ĠSeg": 6066,
      "ĠSind": 6067,
      "ĠSÃ¼n": 6068,
      "ĠSonder": 6069,
      "ĠSorgen": 6070,
      "ĠSatz": 6071,
      "ĠSeine": 6072,
      "ĠSim": 6073,
      "ĠServ": 6074,
      "ĠSicherung": 6075,
      "ĠSav": 6076,
      "ĠSkand": 6077,
      "ĠSenkung": 6078,
      "ĠSÃ¤gewerke": 6079,
      "ĠBra": 6080,
      "ĠBit": 6081,
      "ĠBus": 6082,
      "ĠBis": 6083,
      "ĠBah": 6084,
      "ĠBau": 6085,
      "ĠBlo": 6086,
      "ĠBom": 6087,
      "ĠBill": 6088,
      "ĠBrÃ¼": 6089,
      "ĠBour": 6090,
      "ĠBindung": 6091,
      "ĠBreite": 6092,
      "ĠBrad": 6093,
      "genz": 6094,
      "gender": 6095,
      "genutzt": 6096,
      "rate": 6097,
      "ration": 6098,
      "ravier": 6099,
      "rallel": 6100,
      "Ġneh": 6101,
      "Ġnamen": 6102,
      "Ġnahmen": 6103,
      "Ġnennt": 6104,
      "Ġnutzt": 6105,
      "Ġnenne": 6106,
      "Ġnannte": 6107,
      "Ġnordeurop": 6108,
      "hre": 6109,
      "lichkeiten": 6110,
      "denburg": 6111,
      "iriert": 6112,
      "irektion": 6113,
      "Ġaussen": 6114,
      "Ġautom": 6115,
      "Ġimmen": 6116,
      "eitern": 6117,
      "eitert": 6118,
      "eiterungs": 6119,
      "dererseits": 6120,
      "deralist": 6121,
      "derÃ¤te": 6122,
      "ĠEle": 6123,
      "ĠExp": 6124,
      "ĠEval": 6125,
      "ĠExeku": 6126,
      "ĠEhre": 6127,
      "mme": 6128,
      "mmel": 6129,
      "mmungs": 6130,
      "mmern": 6131,
      "ĠPlo": 6132,
      "ĠPap": 6133,
      "ĠPad": 6134,
      "ĠPSE": 6135,
      "ĠPuert": 6136,
      "ĠPunkten": 6137,
      "ĠPortug": 6138,
      "ĠPakte": 6139,
      "ĠPhant": 6140,
      "ĠPREU": 6141,
      "ĠPeti": 6142,
      "ĠPlatt": 6143,
      "ary": 6144,
      "arge": 6145,
      "arbe": 6146,
      "artige": 6147,
      "arfe": 6148,
      "arsit": 6149,
      "argar": 6150,
      "arif": 6151,
      "arismus": 6152,
      "als": 6153,
      "alpro": 6154,
      "alisierungs": 6155,
      "alif": 6156,
      "alstaaten": 6157,
      "alteten": 6158,
      "alifiz": 6159,
      "alpha": 6160,
      "Ġinsp": 6161,
      "Ġinhalt": 6162,
      "Ġinak": 6163,
      "Ġindes": 6164,
      "Ġintensi": 6165,
      "Ġinvest": 6166,
      "Ġinstabil": 6167,
      "ssicht": 6168,
      "ssisches": 6169,
      "ssicherung": 6170,
      "itze": 6171,
      "itagung": 6172,
      "itzstands": 6173,
      "ĠKil": 6174,
      "ĠKri": 6175,
      "ĠKenn": 6176,
      "ĠKern": 6177,
      "ĠKran": 6178,
      "ĠKrei": 6179,
      "ĠKap": 6180,
      "ĠKÃ¼nftig": 6181,
      "ĠKÃ¤l": 6182,
      "ĠKÃ¼rze": 6183,
      "ĠKMU": 6184,
      "ĠKateg": 6185,
      "ĠKinder": 6186,
      "ĠKÃ¼ste": 6187,
      "ĠKurzum": 6188,
      "ĠfÃ¶": 6189,
      "Ġfru": 6190,
      "Ġflie": 6191,
      "Ġfahr": 6192,
      "Ġfern": 6193,
      "Ġfrie": 6194,
      "Ġfrag": 6195,
      "Ġfunktion": 6196,
      "ĠfaÃŁt": 6197,
      "Ġfeder": 6198,
      "Ġfund": 6199,
      "Ġfrist": 6200,
      "ĠfÃ¶rdert": 6201,
      "Ġfast": 6202,
      "ĠflieÃŁen": 6203,
      "Ġfail": 6204,
      "Ġfix": 6205,
      "Ġfuhr": 6206,
      "ĠfÃ¼hlen": 6207,
      "Ġfurcht": 6208,
      "ĠDem": 6209,
      "ĠDat": 6210,
      "ĠDil": 6211,
      "ĠDann": 6212,
      "ĠDoll": 6213,
      "ĠDanken": 6214,
      "ĠDenken": 6215,
      "ĠDirekt": 6216,
      "ĠDisziplin": 6217,
      "ĠDÃŃ": 6218,
      "ĠDingen": 6219,
      "ĠDirektion": 6220,
      "Ġhel": 6221,
      "Ġhil": 6222,
      "Ġhegen": 6223,
      "ĠhÃ¶ren": 6224,
      "Ġhoriz": 6225,
      "Ġzuerst": 6226,
      "Ġzustimm": 6227,
      "Ġzudem": 6228,
      "Ġzugleich": 6229,
      "Ġzugenommen": 6230,
      "Ġzugeben": 6231,
      "Ġzulassen": 6232,
      "Ġzutie": 6233,
      "ĠzufÃ¤": 6234,
      "Ġzufolge": 6235,
      "Ġzuviel": 6236,
      "Ġzuerk": 6237,
      "Ġzufrieden": 6238,
      "Ġzutreffen": 6239,
      "Ġzuwider": 6240,
      "Ġzuungunsten": 6241,
      "ionsrecht": 6242,
      "emand": 6243,
      "emburg": 6244,
      "eth": 6245,
      "Ã¼rzt": 6246,
      "Ã¼rgern": 6247,
      "Ã¼rfnisse": 6248,
      "Ã¶te": 6249,
      "Ã¶chte": 6250,
      "Ã¶ff": 6251,
      "Ã¶hn": 6252,
      "ĠWehr": 6253,
      "ĠWel": 6254,
      "ĠWÃ¼n": 6255,
      "ĠWeil": 6256,
      "ĠWeb": 6257,
      "ĠWest": 6258,
      "ĠWaren": 6259,
      "ĠWÃ¤re": 6260,
      "ĠWesen": 6261,
      "ĠWasserstra": 6262,
      "ĠWyn": 6263,
      "ĠWide": 6264,
      "ĠWerbet": 6265,
      "ĠWorld": 6266,
      "ĠWurtz": 6267,
      "ĠRel": 6268,
      "ĠRau": 6269,
      "ĠRÃ¼hr": 6270,
      "ĠRation": 6271,
      "ĠRichtig": 6272,
      "ĠRang": 6273,
      "ĠRuf": 6274,
      "ĠRichtige": 6275,
      "ĠRÃ¤um": 6276,
      "ĠRufen": 6277,
      "ĠRÃ¤umen": 6278,
      "ĠRober": 6279,
      "ĠRÃ©": 6280,
      "ĠReser": 6281,
      "ĠRout": 6282,
      "ĠRuhe": 6283,
      "ĠRenov": 6284,
      "ĠKopf": 6285,
      "Ġgede": 6286,
      "Ġgewei": 6287,
      "Ġgesen": 6288,
      "Ġgeschie": 6289,
      "Ġgeforder": 6290,
      "ĠgefÃ¼r": 6291,
      "ĠgeÃ¤nder": 6292,
      "ĠgestÃ¼t": 6293,
      "Ġgespiel": 6294,
      "Ġgelassen": 6295,
      "ĠgeklÃ¤r": 6296,
      "Ġgetreten": 6297,
      "Ġgelen": 6298,
      "Ġgeko": 6299,
      "Ġgehand": 6300,
      "Ġgeziel": 6301,
      "Ġgedenken": 6302,
      "Ġgearbeitet": 6303,
      "Ġgezeigt": 6304,
      "Ġgeplan": 6305,
      "ĠgeprÃ¤gt": 6306,
      "ĠgedrÃ¤ngt": 6307,
      "ĠgelÃ¶st": 6308,
      "Ġgetestete": 6309,
      "ĠgeÃ¶ff": 6310,
      "atus": 6311,
      "atalog": 6312,
      "Ġwirft": 6313,
      "ĠMig": 6314,
      "ĠMel": 6315,
      "ĠMut": 6316,
      "ĠMil": 6317,
      "ĠMand": 6318,
      "ĠMann": 6319,
      "ĠMÃ¤r": 6320,
      "ĠMacht": 6321,
      "ĠMul": 6322,
      "ĠMed": 6323,
      "ĠMech": 6324,
      "ĠMassen": 6325,
      "ĠMex": 6326,
      "ĠMad": 6327,
      "ĠMaxi": 6328,
      "ĠMater": 6329,
      "ĠMeer": 6330,
      "ĠMargar": 6331,
      "ĠMÃ¶chte": 6332,
      "ĠFahr": 6333,
      "ĠFlo": 6334,
      "ĠFÃ¤h": 6335,
      "ĠFund": 6336,
      "ĠFerien": 6337,
      "ĠFaktor": 6338,
      "ĠFalle": 6339,
      "ĠFlug": 6340,
      "ĠFÃ¼ÃŁen": 6341,
      "ĠFarbe": 6342,
      "ĠVon": 6343,
      "ĠVier": 6344,
      "ĠVis": 6345,
      "ĠVak": 6346,
      "ĠVÃ¶lk": 6347,
      "ĠVenti": 6348,
      "ĠVolks": 6349,
      "ĠVotum": 6350,
      "ĠVadem": 6351,
      "menten": 6352,
      "mengen": 6353,
      "Ġkla": 6354,
      "Ġklin": 6355,
      "ĠkÃ¼nf": 6356,
      "Ġkam": 6357,
      "Ġkalten": 6358,
      "Ġkopp": 6359,
      "ĠkÃ¼rze": 6360,
      "Ġkenne": 6361,
      "Ġknapp": 6362,
      "ĠkÃ¼hner": 6363,
      "Ġkarge": 6364,
      "ĠIst": 6365,
      "ĠISO": 6366,
      "ĠHum": 6367,
      "ĠHut": 6368,
      "ĠHoch": 6369,
      "ĠHick": 6370,
      "ĠHalt": 6371,
      "ĠHed": 6372,
      "ĠHag": 6373,
      "ĠHyp": 6374,
      "ĠHÃ¤fen": 6375,
      "egin": 6376,
      "egiert": 6377,
      "egativ": 6378,
      "egsverkehr": 6379,
      "berichte": 6380,
      "dete": 6381,
      "defiz": 6382,
      "dehnt": 6383,
      "Ġdiesmal": 6384,
      "ĠdiesjÃ¤hrige": 6385,
      "terung": 6386,
      "tergrund": 6387,
      "terfragt": 6388,
      "ĠPreisniveau": 6389,
      "ĠPranger": 6390,
      "Ġaufre": 6391,
      "Ġaufger": 6392,
      "Ġaufnehmen": 6393,
      "Ġaufwend": 6394,
      "Ġaufweisen": 6395,
      "ĠaufklÃ¤r": 6396,
      "Ġaufrecht": 6397,
      "Ġaufbau": 6398,
      "Ġauffordert": 6399,
      "Ġaufgreifen": 6400,
      "Ġaufweist": 6401,
      "Ġaufzeigt": 6402,
      "ĠaufgelÃ¶st": 6403,
      "Ġaufbrin": 6404,
      "Ġaufpassen": 6405,
      "Ġauferlegt": 6406,
      "lation": 6407,
      "lagt": 6408,
      "lasten": 6409,
      "lagern": 6410,
      "labschluÃŁ": 6411,
      "user": 6412,
      "ushalt": 6413,
      "ierungsan": 6414,
      "ierteren": 6415,
      "ĠvonnÃ¶": 6416,
      "Ġgrei": 6417,
      "Ġgrie": 6418,
      "ĠgÃ¼nst": 6419,
      "Ġgeistigen": 6420,
      "Ġgravier": 6421,
      "ĠGA": 6422,
      "ĠGanz": 6423,
      "ĠGÃ¼t": 6424,
      "ĠGibt": 6425,
      "ĠGlau": 6426,
      "ĠGelt": 6427,
      "ĠGute": 6428,
      "ĠGeist": 6429,
      "ĠGrÃ¶": 6430,
      "ĠGlÃ¼ckwÃ¼n": 6431,
      "ĠGrupp": 6432,
      "ĠGou": 6433,
      "ĠGrem": 6434,
      "ĠGarantie": 6435,
      "ĠGipf": 6436,
      "ĠGoeb": 6437,
      "ĠGonzÃ": 6438,
      "ĠGorsel": 6439,
      "ktron": 6440,
      "ktober": 6441,
      "achte": 6442,
      "achtet": 6443,
      "achgemÃ¤ÃŁ": 6444,
      "Ġsofor": 6445,
      "Ġsolan": 6446,
      "Ġersp": 6447,
      "Ġerleich": 6448,
      "Ġerken": 6449,
      "Ġerlei": 6450,
      "Ġerhe": 6451,
      "Ġerkl": 6452,
      "Ġerweisen": 6453,
      "Ġersichtlich": 6454,
      "Ġersu": 6455,
      "Ġergrei": 6456,
      "Ġereig": 6457,
      "Ġergreifen": 6458,
      "ĠerhÃ¤lt": 6459,
      "Ġerziel": 6460,
      "Ġerarbei": 6461,
      "Ġerarbeiten": 6462,
      "Ġerfordern": 6463,
      "ĠerlÃ¤u": 6464,
      "ĠerschlieÃŁen": 6465,
      "Ġerfassen": 6466,
      "ĠermÃ¶glich": 6467,
      "ĠerfaÃŁt": 6468,
      "Ġerbracht": 6469,
      "Ġermu": 6470,
      "Ġerschienen": 6471,
      "ĠUSA": 6472,
      "ĠUrz": 6473,
      "ehnen": 6474,
      "ehandlung": 6475,
      "spri": 6476,
      "spek": 6477,
      "sprÃ¼": 6478,
      "speist": 6479,
      "sparitÃ¤t": 6480,
      "spakten": 6481,
      "spiegel": 6482,
      "spflicht": 6483,
      "ĠZeich": 6484,
      "ĠZent": 6485,
      "ĠZentra": 6486,
      "ĠZiff": 6487,
      "ĠZimer": 6488,
      "ĠZertifizierung": 6489,
      "Ġnichtwettbewerb": 6490,
      "ĠKommunen": 6491,
      "fentwurf": 6492,
      "Ġans": 6493,
      "Ġanscha": 6494,
      "Ġandern": 6495,
      "Ġangelegen": 6496,
      "Ġanni": 6497,
      "Ġanzulegen": 6498,
      "Ġanhand": 6499,
      "Ġanrichten": 6500,
      "ĠanzufÃ¼hren": 6501,
      "Ġangebot": 6502,
      "Ġankommt": 6503,
      "Ġanfang": 6504,
      "Ġanvis": 6505,
      "Ġanwesen": 6506,
      "Ġanregende": 6507,
      "Ġansagen": 6508,
      "Ġangelegte": 6509,
      "Ġankern": 6510,
      "Ġansteigt": 6511,
      "bel": 6512,
      "bescha": 6513,
      "bele": 6514,
      "bestÃ¤nd": 6515,
      "beschluÃŁ": 6516,
      "betent": 6517,
      "befrei": 6518,
      "belehr": 6519,
      "bedarf": 6520,
      "besteht": 6521,
      "ckung": 6522,
      "cklichen": 6523,
      "ckbildung": 6524,
      "Ġverbl": 6525,
      "Ġverwir": 6526,
      "Ġverank": 6527,
      "ĠverstÃ¤nd": 6528,
      "Ġverrin": 6529,
      "Ġvermittel": 6530,
      "Ġvertei": 6531,
      "Ġvervoll": 6532,
      "Ġvertie": 6533,
      "ĠverhÃ¤n": 6534,
      "Ġverwor": 6535,
      "Ġversagt": 6536,
      "Ġverzer": 6537,
      "Ġvereint": 6538,
      "ĠverschlieÃŁen": 6539,
      "Ġverteilen": 6540,
      "ĠverpaÃŁt": 6541,
      "Ġversprechen": 6542,
      "Ġverweist": 6543,
      "Ġverwendet": 6544,
      "ĠverfÃ¼gen": 6545,
      "ĠverdrÃ¤ngt": 6546,
      "Ġverurteilten": 6547,
      "Ġverdienen": 6548,
      "Ġverficht": 6549,
      "Ġvereinfacht": 6550,
      "Ġveranla": 6551,
      "Ġverlagern": 6552,
      "eichten": 6553,
      "eichter": 6554,
      "eichende": 6555,
      "ĠVerschie": 6556,
      "ĠVertrag": 6557,
      "ĠVerank": 6558,
      "ĠVerschieden": 6559,
      "ĠVerzug": 6560,
      "ĠVerklÃ¤r": 6561,
      "ĠVerrin": 6562,
      "ĠVerhin": 6563,
      "ĠVertie": 6564,
      "ĠVerehrte": 6565,
      "ĠVerdr": 6566,
      "ĠVerurs": 6567,
      "ĠVersuchen": 6568,
      "ĠVergessen": 6569,
      "ĠVerrat": 6570,
      "ĠVertrÃ¤gen": 6571,
      "ĠVerlauf": 6572,
      "ĠVerlu": 6573,
      "ĠVeruns": 6574,
      "ĠVerurteilten": 6575,
      "ĠVerpack": 6576,
      "ĠVerstÃ¶": 6577,
      "ehrreich": 6578,
      "igte": 6579,
      "igungs": 6580,
      "igste": 6581,
      "iginellen": 6582,
      "Ġdessel": 6583,
      "Ġdeswegen": 6584,
      "Ġdeskri": 6585,
      "ĠLÃ¼ck": 6586,
      "ĠLetzt": 6587,
      "ĠLang": 6588,
      "ĠLande": 6589,
      "ĠLauf": 6590,
      "ĠLÃ¤nge": 6591,
      "ĠLTCM": 6592,
      "ĠListe": 6593,
      "ĠLux": 6594,
      "ĠLondon": 6595,
      "Ġbewir": 6596,
      "Ġbelegen": 6597,
      "Ġbeab": 6598,
      "Ġbeacht": 6599,
      "Ġbeschaffen": 6600,
      "Ġbezogen": 6601,
      "Ġbestimmen": 6602,
      "Ġbeenden": 6603,
      "Ġbewirken": 6604,
      "Ġbelegt": 6605,
      "Ġbeweist": 6606,
      "Ġbewirkt": 6607,
      "Ġbelehr": 6608,
      "Ġbedenkt": 6609,
      "Ġbefragt": 6610,
      "Ġbelgischen": 6611,
      "Ġbeunru": 6612,
      "Ġbegegnen": 6613,
      "Ġbeeinfl": 6614,
      "Ġbeurteilen": 6615,
      "Ġbeachtet": 6616,
      "ĠBerlin": 6617,
      "ĠBeruf": 6618,
      "ĠBerater": 6619,
      "ĠBernie": 6620,
      "ologe": 6621,
      "olyzentr": 6622,
      "rekt": 6623,
      "reut": 6624,
      "repp": 6625,
      "reformen": 6626,
      "repara": 6627,
      "recklichen": 6628,
      "opfern": 6629,
      "Ġwerten": 6630,
      "Ġwerfen": 6631,
      "tionelles": 6632,
      "Ã¤nen": 6633,
      "Ã¤nglich": 6634,
      "Ã¤nitÃ¤t": 6635,
      "Ã¤ngere": 6636,
      "ĠHerstellung": 6637,
      "ĠHeranfÃ¼hrung": 6638,
      "ĠUnbeh": 6639,
      "ĠUnheil": 6640,
      "ĠUnwissen": 6641,
      "ĠUnabhÃ¤ng": 6642,
      "elte": 6643,
      "Ġletzt": 6644,
      "ĠlÃ¤nder": 6645,
      "Ġlos": 6646,
      "Ġleist": 6647,
      "Ġliber": 6648,
      "Ġlegisla": 6649,
      "Ġloben": 6650,
      "Ġleere": 6651,
      "Ġlernen": 6652,
      "ĠlÃ¤stige": 6653,
      "Ġlangem": 6654,
      "Ġlehnen": 6655,
      "Ġleichter": 6656,
      "Ġlehrreich": 6657,
      "ĠlÃ¤ngere": 6658,
      "ĠKommissionsprogramme": 6659,
      "ĠKommissionsmitglie": 6660,
      "schauen": 6661,
      "schaffung": 6662,
      "schadet": 6663,
      "schauungen": 6664,
      "ĠStah": 6665,
      "ĠStÃ¶r": 6666,
      "ĠStÃ¤rk": 6667,
      "ĠStart": 6668,
      "ĠStopp": 6669,
      "ĠStreit": 6670,
      "ĠStatus": 6671,
      "Ġstimmt": 6672,
      "Ġstabil": 6673,
      "Ġsteigt": 6674,
      "Ġstreicht": 6675,
      "ĠstÃ¼tzen": 6676,
      "Ġstammt": 6677,
      "Ġstichpunkt": 6678,
      "lichenfalls": 6679,
      "asi": 6680,
      "asie": 6681,
      "tweit": 6682,
      "tweise": 6683,
      "utage": 6684,
      "uropas": 6685,
      "ĠvorÃ¼ber": 6686,
      "Ġvorau": 6687,
      "Ġvornehmen": 6688,
      "Ġvorschlag": 6689,
      "Ġvorgenommen": 6690,
      "Ġvorgeben": 6691,
      "ĠvorschlÃ¤": 6692,
      "Ġvorzeitig": 6693,
      "Ġvorhin": 6694,
      "Ġvormals": 6695,
      "Ġvorschlagen": 6696,
      "Ġvorzustellen": 6697,
      "Ġvorzunehmen": 6698,
      "Ġvorgelegten": 6699,
      "Ġvorlag": 6700,
      "Ġvoranzut": 6701,
      "Ġvorsichtig": 6702,
      "Ġvoranzu": 6703,
      "siv": 6704,
      "sige": 6705,
      "sifiz": 6706,
      "sifizierung": 6707,
      "silien": 6708,
      "etzigen": 6709,
      "Ã¼bergreifenden": 6710,
      "Ã¼berlegungen": 6711,
      "ĠTun": 6712,
      "ĠTaus": 6713,
      "ĠTest": 6714,
      "ĠTreffen": 6715,
      "ĠTour": 6716,
      "ĠToten": 6717,
      "ĠTragen": 6718,
      "ĠTrotz": 6719,
      "ĠTenden": 6720,
      "ĠTyp": 6721,
      "ĠTauern": 6722,
      "ĠThese": 6723,
      "ĠTeila": 6724,
      "ĠTurms": 6725,
      "ĠTrepp": 6726,
      "uÃŁen": 6727,
      "ĠunsachgemÃ¤ÃŁ": 6728,
      "werten": 6729,
      "wertige": 6730,
      "wertiger": 6731,
      "werbstÃ¤tigkeit": 6732,
      "isab": 6733,
      "isierte": 6734,
      "isierungen": 6735,
      "isonabhÃ¤ng": 6736,
      "indungen": 6737,
      "indliche": 6738,
      "indlichkeit": 6739,
      "indigkeiten": 6740,
      "ĠBeste": 6741,
      "ĠBewirtschaft": 6742,
      "ĠBefÃ¤h": 6743,
      "ĠBezug": 6744,
      "ĠBeweise": 6745,
      "ĠBekun": 6746,
      "ĠBestand": 6747,
      "ĠBeam": 6748,
      "ĠBescheiden": 6749,
      "ĠBeschluÃŁ": 6750,
      "ĠBedien": 6751,
      "ĠBewo": 6752,
      "ĠBewohner": 6753,
      "ĠBewÃ¤l": 6754,
      "ĠAngel": 6755,
      "ĠAnhang": 6756,
      "ĠAnsatz": 6757,
      "ĠAnhand": 6758,
      "ĠAnschluÃŁ": 6759,
      "ĠAnheb": 6760,
      "ĠAngri": 6761,
      "ĠAnbie": 6762,
      "ĠAnbet": 6763,
      "ĠAnerk": 6764,
      "ĠAnstieg": 6765,
      "ĠAnreize": 6766,
      "ĠAnfÃ¼hrungs": 6767,
      "ĠAnteile": 6768,
      "ĠAngst": 6769,
      "ĠAnleitung": 6770,
      "ĠAnmel": 6771,
      "ĠAntritts": 6772,
      "ĠAndererseits": 6773,
      "ĠAnalpha": 6774,
      "ĠAnschauungen": 6775,
      "ildert": 6776,
      "ilegiert": 6777,
      "ildete": 6778,
      "ienberichten": 6779,
      "ĠBerichtsen": 6780,
      "itiv": 6781,
      "itiativen": 6782,
      "ungsunter": 6783,
      "ungsarbeiten": 6784,
      "ungsvolle": 6785,
      "ungsstrateg": 6786,
      "ungsmaÃŁnahmen": 6787,
      "ungsinst": 6788,
      "ungsfaktor": 6789,
      "ungsgefÃ¼": 6790,
      "schaftlich": 6791,
      "schaftliche": 6792,
      "schaftspflicht": 6793,
      "andieren": 6794,
      "andid": 6795,
      "Ġmithalten": 6796,
      "Ġmitgeben": 6797,
      "Ġmitunter": 6798,
      "Ġmitwirken": 6799,
      "Ġmitzuwirken": 6800,
      "Ġmitzut": 6801,
      "ĠmitgezÃ¤hlt": 6802,
      "Ġbeider": 6803,
      "Ġbeigemessen": 6804,
      "Ġbeizum": 6805,
      "ĠInso": 6806,
      "ĠInvestitionen": 6807,
      "ĠInvest": 6808,
      "ĠInanspruch": 6809,
      "rufen": 6810,
      "rumente": 6811,
      "rumenten": 6812,
      "ĠProzent": 6813,
      "zugt": 6814,
      "zudenken": 6815,
      "zuheben": 6816,
      "zuweis": 6817,
      "zufÃ¼gen": 6818,
      "zuerhalten": 6819,
      "zuwerten": 6820,
      "ahnung": 6821,
      "liegen": 6822,
      "liefert": 6823,
      "ĠÃ¼bernehmen": 6824,
      "ĠÃ¼bergeben": 6825,
      "ĠÃ¼berlassen": 6826,
      "ĠÃ¼bertragen": 6827,
      "ĠÃ¼berdenken": 6828,
      "ĠÃ¼berfl": 6829,
      "ĠÃ¼bergreifenden": 6830,
      "ĠÃ¼berlÃ¤ÃŁt": 6831,
      "ĠÃ¼bertragenen": 6832,
      "ĠÃ¼berbrÃ¼ck": 6833,
      "ĠÃ¼bermorgen": 6834,
      "ĠÃ¼bertriebene": 6835,
      "Ġsicherer": 6836,
      "ĠAri": 6837,
      "ĠArme": 6838,
      "ĠArgumen": 6839,
      "ĠArtenviel": 6840,
      "lsub": 6841,
      "ĠAusgleich": 6842,
      "ĠAusgew": 6843,
      "ĠAuskunft": 6844,
      "ĠAusgaben": 6845,
      "ĠAusgabe": 6846,
      "ĠAusrede": 6847,
      "ĠAuszahlung": 6848,
      "ĠAusstieg": 6849,
      "ĠAusÃ¼bung": 6850,
      "ĠAuslegung": 6851,
      "ĠWirksam": 6852,
      "ĠWirklichkeit": 6853,
      "Ġdemokra": 6854,
      "ĠdemnÃ¤chst": 6855,
      "rolle": 6856,
      "rommel": 6857,
      "Ġoben": 6858,
      "eller": 6859,
      "elleren": 6860,
      "ellage": 6861,
      "ellschaften": 6862,
      "ĠNr": 6863,
      "ĠNein": 6864,
      "ĠNeu": 6865,
      "ĠNorden": 6866,
      "ĠNeben": 6867,
      "ĠNebels": 6868,
      "ĠNeid": 6869,
      "ĠNorwegen": 6870,
      "ĠNÃ¶te": 6871,
      "ĠNegativ": 6872,
      "ĠmÃ¶glichen": 6873,
      "ĠErÃ¶r": 6874,
      "ĠErforder": 6875,
      "ĠErhalt": 6876,
      "ĠErtrÃ¤": 6877,
      "ĠErstellung": 6878,
      "ĠErfÃ¼": 6879,
      "ĠErsatz": 6880,
      "ĠErtrags": 6881,
      "ĠErfordern": 6882,
      "ĠErfassung": 6883,
      "ĠErwerbstÃ¤tigkeit": 6884,
      "Ġausgeb": 6885,
      "Ġausgesetzt": 6886,
      "Ġausreichen": 6887,
      "ĠaushÃ¶": 6888,
      "Ġauslaufen": 6889,
      "ĠauszufÃ¼hren": 6890,
      "ĠausfÃ¼hrt": 6891,
      "ĠauslÃ¤u": 6892,
      "Ġauswirkt": 6893,
      "ĠausgelÃ¶st": 6894,
      "ĠausbÃ¼": 6895,
      "Ġausgenutzt": 6896,
      "Ġauszuwerten": 6897,
      "entse": 6898,
      "entschei": 6899,
      "entabel": 6900,
      "chthin": 6901,
      "chtbaren": 6902,
      "chtfertigt": 6903,
      "ahrt": 6904,
      "icken": 6905,
      "Ġums": 6906,
      "Ġumgehend": 6907,
      "Ġumgesetz": 6908,
      "Ġumsetzbare": 6909,
      "Ġjap": 6910,
      "Ġjurist": 6911,
      "Ġjemand": 6912,
      "Ġjetzigen": 6913,
      "ĠRegional": 6914,
      "ĠRegionalen": 6915,
      "zite": 6916,
      "ziff": 6917,
      "zimmern": 6918,
      "beitrag": 6919,
      "beitsin": 6920,
      "heitlichkeit": 6921,
      "heitsschutz": 6922,
      "chtete": 6923,
      "Ġhaupt": 6924,
      "Ġhaushalt": 6925,
      "ĠMitteil": 6926,
      "ĠMitverantwort": 6927,
      "ettlauf": 6928,
      "erstaat": 6929,
      "erstÃ¤d": 6930,
      "ĠSchlieÃŁ": 6931,
      "ĠSchande": 6932,
      "ĠSchreiben": 6933,
      "ĠSchiffen": 6934,
      "ĠSchieds": 6935,
      "ĠScheitern": 6936,
      "dernsten": 6937,
      "dernisse": 6938,
      "aufen": 6939,
      "augt": 6940,
      "Ã¼ndet": 6941,
      "Ã¼ndig": 6942,
      "gerten": 6943,
      "gerade": 6944,
      "gerichtet": 6945,
      "ristete": 6946,
      "ribischen": 6947,
      "ĠParlamentsausschuÃŁ": 6948,
      "ĠParlamentarismus": 6949,
      "ĠBeim": 6950,
      "Ġnachmit": 6951,
      "Ġnachdem": 6952,
      "Ġnachkommen": 6953,
      "Ġnachhin": 6954,
      "Ġnachgesch": 6955,
      "ĠnachlÃ¤ÃŁt": 6956,
      "Ġnachgedacht": 6957,
      "Ġnachzudenken": 6958,
      "Ġnachgerade": 6959,
      "ennung": 6960,
      "ennium": 6961,
      "Ġmeinte": 6962,
      "ĠVorab": 6963,
      "ĠVorsit": 6964,
      "ĠVorbeh": 6965,
      "ĠVorhaben": 6966,
      "ĠVorrang": 6967,
      "ĠVorgehen": 6968,
      "ĠVorgabe": 6969,
      "ĠVorstellungen": 6970,
      "ĠVorteile": 6971,
      "ĠVorzeichen": 6972,
      "ĠVorgÃ¤nger": 6973,
      "ĠVorsÃ¤tze": 6974,
      "ĠVorwurf": 6975,
      "ĠVorstÃ¤d": 6976,
      "ĠGegeben": 6977,
      "ĠGewalt": 6978,
      "ĠGefordert": 6979,
      "ĠGeschw": 6980,
      "ĠGefolge": 6981,
      "ĠGeorge": 6982,
      "ĠGescheh": 6983,
      "Ġ101": 6984,
      "Ġ143": 6985,
      "Ġ148": 6986,
      "eile": 6987,
      "stenintensive": 6988,
      "ĠWettbewerbsprinzip": 6989,
      "ĠRechte": 6990,
      "ĠRechen": 6991,
      "ĠRedu": 6992,
      "ĠRealitÃ¤t": 6993,
      "ĠRealisierung": 6994,
      "ĠReformen": 6995,
      "ĠReflex": 6996,
      "ĠJeder": 6997,
      "ĠJim": 6998,
      "ĠJungfern": 6999,
      "ĠAbsen": 7000,
      "ĠAbstand": 7001,
      "ĠAbgaben": 7002,
      "ĠAbgesehen": 7003,
      "ĠAbgabe": 7004,
      "ĠAbsol": 7005,
      "ĠAbhilfe": 7006,
      "ĠAbfassen": 7007,
      "ĠAbschaffung": 7008,
      "seuropÃ¤ischen": 7009,
      "sektor": 7010,
      "Ġexi": 7011,
      "Ġebnen": 7012,
      "Ġevent": 7013,
      "stigend": 7014,
      "Ġdarlegen": 7015,
      "Ġdarstellten": 7016,
      "Ġdargestellten": 7017,
      "ĠAussetz": 7018,
      "ĠAuftrag": 7019,
      "ĠAustau": 7020,
      "ĠSieben": 7021,
      "lege": 7022,
      "levan": 7023,
      "lechtern": 7024,
      "leuropas": 7025,
      "Ã¶rde": 7026,
      "Ã¶rende": 7027,
      "Ã¶rper": 7028,
      "Ã¶rerischen": 7029,
      "kturell": 7030,
      "ĠschÃ¤r": 7031,
      "Ġschrit": 7032,
      "Ġschul": 7033,
      "Ġschne": 7034,
      "ĠschluÃŁ": 7035,
      "Ġschlicht": 7036,
      "Ġscheinbar": 7037,
      "Ġschenken": 7038,
      "Ġschreibt": 7039,
      "Ġschreiten": 7040,
      "ĠschlieÃŁen": 7041,
      "ĠschÃ¼tzen": 7042,
      "Ġschenkt": 7043,
      "Ġscharfe": 7044,
      "Ġschrecklichen": 7045,
      "Ġschildert": 7046,
      "Ġschicken": 7047,
      "erelle": 7048,
      "eregel": 7049,
      "erechtfertigt": 7050,
      "Ġuntergeb": 7051,
      "Ġunternehmer": 7052,
      "Ġuntergeordn": 7053,
      "Ġunterlaufen": 7054,
      "Ġuntersuchen": 7055,
      "Ġunterseei": 7056,
      "Ġunterentwickel": 7057,
      "Ġunterscheidet": 7058,
      "Ġunterzeichnet": 7059,
      "Ġuntermau": 7060,
      "Ġunterrichtet": 7061,
      "Ġuntergegangen": 7062,
      "Ġuntereinander": 7063,
      "Ġunterliegen": 7064,
      "annung": 7065,
      "rukturfonds": 7066,
      "Ġpran": 7067,
      "ĠprÃ¤": 7068,
      "Ġpart": 7069,
      "Ġportug": 7070,
      "Ġphant": 7071,
      "Ġpolyzentr": 7072,
      "Ġsieht": 7073,
      "Ã¤rung": 7074,
      "Ã¤rlichen": 7075,
      "ktionssystem": 7076,
      "traliber": 7077,
      "Ã¼cken": 7078,
      "Ã¼ckhaltung": 7079,
      "anzliche": 7080,
      "anzosen": 7081,
      "anzeiger": 7082,
      "ationalen": 7083,
      "ationsre": 7084,
      "Ã¤ndiger": 7085,
      "Ġzumeist": 7086,
      "tivitÃ¤t": 7087,
      "tiviert": 7088,
      "ĠUnterneh": 7089,
      "ĠUnterschied": 7090,
      "ĠUnterlagen": 7091,
      "ĠUntersuch": 7092,
      "leichmÃ¤ÃŁig": 7093,
      "ĠrÃ¤t": 7094,
      "ĠrÃ¼t": 7095,
      "Ġrisk": 7096,
      "Ġrichtigen": 7097,
      "Ġrichten": 7098,
      "Ġreinen": 7099,
      "Ġreisen": 7100,
      "ĠrÃ¤umen": 7101,
      "Ġrhet": 7102,
      "Ġrentabel": 7103,
      "ortes": 7104,
      "Ġberuf": 7105,
      "Ġbereitet": 7106,
      "Ġbereiste": 7107,
      "ausschÃ¶pfung": 7108,
      "ausschusses": 7109,
      "Ġtran": 7110,
      "Ġtrif": 7111,
      "Ġtolle": 7112,
      "Ġthem": 7113,
      "Ġtritt": 7114,
      "ĠtrÃ¤gt": 7115,
      "Ġtreiben": 7116,
      "ĠtÃ¤tigen": 7117,
      "ĠtÃ¤glich": 7118,
      "Ġtagt": 7119,
      "Ġtarif": 7120,
      "Ġtaugt": 7121,
      "geln": 7122,
      "geldern": 7123,
      "gelnder": 7124,
      "geleitet": 7125,
      "gramme": 7126,
      "grammatische": 7127,
      "ĠEntwicklungspolitiken": 7128,
      "ĠEntwicklungschancen": 7129,
      "ĠEntwicklungsplÃ¤ne": 7130,
      "ĠEntwicklungspri": 7131,
      "ffte": 7132,
      "ffungsmaÃŁnahmen": 7133,
      "gliedst": 7134,
      "nehin": 7135,
      "ĠBeihilfenpolitik": 7136,
      "rankt": 7137,
      "versen": 7138,
      "verfol": 7139,
      "vertrag": 7140,
      "verkl": 7141,
      "verteil": 7142,
      "verhÃ¤lt": 7143,
      "vereinbar": 7144,
      "verteilung": 7145,
      "verlÃ¤ngerung": 7146,
      "verlu": 7147,
      "versagen": 7148,
      "vereinfachung": 7149,
      "vergenz": 7150,
      "versifizierung": 7151,
      "Ġentnehmen": 7152,
      "Ġentlegen": 7153,
      "Ġentscheidet": 7154,
      "Ġentfielen": 7155,
      "ĠdurchfÃ¼hren": 7156,
      "Ġdurchsetzbare": 7157,
      "ĠdurchgefÃ¼hr": 7158,
      "Ġabgenommen": 7159,
      "Ġabzus": 7160,
      "Ġabfinden": 7161,
      "Ġableiten": 7162,
      "Ġabseh": 7163,
      "Ġabwan": 7164,
      "Ġabsichern": 7165,
      "Ġabweich": 7166,
      "ĠabschÃ¤tzen": 7167,
      "steller": 7168,
      "stellend": 7169,
      "stellungsstrateg": 7170,
      "Ã¤hrten": 7171,
      "Ġzwingt": 7172,
      "Ġzweiter": 7173,
      "002": 7174,
      "ĠEinen": 7175,
      "ĠEiner": 7176,
      "ĠEines": 7177,
      "ĠEinsetzung": 7178,
      "ĠEinsatz": 7179,
      "ĠEinschrÃ¤n": 7180,
      "ĠEinwand": 7181,
      "ĠEinwohner": 7182,
      "ĠEinrichtungen": 7183,
      "ĠEinwÃ¤nde": 7184,
      "ĠEinheitlichkeit": 7185,
      "ĠÃĦrger": 7186,
      "kenhÃ¤": 7187,
      "ollegin": 7188,
      "schenwÃ¼r": 7189,
      "ĠMitglied": 7190,
      "linienentwurf": 7191,
      "blen": 7192,
      "bles": 7193,
      "blÃ¤h": 7194,
      "icherungen": 7195,
      "ĠStrukturreformen": 7196,
      "aÃŁten": 7197,
      "vorschlag": 7198,
      "vorschlÃ¤ge": 7199,
      "wirten": 7200,
      "ĠmehrjÃ¤hrige": 7201,
      "allok": 7202,
      "allgem": 7203,
      "alleist": 7204,
      "rÃ¤glich": 7205,
      "rÃ¤ftig": 7206,
      "ĠmuÃŁte": 7207,
      "ĠmuÃŁten": 7208,
      "Ġbetrachten": 7209,
      "Ġbetonen": 7210,
      "Ġbetreibt": 7211,
      "Ġbetreiben": 7212,
      "Ġbetrieb": 7213,
      "Ġbetriebene": 7214,
      "Ġbetreut": 7215,
      "ftigkeit": 7216,
      "ĠProgrammierungs": 7217,
      "ĠProgrammrunde": 7218,
      "ĠProgrammzeitraums": 7219,
      "fahrzeu": 7220,
      "reizen": 7221,
      "reiÃŁen": 7222,
      "gebungsverfahren": 7223,
      "gebÃ¤ude": 7224,
      "teln": 7225,
      "Ġhingen": 7226,
      "Ġhinnehmen": 7227,
      "Ġhingegen": 7228,
      "Ġhinreichend": 7229,
      "Ġhinterfragt": 7230,
      "ĠAusschÃ¼ssen": 7231,
      "ĠAusschaltung": 7232,
      "ĠJahrhundert": 7233,
      "ĠMitgliedstaten": 7234,
      "Ġsoweit": 7235,
      "Ġsoziales": 7236,
      "ĠFraktionsk": 7237,
      "ĠFraktionslosen": 7238,
      "steten": 7239,
      "stexten": 7240,
      "Ġspielen": 7241,
      "Ġspeisen": 7242,
      "Ġspanischen": 7243,
      "Ġspiegelt": 7244,
      "Ġspontan": 7245,
      "ĠspÃ¤ter": 7246,
      "ĠspÃ¤rlichen": 7247,
      "Ġ21": 7248,
      "Ġ27": 7249,
      "Ġ2496": 7250,
      "Ġhiermit": 7251,
      "ĠhierfÃ¼r": 7252,
      "Ġhierauf": 7253,
      "ĠZusÃ¤tze": 7254,
      "ĠWettbewerbsfrei": 7255,
      "ĠWettbewerbsfragen": 7256,
      "ĠWettbewerbskultur": 7257,
      "ĠWettbewerbsvort": 7258,
      "ĠWettbewerbsstÃ¤rk": 7259,
      "ĠWettbewerbsanstrengungen": 7260,
      "ebehandlung": 7261,
      "folgern": 7262,
      "fÃ¼hrungsbe": 7263,
      "politiken": 7264,
      "Ġdanach": 7265,
      "Ġgewalt": 7266,
      "Ġgewissen": 7267,
      "Ġgewachsen": 7268,
      "Ġgewartet": 7269,
      "Ġgewonnen": 7270,
      "ĠgewÃ¶hn": 7271,
      "Ġgewahrt": 7272,
      "ĠUmschlag": 7273,
      "ĠUmstellung": 7274,
      "ĠUmfel": 7275,
      "ĠUmstÃ¤nde": 7276,
      "ĠUmverteil": 7277,
      "ĠUmstellungsstrateg": 7278,
      "Ġstaatlicher": 7279,
      "inne": 7280,
      "Ġweitreichen": 7281,
      "Ġweitreichend": 7282,
      "Ġweitgehend": 7283,
      "ufiger": 7284,
      "ĠCast": 7285,
      "ĠCER": 7286,
      "ĠCunha": 7287,
      "ĠConta": 7288,
      "Ġkonform": 7289,
      "Ġkontin": 7290,
      "Ġkonsequ": 7291,
      "Ġkonfron": 7292,
      "Ġkonjun": 7293,
      "ĠKonsol": 7294,
      "ĠKonfl": 7295,
      "ĠKonzern": 7296,
      "ĠKonzepte": 7297,
      "ĠKontext": 7298,
      "ĠKonvergenz": 7299,
      "ahlbeihilfen": 7300,
      "ĠBerichterstattern": 7301,
      "beiro": 7302,
      "beifÃ¼hren": 7303,
      "sichtlichen": 7304,
      "Ġgenerell": 7305,
      "Ġgenerelle": 7306,
      "Ġwohnen": 7307,
      "Ġkeiner": 7308,
      "Ġkeinem": 7309,
      "estiert": 7310,
      "Ġreden": 7311,
      "Ġrede": 7312,
      "Ġregelt": 7313,
      "Ġrealist": 7314,
      "Ġrelevan": 7315,
      "schlÃ¼sse": 7316,
      "Ġmanif": 7317,
      "Ġmanchmal": 7318,
      "Ġmangelnder": 7319,
      "Ġliege": 7320,
      "Ġlieber": 7321,
      "Ġlieben": 7322,
      "Ġliefert": 7323,
      "ĠLawin": 7324,
      "ektivitÃ¤t": 7325,
      "iko": 7326,
      "setzungsverfahren": 7327,
      "Ã¤cher": 7328,
      "Ã¤chung": 7329,
      "Ã¤chter": 7330,
      "Ġsage": 7331,
      "Ġsagt": 7332,
      "ĠsaisonabhÃ¤ng": 7333,
      "ĠSoviel": 7334,
      "ĠSouver": 7335,
      "Ġheutige": 7336,
      "ĠZug": 7337,
      "ĠZuerst": 7338,
      "ĠZudem": 7339,
      "ĠZufÃ¼hrung": 7340,
      "ĠZuweis": 7341,
      "ĠZuschÃ¼ssen": 7342,
      "ĠZeitung": 7343,
      "Ġregionssp": 7344,
      "Ġregionales": 7345,
      "illi": 7346,
      "Ġhalben": 7347,
      "Ġhalbem": 7348,
      "Ġganze": 7349,
      "Ġganzer": 7350,
      "Ã¤ndert": 7351,
      "Ã¤nderung": 7352,
      "ungsanforderungen": 7353,
      "ĠWirtschaftpolitik": 7354,
      "ĠWirtschaftspolitik": 7355,
      "ĠWirtschaftspolitiken": 7356,
      "ĠWirtschaftsausschuÃŁ": 7357,
      "ĠWirtschaftsteil": 7358,
      "ĠRechtfer": 7359,
      "ĠRechtstexten": 7360,
      "ĠRechtsetzungsverfahren": 7361,
      "bleme": 7362,
      "blematik": 7363,
      "ĠZusammenschlÃ¼sse": 7364,
      "abzusetzen": 7365,
      "Ġdeckt": 7366,
      "schlieÃŁungen": 7367,
      "Ġzweimal": 7368,
      "Ġzweitens": 7369,
      "ĠlÃ¤ndlicher": 7370,
      "ĠBeschÃ¤ftigtem": 7371,
      "Ġvielem": 7372,
      "ĠRichtlinienentwurf": 7373,
      "ĠVerkehrspro": 7374,
      "ĠProblemfÃ¤lle": 7375,
      "ĠProblematik": 7376,
      "ĠEuropawahl": 7377,
      "Ã¶rderte": 7378,
      "schlagzeilen": 7379,
      "landen": 7380,
      "langes": 7381,
      "ziehbar": 7382,
      "ĠEntgegen": 7383,
      "ĠEntstehen": 7384,
      "ĠEntschul": 7385,
      "ĠEntschlieÃŁungen": 7386,
      "ĠArbeitsmon": 7387,
      "ĠArbeitsmarkt": 7388,
      "ĠArbeitsgrupp": 7389,
      "ĠArbeitsinst": 7390,
      "ĠArbeitsbescha": 7391,
      "ĠArbeitszimmern": 7392,
      "ĠeuropÃ¤ischer": 7393,
      "Ġeuropaw": 7394,
      "ĠeuropÃ¤isches": 7395,
      "gewichts": 7396,
      "ÃŁenordnung": 7397,
      "ĠTagen": 7398,
      "ĠTamp": 7399,
      "Ġunsererseits": 7400,
      "ĠSteuern": 7401,
      "itutionelles": 7402,
      "Ġdennoch": 7403,
      "Ġwirtschafts": 7404,
      "Ġwirtschaftlich": 7405,
      "Ġwirtschaftlichem": 7406,
      "ĠMarktstruktur": 7407,
      "ĠMarktteil": 7408,
      "ĠMarktlÃ¼ck": 7409,
      "ĠMarktversagen": 7410,
      "ĠStrafen": 7411,
      "ĠStraÃŁb": 7412,
      "ĠGebot": 7413,
      "ĠGebrauch": 7414,
      "ĠGebote": 7415,
      "ĠAufnahme": 7416,
      "ĠAufstellung": 7417,
      "ĠAufbau": 7418,
      "ĠAufgrund": 7419,
      "ĠAufreg": 7420,
      "ĠAufwand": 7421,
      "ĠAufforderung": 7422,
      "ĠAufweich": 7423,
      "ĠAufgetreten": 7424,
      "ĠAufwerfen": 7425,
      "ĠStrukturfondsverordnung": 7426,
      "ĠStrukturfondsgeldern": 7427,
      "hÃ¤sionsfonds": 7428,
      "nerschaftlich": 7429,
      "anks": 7430,
      "ankurbe": 7431,
      "Ġklaren": 7432,
      "ĠklÃ¤ren": 7433,
      "Ġwenden": 7434,
      "Ġwenige": 7435,
      "Ġbegren": 7436,
      "Ġbegleiten": 7437,
      "ĠBÃ¼ros": 7438,
      "ĠMeinungsunter": 7439,
      "Ġletzteren": 7440,
      "assungen": 7441,
      "assungsfaktor": 7442,
      "nez": 7443,
      "gemÃ¤ÃŁe": 7444,
      "ĠRatifizierung": 7445,
      "sprungen": 7446,
      "ĠVorschlags": 7447,
      "bilisierung": 7448,
      "herie": 7449,
      "riebe": 7450,
      "riedigen": 7451,
      "riedigung": 7452,
      "ĠOder": 7453,
      "ĠOster": 7454,
      "ĠOpti": 7455,
      "ĠOstdeut": 7456,
      "ĠOktober": 7457,
      "schefs": 7458,
      "Ġgegensei": 7459,
      "ĠFormen": 7460,
      "ĠFragestellungen": 7461,
      "ĠSozio": 7462,
      "ĠSozialleist": 7463,
      "meer": 7464,
      "Ġenormen": 7465,
      "Ġentweder": 7466,
      "Ġenorme": 7467,
      "arenteren": 7468,
      "Ġfeststellten": 7469,
      "Ġfestzustellen": 7470,
      "Ġfestgestellten": 7471,
      "Ġfestlegt": 7472,
      "Ġfestgesch": 7473,
      "Ġherzustellen": 7474,
      "Ġheranzut": 7475,
      "Ġherzlich": 7476,
      "ĠherbeifÃ¼hren": 7477,
      "Ġherabzusetzen": 7478,
      "Ġgering": 7479,
      "Ġgeringe": 7480,
      "Ġgerufen": 7481,
      "ĠgerÃ¼ckt": 7482,
      "Ġbestanden": 7483,
      "ĠbestÃ¤nde": 7484,
      "ĠbestÃ¤rkt": 7485,
      "Ġbestreitet": 7486,
      "Ġ1995": 7487,
      "ĠTageszeit": 7488,
      "editiv": 7489,
      "fallentschei": 7490,
      "wendbarer": 7491,
      "mmerklÃ¤r": 7492,
      "ĠFalls": 7493,
      "ĠVerbot": 7494,
      "ĠVerbindung": 7495,
      "ĠVerbÃ¤nde": 7496,
      "ĠVerbindungen": 7497,
      "ĠVerbannung": 7498,
      "ĠInstrumente": 7499,
      "ĠNachrichten": 7500,
      "Ġausgeht": 7501,
      "Ġausgeglichen": 7502,
      "Ġausgegangen": 7503,
      "ĠausgefÃ¼hrt": 7504,
      "Ġausgehend": 7505,
      "ĠausgeprÃ¤gt": 7506,
      "Ġausgedehnt": 7507,
      "ĠGefahren": 7508,
      "ĠSozialpolitik": 7509,
      "ĠSozialakte": 7510,
      "ĠSozialisten": 7511,
      "agieren": 7512,
      "echtern": 7513,
      "zeitarbeitslosigkeit": 7514,
      "ĠDebatten": 7515,
      "ĠHinweise": 7516,
      "ĠHinweis": 7517,
      "ĠHinrichtung": 7518,
      "ĠHintergrund": 7519,
      "ĠHinzufÃ¼gen": 7520,
      "ĠHindernisse": 7521,
      "ĠLandwirten": 7522,
      "Ġbefrist": 7523,
      "Ġbefristete": 7524,
      "Ġbefriedigen": 7525,
      "ĠTransporte": 7526,
      "Ġwiederum": 7527,
      "Ġwiederhol": 7528,
      "ĠmÃ¶glicher": 7529,
      "ĠMittelzuweis": 7530,
      "ĠMittelmeer": 7531,
      "ĠfÃ¼hrenden": 7532,
      "ohlen": 7533,
      "gebene": 7534,
      "Ġeingehalten": 7535,
      "Ġeingetreten": 7536,
      "Ġeingegangenen": 7537,
      "Ġeingehend": 7538,
      "Ġeingeschlagenen": 7539,
      "ĠeingeschÃ¤tz": 7540,
      "Ġeingespeist": 7541,
      "ĠPunktes": 7542,
      "ĠMensch": 7543,
      "ĠMengen": 7544,
      "ĠMonat": 7545,
      "ĠMonika": 7546,
      "ĠMontag": 7547,
      "ĠHause": 7548,
      "ĠHausaufgaben": 7549,
      "Ġgleiche": 7550,
      "Ġgleichgesetzt": 7551,
      "Ġgleichkommen": 7552,
      "ĠgleichgÃ¼l": 7553,
      "Ġgleichartige": 7554,
      "Ġgleichwertiger": 7555,
      "ĠGrundlinien": 7556,
      "ĠGrundlinie": 7557,
      "ĠGrundlagen": 7558,
      "ĠGrundwissen": 7559,
      "umsbran": 7560,
      "zugte": 7561,
      "Ġ2002": 7562,
      "Ġ2005": 7563,
      "Ġ2006": 7564,
      "Ġ2007": 7565,
      "Ġweiteres": 7566,
      "Ġweitergeben": 7567,
      "Ġweitergeleitet": 7568,
      "Ġweiterverfol": 7569,
      "ĠGemeinden": 7570,
      "ĠGemeinsamer": 7571,
      "ĠGemeinderÃ¤te": 7572,
      "Ġ\".": 7573,
      "Ġetlicher": 7574,
      "strukturen": 7575,
      "stÃ¤ndig": 7576,
      "Ġselbsttragen": 7577,
      "ĠselbstverstÃ¤nd": 7578,
      "ĠselbstÃ¤ndiger": 7579,
      "Ġhoc": 7580,
      "ĠRegieren": 7581,
      "ĠReglem": 7582,
      "ĠgefÃ¶rdert": 7583,
      "ĠgefaÃŁten": 7584,
      "ĠgefÃ¶rderte": 7585,
      "Ġwirksam": 7586,
      "Ġwirksamen": 7587,
      "Ġwirkungsvoll": 7588,
      "Ġwirkungsvolle": 7589,
      "ĠMoment": 7590,
      "ĠMotor": 7591,
      "ĠMobilisierung": 7592,
      "deutig": 7593,
      "deutet": 7594,
      "Ġbedacht": 7595,
      "ĠbedÃ¼rfen": 7596,
      "Ġbedingt": 7597,
      "Ġbedaure": 7598,
      "formeln": 7599,
      "ĠRechtsstaat": 7600,
      "ĠRechtsverb": 7601,
      "ĠRechtskultur": 7602,
      "ĠRechtsuns": 7603,
      "ĠRechtsgrunds": 7604,
      "ĠRechtsverlu": 7605,
      "Ġdeutsche": 7606,
      "ĠEntscheidungs": 7607,
      "antwortlich": 7608,
      "duktive": 7609,
      "Ġbesonderer": 7610,
      "ĠDezentra": 7611,
      "ĠDefi": 7612,
      "Ġgesteiger": 7613,
      "Ġgestiegen": 7614,
      "Ġaufgestellt": 7615,
      "ĠaufgefaÃŁt": 7616,
      "Ġaufgestockt": 7617,
      "ĠaufgeblÃ¤h": 7618,
      "Ġaufgesprungen": 7619,
      "Ġerwart": 7620,
      "Ġerwachsen": 7621,
      "Ġerweitert": 7622,
      "eltreffen": 7623,
      "utzutage": 7624,
      "ĠBeispielsweise": 7625,
      "ĠBeschÃ¤ftigungssicherung": 7626,
      "ĠBeschÃ¤ftigungspakten": 7627,
      "apeau": 7628,
      "rÃ¼ndung": 7629,
      "gendwann": 7630,
      "Ġnotwendigen": 7631,
      "ĠPolitiker": 7632,
      "ĠPolitikfel": 7633,
      "Ġsolide": 7634,
      "Ġsoliden": 7635,
      "Ġverbinden": 7636,
      "Ġverbucht": 7637,
      "Ġverbindliche": 7638,
      "ĠStahlkodex": 7639,
      "ĠStahlunternehmen": 7640,
      "ĠStahlwerk": 7641,
      "ĠArtikels": 7642,
      "ĠParlamentsgebÃ¤ude": 7643,
      "ĠRegelungsverfahren": 7644,
      "ĠRegelwerke": 7645,
      "dium": 7646,
      "diges": 7647,
      "fachbeihilfen": 7648,
      "guts": 7649,
      "monopol": 7650,
      "othese": 7651,
      "quote": 7652,
      "qualifiz": 7653,
      "ĠÃ¶kologischen": 7654,
      "indenden": 7655,
      "indeler": 7656,
      "rechts": 7657,
      "rechtlichen": 7658,
      "ĠDiesem": 7659,
      "twickeln": 7660,
      "ĠÃľbung": 7661,
      "ĠSicherheitsniveau": 7662,
      "ĠSicherheitsnetz": 7663,
      "ĠSicherheitsziele": 7664,
      "ĠSicherheitsbeauftrag": 7665,
      "ĠSicherheitsmar": 7666,
      "ĠgefÃ¤hrden": 7667,
      "ĠgefÃ¤hrliche": 7668,
      "Ġdeutliches": 7669,
      "venten": 7670,
      "zentren": 7671,
      "Ġ80": 7672,
      "Ġ82": 7673,
      "Ġ89": 7674,
      "Ġwillen": 7675,
      "ÃŁerfolg": 7676,
      "ichtshof": 7677,
      "ternative": 7678,
      "ĠGesellschaften": 7679,
      "ĠVereine": 7680,
      "ĠVereinten": 7681,
      "ĠVereinigte": 7682,
      "ĠThemen": 7683,
      "ĠPrÃ¤sidentenkolle": 7684,
      "Ġneuesten": 7685,
      "Ġanderenfalls": 7686,
      "Ġeigener": 7687,
      "Ġeigentlichen": 7688,
      "Ġeigentlicher": 7689,
      "ĠGefahrgutbeauftrag": 7690,
      "ĠGefahrgutmengen": 7691,
      "ĠMenschenleben": 7692,
      "ĠÃľbernahmen": 7693,
      "ĠÃľberprÃ¼": 7694,
      "ĠÃľbergreifen": 7695,
      "ĠÃľberlegungen": 7696,
      "fÃ¼gt": 7697,
      "hÃ¶rt": 7698,
      "kundigen": 7699,
      "zweck": 7700,
      "standet": 7701,
      "standortes": 7702,
      "ĠSummen": 7703,
      "ĠSuche": 7704,
      "ĠSumma": 7705,
      "ĠBetroffen": 7706,
      "ĠBetroffenen": 7707,
      "ĠBetrieben": 7708,
      "ĠBetriebe": 7709,
      "atsopfern": 7710,
      "Ġkurze": 7711,
      "Ġgerechte": 7712,
      "Ġgeredet": 7713,
      "Ġgerechteren": 7714,
      "ĠGÃ¼ltig": 7715,
      "Ġangehen": 7716,
      "Ġangestre": 7717,
      "Ġangezeigt": 7718,
      "Ġangehoben": 7719,
      "Ġangeliefert": 7720,
      "Ġangedeutet": 7721,
      "ĠUngleichheit": 7722,
      "ĠUngleichgewicht": 7723,
      "wertungen": 7724,
      "ĠÃĸffnung": 7725,
      "Ġrechtlich": 7726,
      "Ġrechtlichen": 7727,
      "ĠrechtmÃ¤ÃŁige": 7728,
      "leistungen": 7729,
      "ĠWirtschaftsbereich": 7730,
      "ĠWirtschaftseinheiten": 7731,
      "ĠWirtschaftszentren": 7732,
      "ĠWirtschaftsstandortes": 7733,
      "ĠRaumordnungs": 7734,
      "Ġdiskutierten": 7735,
      "0121": 7736,
      "0120": 7737,
      "0122": 7738,
      "akter": 7739,
      "konzentration": 7740,
      "konzepte": 7741,
      "landes": 7742,
      "landspro": 7743,
      "landwirte": 7744,
      "mÃ¶gliche": 7745,
      "osozi": 7746,
      "richters": 7747,
      "tiellen": 7748,
      "waltungen": 7749,
      "Ġoperieren": 7750,
      "artext": 7751,
      "Ġformal": 7752,
      "Ġfordere": 7753,
      "Ġforciert": 7754,
      "Ġformul": 7755,
      "ĠPrÃ¼fungen": 7756,
      "ĠPrÃ¼fungsanforderungen": 7757,
      "ĠGeldern": 7758,
      "ĠGelÃ¤chter": 7759,
      "benexp": 7760,
      "ĠVerantwortlicher": 7761,
      "ĠVerantwortungsbereich": 7762,
      "ĠVerantwortlichkeiten": 7763,
      "ĠVerantwortungsgefÃ¼": 7764,
      "ĠstÃ¤rkeren": 7765,
      "ĠstÃ¤rkerer": 7766,
      "ĠAntrags": 7767,
      "ĠAntragsteller": 7768,
      "ĠbeimiÃŁt": 7769,
      "ĠErwachsenen": 7770,
      "ĠErweiterungs": 7771,
      "ĠunterstÃ¼tze": 7772,
      "Ġklarstellen": 7773,
      "Ġhervorgehen": 7774,
      "Ġhervorrufen": 7775,
      "Ġhervorzuheben": 7776,
      "ĠGemeinschaftsfonds": 7777,
      "ĠGemeinschaftsrecht": 7778,
      "ĠÃ¶ffentlicher": 7779,
      "durchdach": 7780,
      "fÃ¤llig": 7781,
      "fÃ¤ltig": 7782,
      "istisch": 7783,
      "istern": 7784,
      "istische": 7785,
      "mÃ¤ÃŁigen": 7786,
      "mÃ¤ÃŁigkeit": 7787,
      "mÃ¤ÃŁiger": 7788,
      "programmen": 7789,
      "promiÃŁ": 7790,
      "probleme": 7791,
      "Ġwollte": 7792,
      "Ġaktiver": 7793,
      "Ġakribischen": 7794,
      "Ġziehe": 7795,
      "ĠBehinderung": 7796,
      "ĠBehÃ¶rde": 7797,
      "arkten": 7798,
      "ĠDurchschnit": 7799,
      "ĠDurchfÃ¼hrungs": 7800,
      "ĠDurchfÃ¼hrungsbe": 7801,
      "attle": 7802,
      "ĠHierzu": 7803,
      "ierungsbedarf": 7804,
      "Ġerstaun": 7805,
      "Ġerfordert": 7806,
      "Ġerforderlichenfalls": 7807,
      "Ġleid": 7808,
      "Ġleiden": 7809,
      "Ġstrategischer": 7810,
      "Ġvorgehen": 7811,
      "Ġvorgetragenen": 7812,
      "Ġvorgeschlagenen": 7813,
      "Ġvorgegebene": 7814,
      "ĠErfolgreich": 7815,
      "ĠErfolgsst": 7816,
      "ĠSchwÃ¤chsten": 7817,
      "ĠSchwÃ¤chen": 7818,
      "ĠSchwÃ¤che": 7819,
      "ĠSchwÃ¤chung": 7820,
      "aufkommen": 7821,
      "aufwand": 7822,
      "aufbereitung": 7823,
      "Ġabgegeben": 7824,
      "Ġabgesprochen": 7825,
      "Ġabgestellt": 7826,
      "Ġabgeschnit": 7827,
      "Ġabgestat": 7828,
      "ĠabgeÃ¤ndert": 7829,
      "fÃ¼hrende": 7830,
      "ĠBeschÃ¤ftigungsquellen": 7831,
      "ĠBeschÃ¤ftigungswirkung": 7832,
      "ĠBeschÃ¤ftigungsniveaus": 7833,
      "ĠBeschÃ¤ftigungsfÃ¶rderung": 7834,
      "ĠBeschÃ¤ftigungswachst": 7835,
      "Ġwenigstens": 7836,
      "ĠLandwirtschaftspolitik": 7837,
      "ĠLandwirtschaftssektors": 7838,
      "ĠThematik": 7839,
      "ĠGefahrguttransporter": 7840,
      "garanti": 7841,
      "lÃ¤nglichen": 7842,
      "ogenes": 7843,
      "ogenheit": 7844,
      "ppÃ¤nen": 7845,
      "zusammen": 7846,
      "ĠÃ¼blich": 7847,
      "ĠQuoten": 7848,
      "ĠQualif": 7849,
      "Ġvollen": 7850,
      "Ġvollzogen": 7851,
      "Ġvollwertige": 7852,
      "ĠvollstÃ¤ndig": 7853,
      "ÃŁtmÃ¶gliche": 7854,
      "Ġbehandelt": 7855,
      "ĠbehÃ¤lt": 7856,
      "Ġbesseren": 7857,
      "Ġbessern": 7858,
      "Ġbesserer": 7859,
      "artagung": 7860,
      "ĠfÃ¼nften": 7861,
      "ĠFranzÃ¶s": 7862,
      "ĠFranzosen": 7863,
      "Ġglauben": 7864,
      "Ġglaubt": 7865,
      "ĠglaubwÃ¼r": 7866,
      "ĠgrÃ¶ÃŁtmÃ¶gliche": 7867,
      "Ġernsten": 7868,
      "Ġernste": 7869,
      "Ġerstens": 7870,
      "sprozesse": 7871,
      "Ġverschiedene": 7872,
      "Ġverschiedener": 7873,
      "Ġverschiedenster": 7874,
      "ĠInselbewohner": 7875,
      "ĠInselgruppen": 7876,
      "Ġoffenen": 7877,
      "Ġoffensichtlich": 7878,
      "Ġoffengehalten": 7879,
      "Ġoffensiv": 7880,
      "Ġoffensichtlichen": 7881,
      "ĠVorschriftenÃ¤nderung": 7882,
      "Ġunterschiedliche": 7883,
      "Ġunterschiedlichem": 7884,
      "Ġpriori": 7885,
      "ĠprioritÃ¤r": 7886,
      "0066": 7887,
      "0069": 7888,
      "blicken": 7889,
      "schiedeten": 7890,
      "ĠJahreswechsel": 7891,
      "ĠJahresberichten": 7892,
      "ĠKontrollen": 7893,
      "ĠKontrollt": 7894,
      "ĠKontrollorgan": 7895,
      "ĠKontroversen": 7896,
      "ĠVerkehrsstruktur": 7897,
      "ĠVerkehrsmittel": 7898,
      "ĠVerkehrsmarkt": 7899,
      "ĠVerkehrsweg": 7900,
      "ĠVerkehrsnetze": 7901,
      "rittsw": 7902,
      "ĠBinnenmarktanzeiger": 7903,
      "Ġverbesserten": 7904,
      "ĠSubvention": 7905,
      "dungseinrichtungen": 7906,
      "experten": 7907,
      "haft": 7908,
      "habt": 7909,
      "haftigkeit": 7910,
      "kosten": 7911,
      "satzes": 7912,
      "Ġ%.": 7913,
      "ertenausschuÃŁ": 7914,
      "undliche": 7915,
      "Ġwelchen": 7916,
      "Ġweltweit": 7917,
      "Ġwettbewerbspolitischer": 7918,
      "Ġwissenschaftliche": 7919,
      "esens": 7920,
      "orteten": 7921,
      "Ġbenennen": 7922,
      "ĠBegÃ¼nst": 7923,
      "ĠBegnad": 7924,
      "ĠBegrÃ¼ndung": 7925,
      "alysen": 7926,
      "ĠhÃ¤ufiger": 7927,
      "ĠKoordinierungsbedarf": 7928,
      "ĠMidland": 7929,
      "ĠMiÃŁerfolg": 7930,
      "ĠFinanzmittel": 7931,
      "ĠFinanztropf": 7932,
      "ĠFinanzierungsan": 7933,
      "ĠImpu": 7934,
      "ĠVerwaltungen": 7935,
      "ĠbekrÃ¤ftig": 7936,
      "ologische": 7937,
      "opolisierte": 7938,
      "ĠHerausbildung": 7939,
      "Ġstattgefunden": 7940,
      "ĠBefugnisse": 7941,
      "ĠBefriedigung": 7942,
      "ĠErklÃ¤rungen": 7943,
      "ĠSchaden": 7944,
      "ĠUmwegsverkehr": 7945,
      "Ġgemeinschaftlichem": 7946,
      "ĠOrt": 7947,
      "ĠOrten": 7948,
      "ĠOrdnung": 7949,
      "Ġkurzem": 7950,
      "Ġkurzfristige": 7951,
      "Ġoptimiert": 7952,
      "Ġoptimistisch": 7953,
      "ĠÃ¼brigens": 7954,
      "ĠLebensniveau": 7955,
      "ĠLebensqualitÃ¤t": 7956,
      "behÃ¤l": 7957,
      "behÃ¶rden": 7958,
      "kommnet": 7959,
      "Ġ96": 7960,
      "Ġ9002": 7961,
      "Ġendet": 7962,
      "Ġendlos": 7963,
      "strebend": 7964,
      "streckung": 7965,
      "Ġarme": 7966,
      "Ġarbeitsin": 7967,
      "Ġeindeutige": 7968,
      "ĠAmt": 7969,
      "ĠAmtes": 7970,
      "ĠEffekt": 7971,
      "ĠEffekte": 7972,
      "ĠEffektivitÃ¤t": 7973,
      "Ġfinanzieren": 7974,
      "Ġfinanzierten": 7975,
      "ĠWortlauf": 7976,
      "Ġgeltend": 7977,
      "Ġgeltendes": 7978,
      "ĠMindestregelungen": 7979,
      "ĠGericht": 7980,
      "ĠGeruch": 7981,
      "ĠGerichten": 7982,
      "ĠGerichte": 7983,
      "ĠGerichtshof": 7984,
      "ĠGleichstellung": 7985,
      "ĠGleichfalls": 7986,
      "ĠGleichwohl": 7987,
      "ĠGleichgewichts": 7988,
      "ĠGrundsÃ¤tzen": 7989,
      "ĠGrundsÃ¤tze": 7990,
      "ehmbaren": 7991,
      "ĠVerzicht": 7992,
      "ĠVerzahnung": 7993,
      "ĠUnserer": 7994,
      "Ġlokal": 7995,
      "Ġstellte": 7996,
      "ĠInterventionen": 7997,
      "ĠInteressan": 7998,
      "ĠIntervention": 7999,
      "ĠzurÃ¼ckzufÃ¼hren": 8000,
      "ĠzurÃ¼ckgehalten": 8001,
      "ĠzurÃ¼ckgezahl": 8002,
      "ĠGewinne": 8003,
      "Ġallgemeine": 8004,
      "ĠUnternehmergeist": 8005,
      "ĠUnternehmertums": 8006,
      "ĠUnternehmertum": 8007,
      "Ġgenauem": 8008,
      "Ġwohlgemer": 8009,
      "Ġwohldurchdach": 8010,
      "ĠZukunftstau": 8011,
      "ĠSteuerpolitik": 8012,
      "ĠSteuerbefrei": 8013,
      "ĠSteueraufkommen": 8014,
      "Ġeingehender": 8015,
      "0106": 8016,
      "0108": 8017,
      "ĠDienstag": 8018,
      "ĠDienststellen": 8019,
      "Ġprivilegiert": 8020,
      "Ġwettbewerbsfein": 8021,
      "Ġwettbewerbsfre": 8022,
      "Ġwettbewerbsrechtlichen": 8023,
      "ĠUmweltmin": 8024,
      "ĠUmweltinformation": 8025,
      "ĠzusammenhÃ¤n": 8026,
      "Ġzusammenarbeiten": 8027,
      "Ġzusammenarbeitet": 8028,
      "Ġzusammenfassen": 8029,
      "Ġzusammengetreten": 8030,
      "ĠInfrastrukturen": 8031,
      "ĠInfrastrukturproj": 8032,
      ".),": 8033,
      "2110": 8034,
      "dienst": 8035,
      "regierung": 8036,
      "regiert": 8037,
      "social": 8038,
      "uelle": 8039,
      "zÃ¼gig": 8040,
      "zÃ¼gliche": 8041,
      "Ġteure": 8042,
      "stehende": 8043,
      "Ġweite": 8044,
      "Ġweise": 8045,
      "Ġweisen": 8046,
      "Ã¼ssige": 8047,
      "Ġsinnvolle": 8048,
      "ĠsinngemÃ¤ÃŁ": 8049,
      "Ġzeitigen": 8050,
      "Ġbringe": 8051,
      "Ġbringt": 8052,
      "ĠBarentse": 8053,
      "ĠKluft": 8054,
      "ĠKlima": 8055,
      "ĠKleinvorhaben": 8056,
      "ĠKlÃ¤rung": 8057,
      "ĠKlartext": 8058,
      "Ġzugute": 8059,
      "Ġzugrunde": 8060,
      "ĠzugÃ¤nglich": 8061,
      "ĠzustÃ¤ndig": 8062,
      "ĠWahlkrei": 8063,
      "ĠKompromiÃŁ": 8064,
      "Ġgeboren": 8065,
      "ĠMehrzahl": 8066,
      "ĠMehrfachbeihilfen": 8067,
      "Ġkomplexen": 8068,
      "Ġerreichte": 8069,
      "Ġerreichten": 8070,
      "ĠZwÃ¤nge": 8071,
      "ĠZwangs": 8072,
      "ĠZweifellos": 8073,
      "Ġverabschiedeten": 8074,
      "sidiÃ¤ren": 8075,
      "Ġohnehin": 8076,
      "euerungen": 8077,
      "Ã¼ngliche": 8078,
      "ĠschwÃ¤chsten": 8079,
      "ĠschwÃ¤chen": 8080,
      "ĠschwÃ¤cher": 8081,
      "Ġschwindenden": 8082,
      "Ġschwindeler": 8083,
      "Ġunterbreitet": 8084,
      "Ġunterbrochen": 8085,
      "Ġprofiti": 8086,
      "Ġprotektion": 8087,
      "Ġprogrammatische": 8088,
      "Ġproduktive": 8089,
      "Ġpositive": 8090,
      "Ġpraktischen": 8091,
      "Ġpraktisch": 8092,
      "ĠFrauenerwer": 8093,
      "Ġbereitwill": 8094,
      "Ġbetreffenden": 8095,
      "Ġgenommenen": 8096,
      "ikationen": 8097,
      "ĠbeglÃ¼ckwÃ¼nsche": 8098,
      "ĠbeglÃ¼ckwÃ¼nscht": 8099,
      "assungsphase": 8100,
      "Ġbestehende": 8101,
      "ĠMonopolinter": 8102,
      "zeichneten": 8103,
      "Ġgerechtfertigt": 8104,
      "Ġziehenden": 8105,
      "Ġeffektiv": 8106,
      "Ġeffektiver": 8107,
      "Ġbesserem": 8108,
      "raucherzonen": 8109,
      "ĠgrÃ¶ÃŁerer": 8110,
      "ĠgrÃ¶ÃŁtenteils": 8111,
      "ĠPartnerschaften": 8112,
      "felhaft": 8113,
      "imis": 8114,
      "minalitÃ¤t": 8115,
      "minimis": 8116,
      "skarten": 8117,
      "sklaus": 8118,
      "skatalog": 8119,
      "skandid": 8120,
      "skÃ¶rper": 8121,
      "tinationalen": 8122,
      "Ġdreieinhalb": 8123,
      "ĠwÃ¼nscht": 8124,
      "Ġbeitreten": 8125,
      "ĠbeitrÃ¤gt": 8126,
      "Ġbeitrittsw": 8127,
      "Ġeinheitlich": 8128,
      "Ġeinheitlicher": 8129,
      "Ġeingebunden": 8130,
      "ĠeingebÃ¼ÃŁt": 8131,
      "Ġeinfacher": 8132,
      "ĠSeeverkehr": 8133,
      "ĠSeattle": 8134,
      "ĠSeppÃ¤nen": 8135,
      "ĠSport": 8136,
      "ĠSprache": 8137,
      "ĠSpeku": 8138,
      "ĠSpitze": 8139,
      "ĠSichtweise": 8140,
      "ĠSelbstbeschrÃ¤n": 8141,
      "ĠSelbstzweck": 8142,
      "ĠBrÃ¼cken": 8143,
      "ĠPflege": 8144,
      "ĠPlenarsit": 8145,
      "ĠPlenartagung": 8146,
      "Ġfortfahren": 8147,
      "Ġfortgesetzt": 8148,
      "Ġfortgesch": 8149,
      "ĠfortgefÃ¼hrt": 8150,
      "Ġfortsetzen": 8151,
      "Ġfortbesteht": 8152,
      "ĠfrÃ¼here": 8153,
      "ĠDialog": 8154,
      "ĠDisparitÃ¤t": 8155,
      "ĠDiversifizierung": 8156,
      "ĠDiskurs": 8157,
      "ĠFestland": 8158,
      "ĠFestlegungen": 8159,
      "ĠFestlegung": 8160,
      "ĠkÃ¼nftiger": 8161,
      "Ġkritisch": 8162,
      "Ġkritische": 8163,
      "Ġkritisieren": 8164,
      "Ġkritisiere": 8165,
      "ĠHauptziel": 8166,
      "ĠHauptgrÃ¼n": 8167,
      "ĠHauptziele": 8168,
      "ĠHauptaspekten": 8169,
      "ĠHauptrolle": 8170,
      "ĠHauptprobleme": 8171,
      "ĠGrÃ¼ne": 8172,
      "Ġangemessener": 8173,
      "Ġvermieden": 8174,
      "Ġvermarkten": 8175,
      "Ġbeschert": 8176,
      "ĠbefÃ¼rchten": 8177,
      "Ġlangsam": 8178,
      "Ġlangsame": 8179,
      "Ġlangsamer": 8180,
      "Ġlangfristige": 8181,
      "Ġstellenweisen": 8182,
      "ĠstÃ¤dtische": 8183,
      "Ġvorrangigen": 8184,
      "Ġvorrangige": 8185,
      "ĠFragenkomp": 8186,
      "ĠTertiÃ¤r": 8187,
      "ĠBekenntnis": 8188,
      "ĠBeschlÃ¼ssen": 8189,
      "ĠAngleichen": 8190,
      "ĠProjekt": 8191,
      "ĠProjekten": 8192,
      "ĠProdukt": 8193,
      "ĠProdukte": 8194,
      "ĠErreichte": 8195,
      "ĠAuffassungen": 8196,
      "ĠschwerfÃ¤llig": 8197,
      "Ġtrotzdem": 8198,
      "Ġentscheidend": 8199,
      "Ġentscheidende": 8200,
      "ĠÃĦnderungsvorschlag": 8201,
      "ĠbetrÃ¤gt": 8202,
      "okumente": 8203,
      "Ġweiterentwickeln": 8204,
      "ĠFormulierung": 8205,
      "ĠDeutlichkeit": 8206,
      "ĠÃĸsterreichs": 8207,
      "ĠÃĸsterreicher": 8208,
      "ĠVertrauensv": 8209,
      "Ġumfassend": 8210,
      "Ġumfassende": 8211,
      "Ġspezifisch": 8212,
      "Ġspezifische": 8213,
      "Ġspezifisches": 8214,
      "ĠKontrolleur": 8215,
      "Ġbekanntmachen": 8216,
      "ĠArmutsgeb": 8217,
      "ĠEnergiepolitik": 8218,
      "ĠEnergiebereich": 8219,
      "ĠEnergieprogramm": 8220,
      "ĠEnergieformen": 8221,
      "ĠDienstleistungs": 8222,
      "ĠDienstleistungsbereich": 8223,
      "ĠDienstleistungssektors": 8224,
      "Ġtechnischen": 8225,
      "Ġtechnische": 8226,
      "Ġtechnologischen": 8227,
      "Ġtechnologische": 8228,
      "ĠFlexibilitÃ¤tsgra": 8229,
      "ĠFlexibilitÃ¤tsklaus": 8230,
      "ĠgrundsÃ¤tzliche": 8231,
      "EGKS": 8232,
      "dafÃ¼r": 8233,
      "desurteils": 8234,
      "fteverhÃ¤lt": 8235,
      "swettlauf": 8236,
      "zeugab": 8237,
      "zahlen": 8238,
      "Ġ540": 8239,
      "eimischen": 8240,
      "eiteten": 8241,
      "eidenden": 8242,
      "Ã¤umt": 8243,
      "Ġderartigen": 8244,
      "Ġderartiger": 8245,
      "Ġunbekannten": 8246,
      "Ġunbeschadet": 8247,
      "ĠsÃ¤mtlichen": 8248,
      "ĠsÃ¤mtlicher": 8249,
      "Ġeinzuhalten": 8250,
      "Ġeinzugehen": 8251,
      "Ġeinzubinden": 8252,
      "ĠAllein": 8253,
      "ĠAlles": 8254,
      "ĠAllerdings": 8255,
      "ĠEigenheit": 8256,
      "ĠEigenkapital": 8257,
      "ĠEigentums": 8258,
      "ĠEigenverantwort": 8259,
      "ĠEigeniniti": 8260,
      "alisierungsprozeÃŁ": 8261,
      "ĠKapitalverkehr": 8262,
      "Ġfehlt": 8263,
      "Ġfehlgehen": 8264,
      "ĠheiÃŁes": 8265,
      "Ã¶konomischen": 8266,
      "ĠRÃ¼ckstand": 8267,
      "ĠRÃ¼ckzahlung": 8268,
      "ĠRÃ¼ckschritt": 8269,
      "ĠRessourcenallok": 8270,
      "ĠMinute": 8271,
      "ĠMinister": 8272,
      "ĠMinistern": 8273,
      "ĠMÃ¤rkten": 8274,
      "ĠFÃ¼nften": 8275,
      "ĠIdeen": 8276,
      "ĠIdeologe": 8277,
      "ĠPresseberichte": 8278,
      "ĠGenf": 8279,
      "ĠGenuÃŁ": 8280,
      "ĠGenau": 8281,
      "Ġerlauben": 8282,
      "ĠerklÃ¤rte": 8283,
      "spunktes": 8284,
      "Ġanzubie": 8285,
      "ĠanzuhÃ¶ren": 8286,
      "Ġanzukurbe": 8287,
      "Ġanzuwenden": 8288,
      "Ġanzulasten": 8289,
      "Ġverschoben": 8290,
      "Ġverschwendet": 8291,
      "Ġverschlechtern": 8292,
      "Ġverlange": 8293,
      "Ġverursachen": 8294,
      "Ġverursacht": 8295,
      "Ġverursachte": 8296,
      "ĠVersehen": 8297,
      "ĠVerfÃ¼gbar": 8298,
      "Ġbeantragen": 8299,
      "Ġbeanstandet": 8300,
      "ĠUnzulÃ¤ss": 8301,
      "ĠUnzufrieden": 8302,
      "ĠStaatsan": 8303,
      "ĠStadtentwicklung": 8304,
      "ĠBeziehung": 8305,
      "ĠAngebotskatalog": 8306,
      "ĠbeigefÃ¼gt": 8307,
      "ĠInitiativ": 8308,
      "ĠIndustriepolitik": 8309,
      "ĠIndustriezwei": 8310,
      "ĠIndustrieausschusses": 8311,
      "ĠInformationen": 8312,
      "ĠInformationstechn": 8313,
      "ĠInformationsges": 8314,
      "ĠNiemand": 8315,
      "ĠErnstha": 8316,
      "ĠErneuerungen": 8317,
      "ĠausschlieÃŁen": 8318,
      "ĠausschlieÃŁlich": 8319,
      "gerecht": 8320,
      "gerechte": 8321,
      "ĠRedezeit": 8322,
      "ĠRedebeitrag": 8323,
      "ĠReformziele": 8324,
      "ĠReformvorschlÃ¤ge": 8325,
      "ĠJugendlichen": 8326,
      "ĠJugendarbeitslosigkeit": 8327,
      "Ġexplosion": 8328,
      "Ġexpandieren": 8329,
      "Ġexpeditiv": 8330,
      "stigender": 8331,
      "ĠAugenblicken": 8332,
      "Ġteilgenommen": 8333,
      "zeptabel": 8334,
      "Ġabzuschaffen": 8335,
      "Ġgewissem": 8336,
      "Ġkonstatieren": 8337,
      "Ġkonstitutionelles": 8338,
      "Ġgenehmigten": 8339,
      "ultationsre": 8340,
      "ĠStraÃŁenverkehr": 8341,
      "ĠStraÃŁenrand": 8342,
      "ĠStrategien": 8343,
      "ĠWiedereinglie": 8344,
      "ĠWiederbele": 8345,
      "ĠWiederankurbe": 8346,
      "ĠRegierungschefs": 8347,
      "Ġbedauern": 8348,
      "Ġbedauerlicher": 8349,
      "Ġerwartenden": 8350,
      "Ġentspreche": 8351,
      "ĠVereinbarung": 8352,
      "ĠAusbildungsmaÃŁnahmen": 8353,
      "ĠAusbildungsniveaus": 8354,
      "ĠAusbildungsgÃ¤nge": 8355,
      "ĠAusbildungsstrukturen": 8356,
      "ĠAusbildungskosten": 8357,
      "Ġvorgeschlagene": 8358,
      "ĠGefahrguttransports": 8359,
      "ĠVerwaltungsverfahren": 8360,
      "ĠVerwaltungsvereinfachung": 8361,
      "ĠVerwaltungsaufwand": 8362,
      "Ġwiderwill": 8363,
      "Ġwiderspiegel": 8364,
      "Ġwiderstrebend": 8365,
      "ĠwettbewerbsfÃ¤hig": 8366,
      "ĠwettbewerbsfÃ¤higen": 8367,
      "ĠwettbewerbsfÃ¤higere": 8368,
      "ĠKartellamt": 8369,
      "ĠKartellverbot": 8370,
      "ĠDiskussionen": 8371,
      "ĠbefÃ¼rworten": 8372,
      "ĠbetrÃ¤chtlich": 8373,
      "ĠbetrÃ¤chtliche": 8374,
      "ĠbetrÃ¤chtlicher": 8375,
      "ĠfÃ¶rdernden": 8376,
      "Ġlegitimierter": 8377,
      "ĠGeschÃ¤ftspunktes": 8378,
      "ĠWeiÃŁbuches": 8379,
      "Vertrag": 8380,
      "dington": 8381,
      "idierung": 8382,
      "lernen": 8383,
      "maÃŁen": 8384,
      "ovativen": 8385,
      "oxe": 8386,
      "ptete": 8387,
      "sanlagen": 8388,
      "sanreizen": 8389,
      "sanalysen": 8390,
      "wÃ¼rdigen": 8391,
      "Ġ34": 8392,
      "Ġ37": 8393,
      "Ġungerechtfertigt": 8394,
      "ĠungleichmÃ¤ÃŁig": 8395,
      "Ġdringlich": 8396,
      "eiderte": 8397,
      "iesischen": 8398,
      "ĠunrechtmÃ¤ÃŁige": 8399,
      "ĠunrechtmÃ¤ÃŁigen": 8400,
      "Ġsachliche": 8401,
      "Ġsachlicher": 8402,
      "Ġsachkundigen": 8403,
      "Ġsachgerechte": 8404,
      "Ġsechs": 8405,
      "Ġsechste": 8406,
      "ĠzerstÃ¶ren": 8407,
      "ĠzerstÃ¶rerischen": 8408,
      "Ġzahlreichen": 8409,
      "Ġzunehmend": 8410,
      "Ġzunehmenden": 8411,
      "Ġzunehmende": 8412,
      "ĠmÃ¼ndlichen": 8413,
      "ĠmaÃŁgeschn": 8414,
      "Ġmaximale": 8415,
      "Ġmaximalen": 8416,
      "ĠBesuch": 8417,
      "ĠBesiedlung": 8418,
      "ĠBesorgnis": 8419,
      "ĠBesitzstands": 8420,
      "radoxe": 8421,
      "Ġnutze": 8422,
      "ĠnÃ¶rdliche": 8423,
      "ĠPoos": 8424,
      "ĠPersonal": 8425,
      "ĠKÃ¶nnten": 8426,
      "Ġfreilich": 8427,
      "Ġfreigesprochen": 8428,
      "Ġflexible": 8429,
      "Ġflexibler": 8430,
      "Ġflexibel": 8431,
      "Ġflexiblen": 8432,
      "ĠDarin": 8433,
      "ĠDarunter": 8434,
      "ĠDokumentes": 8435,
      "Ġhochmo": 8436,
      "Ġhochqualifiz": 8437,
      "Ġzugestehen": 8438,
      "ĠzugehÃ¶rt": 8439,
      "ĠzusÃ¤tzlichen": 8440,
      "ĠWeltmarkt": 8441,
      "Ġgekopp": 8442,
      "ĠgekÃ¼rzt": 8443,
      "Ġgeschrieben": 8444,
      "Ġgeschickt": 8445,
      "ĠMilliar": 8446,
      "ĠMillennium": 8447,
      "ĠFreund": 8448,
      "ĠFernseh": 8449,
      "ĠFernsehen": 8450,
      "ĠFortsetzung": 8451,
      "ĠFristverlÃ¤ngerung": 8452,
      "Ġkofinanz": 8453,
      "Ġkostenintensive": 8454,
      "ĠHandhab": 8455,
      "ĠGrenze": 8456,
      "ĠGrenzen": 8457,
      "ĠerhÃ¶hen": 8458,
      "ĠerhÃ¶ht": 8459,
      "ĠKommunikationsnetze": 8460,
      "Ġangewendet": 8461,
      "Ġangewachsenen": 8462,
      "Ġverkannt": 8463,
      "ĠverknÃ¼": 8464,
      "Ġverkaufen": 8465,
      "ĠverkÃ¼ndet": 8466,
      "Ġverfolgt": 8467,
      "ĠLiest": 8468,
      "ĠLieber": 8469,
      "ĠLiebe": 8470,
      "ĠLiegt": 8471,
      "Ġbewilligen": 8472,
      "ĠbewÃ¤hrten": 8473,
      "Ġbevorzugt": 8474,
      "Ġbevorzugte": 8475,
      "Ġbevorstehende": 8476,
      "Ġbedeutsam": 8477,
      "Ġbedeutsame": 8478,
      "Ġstrukturell": 8479,
      "Ġstrukturelle": 8480,
      "ĠstÃ¤ndigen": 8481,
      "Ġvorherseh": 8482,
      "ĠTod": 8483,
      "ĠTode": 8484,
      "ĠTobin": 8485,
      "ĠTodesurteils": 8486,
      "ĠTunnelverkehr": 8487,
      "ĠTempo": 8488,
      "ĠAnregung": 8489,
      "Ġmittlere": 8490,
      "ĠInternets": 8491,
      "ĠÃ¼berwinden": 8492,
      "ĠÃ¼berwunden": 8493,
      "ĠNichttÃ¤tig": 8494,
      "ĠNichtausschÃ¶pfung": 8495,
      "ĠNichtraucherzonen": 8496,
      "ĠNationen": 8497,
      "ĠNationalen": 8498,
      "ĠNationalstaaten": 8499,
      "ĠNationalisierungsprozeÃŁ": 8500,
      "ĠNormungen": 8501,
      "ĠNormungsarbeiten": 8502,
      "Ġausgerichtet": 8503,
[...]
